<pad>	0
<s>	0
</s>	0
<unk>	0
<0x00>	0
<0x01>	0
<0x02>	0
<0x03>	0
<0x04>	0
<0x05>	0
<0x06>	0
<0x07>	0
<0x08>	0
<0x09>	0
<0x0A>	0
<0x0B>	0
<0x0C>	0
<0x0D>	0
<0x0E>	0
<0x0F>	0
<0x10>	0
<0x11>	0
<0x12>	0
<0x13>	0
<0x14>	0
<0x15>	0
<0x16>	0
<0x17>	0
<0x18>	0
<0x19>	0
<0x1A>	0
<0x1B>	0
<0x1C>	0
<0x1D>	0
<0x1E>	0
<0x1F>	0
<0x20>	0
<0x21>	0
<0x22>	0
<0x23>	0
<0x24>	0
<0x25>	0
<0x26>	0
<0x27>	0
<0x28>	0
<0x29>	0
<0x2A>	0
<0x2B>	0
<0x2C>	0
<0x2D>	0
<0x2E>	0
<0x2F>	0
<0x30>	0
<0x31>	0
<0x32>	0
<0x33>	0
<0x34>	0
<0x35>	0
<0x36>	0
<0x37>	0
<0x38>	0
<0x39>	0
<0x3A>	0
<0x3B>	0
<0x3C>	0
<0x3D>	0
<0x3E>	0
<0x3F>	0
<0x40>	0
<0x41>	0
<0x42>	0
<0x43>	0
<0x44>	0
<0x45>	0
<0x46>	0
<0x47>	0
<0x48>	0
<0x49>	0
<0x4A>	0
<0x4B>	0
<0x4C>	0
<0x4D>	0
<0x4E>	0
<0x4F>	0
<0x50>	0
<0x51>	0
<0x52>	0
<0x53>	0
<0x54>	0
<0x55>	0
<0x56>	0
<0x57>	0
<0x58>	0
<0x59>	0
<0x5A>	0
<0x5B>	0
<0x5C>	0
<0x5D>	0
<0x5E>	0
<0x5F>	0
<0x60>	0
<0x61>	0
<0x62>	0
<0x63>	0
<0x64>	0
<0x65>	0
<0x66>	0
<0x67>	0
<0x68>	0
<0x69>	0
<0x6A>	0
<0x6B>	0
<0x6C>	0
<0x6D>	0
<0x6E>	0
<0x6F>	0
<0x70>	0
<0x71>	0
<0x72>	0
<0x73>	0
<0x74>	0
<0x75>	0
<0x76>	0
<0x77>	0
<0x78>	0
<0x79>	0
<0x7A>	0
<0x7B>	0
<0x7C>	0
<0x7D>	0
<0x7E>	0
<0x7F>	0
<0x80>	0
<0x81>	0
<0x82>	0
<0x83>	0
<0x84>	0
<0x85>	0
<0x86>	0
<0x87>	0
<0x88>	0
<0x89>	0
<0x8A>	0
<0x8B>	0
<0x8C>	0
<0x8D>	0
<0x8E>	0
<0x8F>	0
<0x90>	0
<0x91>	0
<0x92>	0
<0x93>	0
<0x94>	0
<0x95>	0
<0x96>	0
<0x97>	0
<0x98>	0
<0x99>	0
<0x9A>	0
<0x9B>	0
<0x9C>	0
<0x9D>	0
<0x9E>	0
<0x9F>	0
<0xA0>	0
<0xA1>	0
<0xA2>	0
<0xA3>	0
<0xA4>	0
<0xA5>	0
<0xA6>	0
<0xA7>	0
<0xA8>	0
<0xA9>	0
<0xAA>	0
<0xAB>	0
<0xAC>	0
<0xAD>	0
<0xAE>	0
<0xAF>	0
<0xB0>	0
<0xB1>	0
<0xB2>	0
<0xB3>	0
<0xB4>	0
<0xB5>	0
<0xB6>	0
<0xB7>	0
<0xB8>	0
<0xB9>	0
<0xBA>	0
<0xBB>	0
<0xBC>	0
<0xBD>	0
<0xBE>	0
<0xBF>	0
<0xC0>	0
<0xC1>	0
<0xC2>	0
<0xC3>	0
<0xC4>	0
<0xC5>	0
<0xC6>	0
<0xC7>	0
<0xC8>	0
<0xC9>	0
<0xCA>	0
<0xCB>	0
<0xCC>	0
<0xCD>	0
<0xCE>	0
<0xCF>	0
<0xD0>	0
<0xD1>	0
<0xD2>	0
<0xD3>	0
<0xD4>	0
<0xD5>	0
<0xD6>	0
<0xD7>	0
<0xD8>	0
<0xD9>	0
<0xDA>	0
<0xDB>	0
<0xDC>	0
<0xDD>	0
<0xDE>	0
<0xDF>	0
<0xE0>	0
<0xE1>	0
<0xE2>	0
<0xE3>	0
<0xE4>	0
<0xE5>	0
<0xE6>	0
<0xE7>	0
<0xE8>	0
<0xE9>	0
<0xEA>	0
<0xEB>	0
<0xEC>	0
<0xED>	0
<0xEE>	0
<0xEF>	0
<0xF0>	0
<0xF1>	0
<0xF2>	0
<0xF3>	0
<0xF4>	0
<0xF5>	0
<0xF6>	0
<0xF7>	0
<0xF8>	0
<0xF9>	0
<0xFA>	0
<0xFB>	0
<0xFC>	0
<0xFD>	0
<0xFE>	0
<0xFF>	0
ال	-0
▁ال	-1
▁أ	-2
▁م	-3
▁ل	-4
▁.	-5
▁و	-6
▁ب	-7
▁ت	-8
▁ف	-9
ان	-10
▁،	-11
▁الم	-12
▁ع	-13
▁ي	-14
ية	-15
نا	-16
▁ه	-17
ات	-18
▁في	-19
▁إ	-20
▁من	-21
▁ك	-22
▁أن	-23
ار	-24
ين	-25
ها	-26
لى	-27
▁س	-28
ما	-29
ذا	-30
ون	-31
▁الأ	-32
▁-	-33
▁ح	-34
ول	-35
را	-36
ري	-37
▁الت	-38
▁ا	-39
لا	-40
▁ن	-41
▁(	-42
ست	-43
قد	-44
لي	-45
لك	-46
ير	-47
ام	-48
▁لا	-49
▁على	-50
دي	-51
▁ج	-52
▁وال	-53
دة	-54
▁ق	-55
▁لل	-56
▁الع	-57
يا	-58
وا	-59
▁ش	-60
▁ما	-61
دا	-62
عل	-63
▁,	-64
▁ان	-65
ني	-66
▁بال	-67
▁هذا	-68
ور	-69
كن	-70
ذلك	-71
▁الس	-72
▁ر	-73
▁إلى	-74
▁عن	-75
هم	-76
يد	-77
أن	-78
وم	-79
▁الح	-80
ذه	-81
اب	-82
اً	-83
▁مع	-84
▁الب	-85
▁"	-86
مي	-87
لة	-88
▁الق	-89
▁الإ	-90
▁لم	-91
رة	-92
▁؟	-93
جل	-94
سا	-95
▁خ	-96
▁د	-97
عم	-98
رف	-99
نت	-100
▁الج	-101
عت	-102
اد	-103
قت	-104
عد	-105
▁ذلك	-106
▁كان	-107
في	-108
▁الد	-109
▁إن	-110
قة	-111
مة	-112
▁الأم	-113
▁2	-114
يس	-115
▁1	-116
بي	-117
ائ	-118
تح	-119
▁هنا	-120
قي	-121
اء	-122
▁الا	-123
▁أي	-124
▁!	-125
بر	-126
▁ص	-127
تي	-128
عة	-129
00	-130
▁الف	-131
▁أنا	-132
تم	-133
▁الو	-134
كون	-135
شر	-136
ود	-137
مل	-138
▁الذ	-139
▁هل	-140
▁يا	-141
خر	-142
وق	-143
حد	-144
▁التي	-145
▁الن	-146
▁غ	-147
يف	-148
▁ط	-149
▁الخ	-150
▁هذه	-151
وج	-152
سب	-153
▁لقد	-154
▁علي	-155
مكن	-156
▁الر	-157
كل	-158
فا	-159
سي	-160
▁الص	-161
وي	-162
▁سي	-163
▁أو	-164
رك	-165
▁كل	-166
من	-167
حت	-168
▁أنت	-169
▁تع	-170
نة	-171
▁الش	-172
رب	-173
وف	-174
صل	-175
▁آ	-176
▁حس	-177
عا	-178
▁وت	-179
▁هو	-180
▁الل	-181
سم	-182
يم	-183
ريد	-184
ــ	-185
بل	-186
▁الدول	-187
▁وا	-188
با	-189
حة	-190
وع	-191
▁الذي	-192
يت	-193
▁تق	-194
▁الط	-195
▁شي	-196
▁يمكن	-197
▁وأ	-198
اف	-199
كر	-200
▁أع	-201
مر	-202
يل	-203
▁الآ	-204
▁قد	-205
كان	-206
▁لي	-207
▁الك	-208
ظر	-209
قط	-210
يع	-211
▁حسنا	-212
▁لك	-213
اص	-214
اج	-215
▁تح	-216
▁است	-217
عي	-218
مت	-219
▁العام	-220
بد	-221
▁المت	-222
▁200	-223
▁لكن	-224
▁لدي	-225
طة	-226
بة	-227
ارة	-228
▁مت	-229
▁كنت	-230
▁المتح	-231
جب	-232
فعل	-233
▁ث	-234
▁بش	-235
مية	-236
▁ماذا	-237
لت	-238
▁المتحدة	-239
عض	-240
▁يت	-241
كم	-242
خص	-243
لب	-244
▁هناك	-245
▁لن	-246
سة	-247
كت	-248
حب	-249
رت	-250
يز	-251
▁ست	-252
ثل	-253
رض	-254
حي	-255
مو	-256
▁بأن	-257
ريق	-258
نس	-259
علم	-260
راء	-261
جنة	-262
▁ز	-263
▁ليس	-264
قا	-265
▁ض	-266
داً	-267
▁مج	-268
▁سأ	-269
وس	-270
▁به	-271
▁الآن	-272
وب	-273
كِ	-274
هي	-275
▁أخ	-276
الة	-277
لم	-278
▁تت	-279
مج	-280
▁انت	-281
▁الث	-282
رار	-283
عتقد	-284
▁بين	-285
▁لت	-286
▁فقط	-287
يرة	-288
يات	-289
▁هي	-290
تى	-291
▁إذا	-292
حق	-293
▁شيء	-294
صد	-295
فس	-296
مع	-297
▁تن	-298
ثر	-299
شار	-300
ميع	-301
▁نح	-302
إن	-303
رج	-304
▁3	-305
ذهب	-306
وض	-307
▁ات	-308
وت	-309
▁أف	-310
وك	-311
▁عند	-312
قل	-313
▁؛	-314
▁المن	-315
دم	-316
خت	-317
▁ولك	-318
▁غير	-319
خل	-320
سل	-321
▁أنه	-322
الي	-323
اني	-324
رات	-325
▁أت	-326
اه	-327
▁لأ	-328
دت	-329
▁نعم	-330
▁أجل	-331
▁الأمم	-332
▁بعد	-333
ضا	-334
ند	-335
تما	-336
ورة	-337
رائ	-338
▁يجب	-339
فت	-340
ًا	-341
▁وج	-342
▁وب	-343
▁ولكن	-344
نية	-345
جلس	-346
▁حق	-347
▁النا	-348
لد	-349
لف	-350
حا	-351
راً	-352
▁المع	-353
▁حسناً	-354
ئيس	-355
▁أم	-356
▁وي	-357
انية	-358
ستط	-359
▁بم	-360
ديد	-361
▁له	-362
لق	-363
▁كيف	-364
▁أك	-365
▁بد	-366
خرى	-367
ماذا	-368
▁كانت	-369
عمل	-370
▁بعض	-371
غي	-372
▁تم	-373
سف	-374
▁الاست	-375
▁بشأن	-376
رح	-377
كوم	-378
فق	-379
▁ذ	-380
▁5	-381
الية	-382
وات	-383
▁وفي	-384
▁اللجنة	-385
▁عمل	-386
▁بأ	-387
فاق	-388
▁تش	-389
▁وم	-390
بت	-391
▁4	-392
▁العمل	-393
▁لو	-394
انون	-395
▁المست	-396
▁وه	-397
▁سن	-398
لام	-399
▁المح	-400
وية	-401
▁تلك	-402
▁وإ	-403
▁حتى	-404
▁الي	-405
ستطيع	-406
▁والت	-407
اع	-408
▁سوف	-409
▁عام	-410
ضع	-411
رير	-412
▁المد	-413
▁والم	-414
وص	-415
نى	-416
▁إنه	-417
▁لأن	-418
هد	-419
ئة	-420
قر	-421
وار	-422
دث	-423
▁قبل	-424
تها	-425
الم	-426
▁نحن	-427
▁انا	-428
▁يكون	-429
رد	-430
▁يع	-431
ثة	-432
▁الأمر	-433
▁بت	-434
▁للم	-435
▁كما	-436
بح	-437
لال	-438
بير	-439
لاً	-440
ته	-441
رى	-442
▁عندما	-443
تك	-444
ضل	-445
فيذ	-446
▁الان	-447
▁جميع	-448
▁ولا	-449
طف	-450
▁19	-451
▁الغ	-452
خذ	-453
اري	-454
جا	-455
فع	-456
▁المؤ	-457
▁للت	-458
▁مش	-459
▁دا	-460
▁فعل	-461
▁الات	-462
▁ول	-463
وز	-464
ثير	-465
▁ين	-466
▁بي	-467
▁كذلك	-468
▁مست	-469
ناء	-470
بع	-471
▁مثل	-472
عب	-473
يه	-474
سر	-475
▁إلي	-476
عمال	-477
قول	-478
مار	-479
▁فى	-480
يني	-481
زيز	-482
هر	-483
ضي	-484
▁العامة	-485
▁شخص	-486
▁للأ	-487
بار	-488
▁)	-489
▁التن	-490
▁حال	-491
عية	-492
ظم	-493
▁رب	-494
قدم	-495
▁أح	-496
▁الإنس	-497
▁تكون	-498
▁دول	-499
▁الخاص	-500
بدو	-501
أك	-502
سات	-503
▁أش	-504
لاح	-505
خد	-506
▁مؤ	-507
رق	-508
ماً	-509
وى	-510
سية	-511
▁أحد	-512
امل	-513
وة	-514
▁الأول	-515
أة	-516
▁المسا	-517
سبة	-518
قيق	-519
▁خط	-520
بق	-521
نامج	-522
▁نفس	-523
الت	-524
▁ار	-525
فل	-526
عات	-527
▁بر	-528
▁بح	-529
راف	-530
▁رأ	-531
ريب	-532
▁المج	-533
▁أريد	-534
▁الما	-535
يك	-536
▁مح	-537
▁بها	-538
▁البلد	-539
▁بالت	-540
دد	-541
▁أكثر	-542
ئية	-543
▁تج	-544
جتما	-545
ضر	-546
ليس	-547
▁المش	-548
ظن	-549
▁الوقت	-550
▁مر	-551
غير	-552
▁بإ	-553
قتص	-554
سأ	-555
▁ون	-556
حدث	-557
يج	-558
▁ومن	-559
▁انه	-560
▁وق	-561
ثي	-562
▁با	-563
▁بما	-564
▁أعرف	-565
▁لماذا	-566
كة	-567
عدة	-568
▁6	-569
▁المنا	-570
▁تريد	-571
وان	-572
عر	-573
▁خلال	-574
زل	-575
▁الشر	-576
ولا	-577
▁أب	-578
▁وع	-579
▁وك	-580
▁الدولي	-581
دى	-582
▁وأن	-583
▁إنها	-584
▁أخرى	-585
علوم	-586
▁تد	-587
قب	-588
▁عم	-589
ّة	-590
حتاج	-591
دول	-592
فر	-593
كي	-594
▁ـ	-595
▁يُ	-596
جه	-597
▁وقد	-598
▁تعرف	-599
طار	-600
▁الى	-601
علق	-602
▁عليه	-603
▁الحكوم	-604
▁التق	-605
فة	-606
وه	-607
▁شك	-608
▁ربما	-609
▁أعتقد	-610
الات	-611
▁أين	-612
علومات	-613
▁الرئيس	-614
▁جي	-615
صة	-616
قوم	-617
صول	-618
▁الدولية	-619
خير	-620
اح	-621
▁تأ	-622
كا	-623
▁أيضا	-624
شروع	-625
ارج	-626
ئل	-627
▁الز	-628
▁وقت	-629
بغي	-630
▁الإنسان	-631
جراء	-632
طي	-633
حيح	-634
مه	-635
▁عليك	-636
ساء	-637
▁بل	-638
ضاء	-639
▁اله	-640
▁آخر	-641
▁أس	-642
▁أص	-643
▁بن	-644
▁شيئ	-645
طل	-646
▁التع	-647
هل	-648
ضاً	-649
مان	-650
▁حي	-651
ظام	-652
▁دع	-653
▁الوط	-654
وري	-655
▁المر	-656
حدة	-657
)؟	-658
ينة	-659
▁بالم	-660
طا	-661
▁التح	-662
▁فإن	-663
▁يج	-664
طلب	-665
سك	-666
باد	-667
▁أنك	-668
كتب	-669
طر	-670
قلي	-671
خبر	-672
▁لإ	-673
▁رائ	-674
▁تف	-675
دارة	-676
▁اليوم	-677
▁7	-678
وقف	-679
▁القانون	-680
ساعد	-681
طفال	-682
▁البلدان	-683
▁أنّ	-684
ويل	-685
▁منذ	-686
ئي	-687
200	-688
ظمة	-689
هاب	-690
عرف	-691
قديم	-692
▁أر	-693
▁فر	-694
قيقة	-695
ذي	-696
ولة	-697
▁أد	-698
ياً	-699
▁والأ	-700
▁أخبر	-701
راض	-702
▁اعت	-703
▁نا	-704
▁تص	-705
ديدة	-706
▁السي	-707
▁مد	-708
▁القرار	-709
تا	-710
معية	-711
▁حقوق	-712
وال	-713
ليل	-714
▁بالن	-715
عاون	-716
قاب	-717
on	-718
▁جداً	-719
▁لح	-720
▁ثم	-721
▁رجل	-722
▁السيا	-723
عيد	-724
▁مُ	-725
سط	-726
ورية	-727
▁مكان	-728
لاق	-729
▁الاقتص	-730
▁صحيح	-731
رية	-732
▁بك	-733
▁فيما	-734
▁الأمن	-735
▁لست	-736
▁أنها	-737
وجد	-738
▁الفق	-739
وني	-740
وظ	-741
▁أيضاً	-742
ذكر	-743
ياء	-744
▁يبدو	-745
داد	-746
▁هيا	-747
ضاف	-748
ذن	-749
يادة	-750
▁السيد	-751
عين	-752
▁الإن	-753
▁يوم	-754
▁وح	-755
تمر	-756
▁تفعل	-757
▁جيد	-758
▁ذات	-759
▁فيها	-760
▁واحد	-761
ودة	-762
َّ	-763
▁سا	-764
▁اي	-765
▁لذا	-766
▁أَ	-767
▁a	-768
▁الدا	-769
انات	-770
فاقية	-771
▁بص	-772
▁الض	-773
▁الأط	-774
▁آسف	-775
▁أج	-776
ادية	-777
▁سيد	-778
▁بخير	-779
لاء	-780
▁لها	-781
▁كلا	-782
▁تر	-783
▁8	-784
er	-785
▁تس	-786
▁أق	-787
▁وف	-788
شي	-789
▁العال	-790
in	-791
▁A	-792
▁البر	-793
▁عليها	-794
▁مجلس	-795
تحدث	-796
خاص	-797
▁يد	-798
خرج	-799
ليات	-800
▁يش	-801
سلحة	-802
سن	-803
صال	-804
▁بالأ	-805
▁منا	-806
▁الفر	-807
▁مه	-808
▁مرة	-809
▁المجلس	-810
زي	-811
مام	-812
له	-813
▁9	-814
انة	-815
▁مس	-816
امة	-817
به	-818
▁البي	-819
راج	-820
▁الاجتما	-821
راد	-822
▁199	-823
خا	-824
مس	-825
راق	-826
بط	-827
ّا	-828
▁الأن	-829
▁انها	-830
▁تُ	-831
اجة	-832
صدق	-833
▁أعلم	-834
▁تعلم	-835
ريقة	-836
▁الوا	-837
▁دائ	-838
علقة	-839
▁تست	-840
زة	-841
كمة	-842
▁يمكنك	-843
▁تقرير	-844
▁أليس	-845
▁ينبغي	-846
▁رئيس	-847
انب	-848
داء	-849
شطة	-850
انا	-851
▁أول	-852
▁دولار	-853
/1	-854
وح	-855
ركة	-856
بات	-857
▁موا	-858
▁أفضل	-859
زام	-860
ضح	-861
أت	-862
غا	-863
▁مشروع	-864
▁الجمعية	-865
▁رج	-866
كرة	-867
▁الأطراف	-868
▁الأف	-869
صف	-870
عادة	-871
▁الناس	-872
زم	-873
رفة	-874
سبب	-875
▁الأش	-876
مثل	-877
▁وضع	-878
▁نت	-879
▁تنفيذ	-880
▁العالم	-881
دمات	-882
▁بشكل	-883
▁سيكون	-884
هذا	-885
ياة	-886
▁خاص	-887
قع	-888
▁يح	-889
جي	-890
صر	-891
▁الرا	-892
▁الأمين	-893
كات	-894
ابة	-895
كس	-896
▁فع	-897
طقة	-898
▁10	-899
▁اسم	-900
▁المس	-901
لية	-902
خدام	-903
▁يست	-904
▁ليست	-905
▁المتعلقة	-906
هود	-907
كاف	-908
وء	-909
ركز	-910
صلت	-911
▁حدث	-912
ّي	-913
ضية	-914
▁لع	-915
ونا	-916
مكان	-917
مين	-918
حباً	-919
▁لديك	-920
نْ	-921
▁حيث	-922
جم	-923
تمع	-924
▁المادة	-925
▁t	-926
▁الرجل	-927
▁السلام	-928
▁اب	-929
ائق	-930
▁أستطيع	-931
▁قت	-932
▁الذين	-933
جار	-934
▁حول	-935
قم	-936
وقع	-937
▁جدا	-938
▁أيها	-939
▁بذلك	-940
ترة	-941
▁ها	-942
▁يكن	-943
▁فيه	-944
بدأ	-945
ليم	-946
▁يتعلق	-947
زيد	-948
وط	-949
▁الكثير	-950
▁أنني	-951
ظمات	-952
▁أنتِ	-953
دابير	-954
▁الخاصة	-955
▁تخ	-956
▁قال	-957
جد	-958
▁كم	-959
▁الثاني	-960
▁لدينا	-961
▁»	-962
▁دي	-963
▁«	-964
ابات	-965
زع	-966
ؤول	-967
أنا	-968
▁دور	-969
ارات	-970
ولى	-971
▁قرار	-972
جة	-973
ديق	-974
ظيم	-975
▁بهذا	-976
انت	-977
كلم	-978
▁طريق	-979
رام	-980
شا	-981
وارد	-982
▁ثلا	-983
مق	-984
جر	-985
▁اللا	-986
▁الأسا	-987
فظ	-988
كَ	-989
شرة	-990
زا	-991
▁فقد	-992
شاء	-993
▁مجال	-994
ريك	-995
ختلف	-996
▁حيات	-997
زال	-998
▁المعلومات	-999
بلغ	-1000
▁سم	-1001
▁جمي	-1002
شرين	-1003
▁البح	-1004
جن	-1005
or	-1006
ليلة	-1007
▁الفقرة	-1008
▁قلت	-1009
▁شئ	-1010
كال	-1011
▁السل	-1012
ّر	-1013
▁الوطنية	-1014
▁يمكنني	-1015
▁إل	-1016
▁اذا	-1017
▁عدد	-1018
▁علينا	-1019
ورو	-1020
قرار	-1021
▁وس	-1022
ولي	-1023
▁تط	-1024
▁الحق	-1025
▁بالنسبة	-1026
الك	-1027
▁أوه	-1028
▁دون	-1029
در	-1030
▁تب	-1031
فين	-1032
▁حد	-1033
▁مص	-1034
ماية	-1035
▁حسن	-1036
▁الموا	-1037
en	-1038
بب	-1039
يام	-1040
ــــ	-1041
قص	-1042
شت	-1043
سنا	-1044
▁وهو	-1045
▁الأعمال	-1046
▁أحب	-1047
▁طلب	-1048
▁برنامج	-1049
▁رائع	-1050
▁ضد	-1051
كلة	-1052
اس	-1053
خط	-1054
▁بع	-1055
ادر	-1056
▁ور	-1057
جز	-1058
▁الانت	-1059
ادي	-1060
▁الأس	-1061
جراءات	-1062
▁وأنا	-1063
▁الساب	-1064
سائل	-1065
▁تحت	-1066
▁المرأة	-1067
نع	-1068
أكيد	-1069
▁شكراً	-1070
راك	-1071
▁عملية	-1072
وجه	-1073
▁واحدة	-1074
at	-1075
رامج	-1076
هن	-1077
▁منها	-1078
▁ألا	-1079
صلة	-1080
▁أل	-1081
موعة	-1082
▁فض	-1083
▁مرح	-1084
▁سيدي	-1085
قرر	-1086
مد	-1087
نف	-1088
رخ	-1089
فض	-1090
▁تقديم	-1091
وث	-1092
عضاء	-1093
يفة	-1094
يران	-1095
▁أمر	-1096
▁لهذا	-1097
هما	-1098
▁أث	-1099
ولوج	-1100
▁15	-1101
▁زوج	-1102
غم	-1103
شف	-1104
▁را	-1105
بيرة	-1106
▁إلا	-1107
▁القد	-1108
▁الأطفال	-1109
حاول	-1110
▁لجنة	-1111
نون	-1112
▁حين	-1113
▁بالإ	-1114
▁الجنس	-1115
▁المائ	-1116
▁20	-1117
▁أُ	-1118
حقوق	-1119
▁يوجد	-1120
an	-1121
املة	-1122
▁إطار	-1123
▁ظ	-1124
سألة	-1125
▁قط	-1126
▁يتم	-1127
باح	-1128
ّه	-1129
▁عدم	-1130
▁تما	-1131
▁لذلك	-1132
▁أه	-1133
▁والإ	-1134
▁فح	-1135
مهورية	-1136
▁مما	-1137
حاد	-1138
خدم	-1139
▁معي	-1140
تر	-1141
▁الأح	-1142
اول	-1143
▁يَ	-1144
يء	-1145
▁وش	-1146
كافحة	-1147
▁للح	-1148
he	-1149
▁تَ	-1150
▁مرحباً	-1151
▁حقاً	-1152
▁12	-1153
ائمة	-1154
▁أسا	-1155
▁انظر	-1156
دع	-1157
زمة	-1158
نات	-1159
ظة	-1160
▁الأخرى	-1161
▁لدى	-1162
▁جدول	-1163
همية	-1164
▁الولا	-1165
▁الإنما	-1166
19	-1167
قتل	-1168
واء	-1169
▁أبي	-1170
بري	-1171
▁عل	-1172
▁نوع	-1173
بيل	-1174
ذر	-1175
▁سيا	-1176
بحث	-1177
▁مث	-1178
▁الدولة	-1179
ماء	-1180
▁الام	-1181
غيرة	-1182
▁الأخ	-1183
▁الفريق	-1184
▁التعاون	-1185
رس	-1186
زء	-1187
بين	-1188
اتي	-1189
راتيج	-1190
قبل	-1191
▁حالة	-1192
▁المائة	-1193
▁المشار	-1194
ندوق	-1195
▁توا	-1196
طية	-1197
▁نحو	-1198
▁التنمية	-1199
▁السا	-1200
قش	-1201
▁S	-1202
▁المساعدة	-1203
▁الإقلي	-1204
ّد	-1205
▁التص	-1206
▁قام	-1207
▁كانون	-1208
▁شيئاً	-1209
غل	-1210
▁تعزيز	-1211
es	-1212
▁يحدث	-1213
▁الأعضاء	-1214
ساعدة	-1215
قات	-1216
▁تكن	-1217
▁00	-1218
هاية	-1219
ده	-1220
وجب	-1221
▁للإ	-1222
▁الخط	-1223
▁♪	-1224
▁وز	-1225
تُ	-1226
لين	-1227
يين	-1228
al	-1229
نين	-1230
ورات	-1231
▁إذاً	-1232
▁المكان	-1233
▁نظ	-1234
▁رأيت	-1235
▁عا	-1236
قييم	-1237
▁يريد	-1238
لات	-1239
ؤلاء	-1240
▁وهذا	-1241
سين	-1242
أنت	-1243
انك	-1244
▁حل	-1245
▁تؤ	-1246
▁تك	-1247
طال	-1248
وسي	-1249
/5	-1250
همة	-1251
ليون	-1252
▁إذن	-1253
▁تقول	-1254
▁التقرير	-1255
▁بلد	-1256
▁معك	-1257
▁ترك	-1258
▁البرنامج	-1259
▁11	-1260
عداد	-1261
حن	-1262
▁إنت	-1263
▁منه	-1264
▁بسبب	-1265
يب	-1266
حية	-1267
▁رؤ	-1268
▁بالط	-1269
ئات	-1270
كام	-1271
سمع	-1272
ذك	-1273
▁أعمال	-1274
▁مختلف	-1275
ارد	-1276
▁مكتب	-1277
▁وجه	-1278
▁تحقيق	-1279
▁اخت	-1280
▁وهي	-1281
▁بط	-1282
▁احت	-1283
▁لنا	-1284
▁بق	-1285
▁الليلة	-1286
▁C	-1287
طق	-1288
انيا	-1289
▁هم	-1290
▁للا	-1291
▁المص	-1292
▁حكوم	-1293
▁كبير	-1294
ريقيا	-1295
سيا	-1296
سسات	-1297
▁أظن	-1298
▁الشخص	-1299
داف	-1300
▁الدورة	-1301
▁والا	-1302
غة	-1303
▁‫	-1304
▁وسي	-1305
ارية	-1306
▁الله	-1307
قال	-1308
▁ذا	-1309
عزيز	-1310
▁وكان	-1311
▁13	-1312
▁الدي	-1313
▁*	-1314
وبة	-1315
▁العم	-1316
▁والد	-1317
لن	-1318
ارير	-1319
▁التنفيذ	-1320
هام	-1321
▁ملا	-1322
▁الحكومة	-1323
{\	-1324
نمية	-1325
قود	-1326
▁النظر	-1327
▁تستطيع	-1328
بقى	-1329
▁عزيز	-1330
▁الحصول	-1331
▁إي	-1332
▁يك	-1333
▁رقم	-1334
وضوع	-1335
▁النو	-1336
▁أمي	-1337
▁المشت	-1338
▁علا	-1339
▁مال	-1340
▁جديد	-1341
▁أغ	-1342
أي	-1343
بيب	-1344
▁شر	-1345
▁أرج	-1346
ـــ	-1347
يش	-1348
رهاب	-1349
▁التج	-1350
ؤون	-1351
▁اح	-1352
ريمة	-1353
▁تقوم	-1354
كذا	-1355
ارت	-1356
▁خارج	-1357
▁يؤ	-1358
▁عنه	-1359
▁أفعل	-1360
آن	-1361
نان	-1362
عراض	-1363
هو	-1364
ّل	-1365
صبح	-1366
▁فحسب	-1367
▁الثال	-1368
عط	-1369
مم	-1370
▁سل	-1371
▁الموارد	-1372
▁قانون	-1373
it	-1374
▁وما	-1375
▁بناء	-1376
ar	-1377
تاة	-1378
ابعة	-1379
▁لديه	-1380
▁اللع	-1381
▁الوح	-1382
طات	-1383
▁وين	-1384
خي	-1385
اك	-1386
▁المالية	-1387
يون	-1388
طلاق	-1389
▁لكي	-1390
هج	-1391
جات	-1392
▁نف	-1393
▁فعلت	-1394
طاق	-1395
ناول	-1396
طلق	-1397
▁إد	-1398
▁بج	-1399
ظري	-1400
▁المجتمع	-1401
▁كثي	-1402
▁بدون	-1403
غاية	-1404
▁إست	-1405
▁البشر	-1406
▁القط	-1407
▁كبيرة	-1408
ويت	-1409
▁لج	-1410
▁أيّ	-1411
ion	-1412
▁يعني	-1413
▁تشرين	-1414
ّم	-1415
▁I	-1416
▁نظام	-1417
▁والع	-1418
فه	-1419
▁العالمي	-1420
بية	-1421
▁أقول	-1422
▁التش	-1423
▁واست	-1424
▁هؤلاء	-1425
ينا	-1426
▁الخارج	-1427
▁الحقيقة	-1428
▁ذهب	-1429
ic	-1430
▁السن	-1431
▁”	-1432
▁رس	-1433
▁الشرطة	-1434
▁وجود	-1435
▁وإذ	-1436
▁تعتقد	-1437
▁يس	-1438
▁الحياة	-1439
مرأة	-1440
بال	-1441
دية	-1442
▁14	-1443
▁الجن	-1444
ضة	-1445
لاف	-1446
دين	-1447
▁2002	-1448
▁الأرض	-1449
ابع	-1450
فاء	-1451
▁اعتقد	-1452
ضافة	-1453
▁وعلى	-1454
▁الجميع	-1455
وغ	-1456
▁الأساسية	-1457
كد	-1458
سبوع	-1459
قترح	-1460
▁الاتفاقية	-1461
▁قلي	-1462
▁لات	-1463
):	-1464
▁البند	-1465
▁استخدام	-1466
▁o	-1467
▁يقول	-1468
/2	-1469
لول	-1470
▁وإن	-1471
▁[	-1472
راح	-1473
▁المعني	-1474
خاذ	-1475
ريف	-1476
▁توف	-1477
مييز	-1478
نفيذ	-1479
▁ستكون	-1480
▁الولايات	-1481
▁الاقتصادية	-1482
▁أعط	-1483
ائج	-1484
رفق	-1485
▁الطرف	-1486
▁المال	-1487
ستان	-1488
▁لما	-1489
▁ولم	-1490
▁الحكومية	-1491
سمبر	-1492
فضل	-1493
ناك	-1494
▁قتل	-1495
اي	-1496
▁أست	-1497
▁والح	-1498
رجة	-1499
▁للغاية	-1500
▁تل	-1501
ائية	-1502
أكد	-1503
قاء	-1504
▁سمعت	-1505
▁الأولى	-1506
▁أخذ	-1507
▁النظام	-1508
▁أفريقيا	-1509
قاف	-1510
قدمة	-1511
▁جديدة	-1512
▁سنوات	-1513
▁حز	-1514
▁مرحبا	-1515
▁إدارة	-1516
هدف	-1517
▁أننا	-1518
▁العالمية	-1519
▁الاحت	-1520
▁يمكننا	-1521
os	-1522
▁مي	-1523
ينية	-1524
نائية	-1525
▁تعال	-1526
▁فريق	-1527
▁المعنية	-1528
▁الإس	-1529
ماد	-1530
وبر	-1531
▁18	-1532
▁كت	-1533
▁إليه	-1534
▁تقدم	-1535
▁الأسلحة	-1536
▁الجل	-1537
ريت	-1538
كثر	-1539
▁كي	-1540
▁المحكمة	-1541
ّك	-1542
وضع	-1543
▁شع	-1544
▁التد	-1545
وير	-1546
سمية	-1547
▁جن	-1548
▁المنزل	-1549
ذب	-1550
▁يأ	-1551
اجتما	-1552
▁اه	-1553
▁هن	-1554
▁حقا	-1555
▁عقد	-1556
وما	-1557
▁قر	-1558
▁بالفعل	-1559
ربية	-1560
▁وتح	-1561
▁أصدق	-1562
▁كُ	-1563
▁لتح	-1564
▁2000	-1565
كار	-1566
لاغ	-1567
ومة	-1568
▁فكرة	-1569
ابت	-1570
▁30	-1571
▁لب	-1572
ويات	-1573
▁منك	-1574
▁الطريق	-1575
تنا	-1576
عود	-1577
▁هكذا	-1578
▁وغير	-1579
▁المعا	-1580
عه	-1581
▁بحق	-1582
▁{\	-1583
/200	-1584
▁بموجب	-1585
▁مل	-1586
عى	-1587
برا	-1588
▁2005	-1589
▁2004	-1590
يمة	-1591
▁الصلة	-1592
▁الوطني	-1593
▁سنة	-1594
▁عائ	-1595
▁جانب	-1596
لقد	-1597
مقرا	-1598
غب	-1599
وصيات	-1600
▁خاصة	-1601
▁الحد	-1602
▁مجموعة	-1603
فقة	-1604
▁الأمور	-1605
لاحظ	-1606
▁أردت	-1607
▁أعني	-1608
باب	-1609
▁والاجتما	-1610
▁تض	-1611
▁حصلت	-1612
▁نفسه	-1613
▁أقل	-1614
▁الساعة	-1615
▁النساء	-1616
▁بأنه	-1617
بادئ	-1618
دان	-1619
▁2006	-1620
▁إلهي	-1621
▁الهي	-1622
▁الاعت	-1623
تين	-1624
صدر	-1625
قابل	-1626
▁مرت	-1627
▁أما	-1628
▁بحاجة	-1629
ارس	-1630
ارك	-1631
▁الرج	-1632
▁النامية	-1633
مال	-1634
▁22	-1635
▁الإرهاب	-1636
ياه	-1637
يو	-1638
▁مجرد	-1639
▁الفترة	-1640
سيق	-1641
▁17	-1642
▁جيدة	-1643
▁الذهاب	-1644
()	-1645
▁بهذه	-1646
جاز	-1647
▁للج	-1648
▁منظمة	-1649
▁بالطبع	-1650
▁لكِ	-1651
▁أعضاء	-1652
ملك	-1653
▁قل	-1654
ثيقة	-1655
علان	-1656
▁أكون	-1657
▁يعرف	-1658
ثال	-1659
واعد	-1660
▁القيام	-1661
كين	-1662
▁الجديدة	-1663
اتف	-1664
حيم	-1665
▁16	-1666
مون	-1667
▁ود	-1668
▁الوحيد	-1669
▁الاتحاد	-1670
▁اجتما	-1671
بعة	-1672
▁جد	-1673
is	-1674
▁داخل	-1675
0)	-1676
فاع	-1677
▁()	-1678
▁انك	-1679
▁وأنت	-1680
▁الآخر	-1681
فترة	-1682
وين	-1683
▁موج	-1684
َل	-1685
ميل	-1686
▁سر	-1687
وجيه	-1688
▁تعمل	-1689
▁“	-1690
غيير	-1691
▁مشكلة	-1692
دل	-1693
اعات	-1694
ضايا	-1695
▁للن	-1696
▁الاقتصادي	-1697
قاط	-1698
صلاح	-1699
ديسمبر	-1700
▁الشيء	-1701
▁زيادة	-1702
امي	-1703
▁لط	-1704
▁مني	-1705
▁وض	-1706
سناً	-1707
▁2001	-1708
▁مؤتمر	-1709
▁لش	-1710
▁أني	-1711
▁لكم	-1712
▁لهم	-1713
▁يفعل	-1714
▁إليها	-1715
▁بغ	-1716
ظهر	-1717
عتبر	-1718
▁عمليات	-1719
راب	-1720
تمام	-1721
▁جعل	-1722
ريا	-1723
عيش	-1724
▁يقوم	-1725
▁الرئيسية	-1726
▁أود	-1727
اط	-1728
قدر	-1729
ورك	-1730
▁ثلاثة	-1731
ئم	-1732
اريخ	-1733
▁21	-1734
▁للس	-1735
ـ(	-1736
ابق	-1737
▁لَ	-1738
▁مليون	-1739
▁the	-1740
▁عرض	-1741
▁معلومات	-1742
موت	-1743
▁شكرا	-1744
▁p	-1745
لسط	-1746
▁المؤرخ	-1747
صي	-1748
واج	-1749
▁ير	-1750
▁أكبر	-1751
▁أمام	-1752
▁للع	-1753
▁الأشخاص	-1754
▁مق	-1755
▁بالح	-1756
أس	-1757
▁إس	-1758
▁صدي	-1759
نتين	-1760
▁كاف	-1761
"؟	-1762
▁وظ	-1763
▁وذلك	-1764
▁السلاح	-1765
بك	-1766
اتها	-1767
▁عشر	-1768
ائي	-1769
▁كنا	-1770
▁قاد	-1771
▁مشار	-1772
جع	-1773
خلي	-1774
▁إب	-1775
nd	-1776
▁of	-1777
▁معه	-1778
▁الطفل	-1779
▁نهاية	-1780
▁البع	-1781
▁إح	-1782
▁أرى	-1783
▁ومع	-1784
▁وجدت	-1785
▁أثناء	-1786
▁المنطقة	-1787
از	-1788
بس	-1789
شك	-1790
ديث	-1791
على	-1792
▁استط	-1793
▁ممت	-1794
▁2003	-1795
▁جل	-1796
فترض	-1797
▁فترة	-1798
▁والن	-1799
▁البشرية	-1800
اق	-1801
صب	-1802
هب	-1803
▁بإمكان	-1804
اردة	-1805
▁اخ	-1806
▁صديق	-1807
▁المؤتمر	-1808
زوج	-1809
وقي	-1810
▁العامل	-1811
▁المقرر	-1812
▁والخ	-1813
▁بالتأكيد	-1814
▁نطاق	-1815
▁لد	-1816
▁المنظمات	-1817
باط	-1818
▁الثانية	-1819
زاء	-1820
▁المُ	-1821
كتور	-1822
▁النووية	-1823
▁مات	-1824
نك	-1825
اكل	-1826
ليز	-1827
ذار	-1828
▁مبا	-1829
▁منت	-1830
▁توقف	-1831
▁فضلك	-1832
▁أهمية	-1833
▁الدعم	-1834
▁الواقع	-1835
اهد	-1836
▁أبداً	-1837
ائف	-1838
راع	-1839
▁مخ	-1840
▁وث	-1841
▁عليّ	-1842
▁يعمل	-1843
▁تحتاج	-1844
ou	-1845
دف	-1846
ضى	-1847
وفي	-1848
▁اريد	-1849
▁ته	-1850
▁المل	-1851
▁الباب	-1852
▁او	-1853
▁وط	-1854
خدرات	-1855
▁?	-1856
▁بدا	-1857
▁تبدو	-1858
جئ	-1859
▁جزء	-1860
▁كال	-1861
▁ضر	-1862
يتها	-1863
▁النار	-1864
▁التدابير	-1865
طلع	-1866
▁سيما	-1867
▁الصغيرة	-1868
قيقي	-1869
بيق	-1870
موع	-1871
▁دعم	-1872
▁للق	-1873
▁المسائل	-1874
▁'	-1875
قدير	-1876
▁إنّ	-1877
راسة	-1878
▁ألف	-1879
▁بسر	-1880
▁ينت	-1881
▁أشعر	-1882
▁تذهب	-1883
▁إجراء	-1884
▁الإنت	-1885
▁متى	-1886
▁جمهورية	-1887
ed	-1888
مقراطية	-1889
/6	-1890
ضمن	-1891
وعة	-1892
▁عبر	-1893
▁محد	-1894
▁الكل	-1895
▁الجحيم	-1896
▁سبب	-1897
▁المنت	-1898
بان	-1899
▁مو	-1900
▁s	-1901
كره	-1902
▁لر	-1903
▁بأس	-1904
▁بكل	-1905
▁كلّ	-1906
▁ثانية	-1907
▁الداخل	-1908
فك	-1909
عو	-1910
▁فهم	-1911
سون	-1912
فهم	-1913
▁تنت	-1914
ياجات	-1915
▁مساعد	-1916
▁الخدمات	-1917
سمح	-1918
هداف	-1919
▁وست	-1920
▁الحالة	-1921
▁لابد	-1922
يزانية	-1923
▁اقت	-1924
▁مجد	-1925
▁دائماً	-1926
▁الإقليمية	-1927
عوب	-1928
▁باست	-1929
▁الإنمائية	-1930
▁ثلاث	-1931
▁الرجال	-1932
خول	-1933
▁كن	-1934
▁أساس	-1935
فيد	-1936
لاد	-1937
▁نظر	-1938
▁2007	-1939
جيل	-1940
▁ألم	-1941
راتيجية	-1942
عْ	-1943
▁25	-1944
ديل	-1945
فوض	-1946
لاع	-1947
▁طوي	-1948
▁وينبغي	-1949
▁الإدارة	-1950
ارب	-1951
قية	-1952
▁تغ	-1953
▁قص	-1954
وكول	-1955
كنولوج	-1956
▁مسألة	-1957
▁المدني	-1958
▁تماماً	-1959
ذل	-1960
▁23	-1961
▁أرا	-1962
▁لعام	-1963
عام	-1964
▁الطبي	-1965
الأ	-1966
ثار	-1967
ونة	-1968
▁الرس	-1969
▁بصورة	-1970
om	-1971
▁M	-1972
ربة	-1973
عاية	-1974
▁السبب	-1975
وبي	-1976
▁الإع	-1977
▁شيئا	-1978
▁الملا	-1979
-1	-1980
▁الذى	-1981
▁إعادة	-1982
▁عد	-1983
▁مِ	-1984
▁الجهود	-1985
▁العملية	-1986
▁المسؤول	-1987
يق	-1988
رسة	-1989
▁2008	-1990
▁رجاء	-1991
▁طوال	-1992
▁نفسك	-1993
▁اتخاذ	-1994
ىء	-1995
▁تريدين	-1996
▁المنظمة	-1997
ذة	-1998
ناه	-1999
▁بالك	-2000
▁بينما	-2001
▁لق	-2002
▁السيدة	-2003
▁القائمة	-2004
مك	-2005
فلة	-2006
▁اس	-2007
يته	-2008
▁لأنه	-2009
التزام	-2010
▁الأمانة	-2011
▁المحلية	-2012
رز	-2013
▁أنهم	-2014
▁الموظ	-2015
▁الأشياء	-2016
▁الأنشطة	-2017
▁الموضوع	-2018
▁بب	-2019
▁الاجتماعية	-2020
▁إخ	-2021
▁w	-2022
ائد	-2023
▁الإد	-2024
▁كانوا	-2025
▁بنا	-2026
▁ممثل	-2027
▁إنشاء	-2028
pos	-2029
▁بعي	-2030
كاليف	-2031
▁البيانات	-2032
ؤال	-2033
دامة	-2034
▁أرب	-2035
▁ويت	-2036
▁الفلسط	-2037
▁التعليم	-2038
re	-2039
عال	-2040
ماع	-2041
حقاً	-2042
وروبي	-2043
▁العنف	-2044
▁المكتب	-2045
▁إذ	-2046
▁أعد	-2047
▁مَ	-2048
▁أذهب	-2049
▁العديد	-2050
▁المزيد	-2051
▁لمن	-2052
▁(200	-2053
▁حزيران	-2054
ِّ	-2055
لاث	-2056
ثمار	-2057
▁قمت	-2058
▁بالا	-2059
▁عنها	-2060
▁لهذه	-2061
▁ليلة	-2062
▁الخام	-2063
▁القاد	-2064
▁c	-2065
أجل	-2066
▁مز	-2067
▁حصل	-2068
كما	-2069
تيات	-2070
▁أتم	-2071
▁انتظر	-2072
▁وكذلك	-2073
▁إت	-2074
▁حاول	-2075
صوص	-2076
▁أحتاج	-2077
▁أرجوك	-2078
▁بلدان	-2079
▁اتفاقية	-2080
مث	-2081
▁T	-2082
▁للتو	-2083
▁منهم	-2084
▁الطريقة	-2085
لو	-2086
▁وتش	-2087
▁وبال	-2088
حظ	-2089
عرض	-2090
▁لكل	-2091
▁مكافحة	-2092
1)	-2093
▁خطة	-2094
FF	-2095
ريع	-2096
موز	-2097
▁بار	-2098
▁سعي	-2099
▁سَ	-2100
▁ظن	-2101
وتوكول	-2102
▁منطقة	-2103
▁وص	-2104
▁يق	-2105
▁E	-2106
▁d	-2107
يونيه	-2108
▁حكومة	-2109
ing	-2110
براء	-2111
▁أخي	-2112
▁موظ	-2113
▁يلي	-2114
راقبة	-2115
▁المرفق	-2116
ودي	-2117
وسط	-2118
▁هُ	-2119
▁إنهم	-2120
▁السكان	-2121
▁الأوروبي	-2122
▁:	-2123
▁ني	-2124
برنامج	-2125
▁الأقل	-2126
▁المحا	-2127
▁الأخيرة	-2128
هور	-2129
▁صد	-2130
▁حسب	-2131
▁لان	-2132
تِ	-2133
بلدان	-2134
▁وبعد	-2135
▁الماضي	-2136
ره	-2137
بول	-2138
قشة	-2139
وائ	-2140
واة	-2141
▁24	-2142
▁بيت	-2143
▁تتحدث	-2144
عار	-2145
▁أسف	-2146
▁أكن	-2147
▁مركز	-2148
▁تدابير	-2149
فى	-2150
واصل	-2151
▁تتح	-2152
▁والآن	-2153
▁000	-2154
▁يجري	-2155
▁الجديد	-2156
ضط	-2157
جاه	-2158
رين	-2159
يجاد	-2160
▁وعد	-2161
▁التالية	-2162
نعم	-2163
مرار	-2164
▁أنظر	-2165
▁بالض	-2166
▁فرصة	-2167
▁بلا	-2168
▁اذهب	-2169
▁بنفس	-2170
▁تحدث	-2171
▁السيارة	-2172
▁لس	-2173
▁جهود	-2174
▁الواردة	-2175
ثات	-2176
▁مسا	-2177
▁للجنة	-2178
▁التمييز	-2179
حص	-2180
▁نج	-2181
▁لاي	-2182
▁لديها	-2183
سكر	-2184
مارس	-2185
▁أَنْ	-2186
▁الطا	-2187
▁التجارة	-2188
دون	-2189
ريباً	-2190
▁العن	-2191
▁اتفاق	-2192
▁اش	-2193
▁رح	-2194
▁كا	-2195
▁بسرعة	-2196
▁لحقوق	-2197
هى	-2198
▁غرفة	-2199
▁الجلسة	-2200
عتمد	-2201
▁محا	-2202
▁توفير	-2203
▁آسفة	-2204
▁حالات	-2205
▁السياسية	-2206
حقق	-2207
▁والتي	-2208
زن	-2209
▁P	-2210
احب	-2211
▁ام	-2212
▁ترى	-2213
حسناً	-2214
▁والث	-2215
▁والص	-2216
▁للأمم	-2217
▁السابقة	-2218
الب	-2219
واب	-2220
▁خدمات	-2221
▁دائما	-2222
ميز	-2223
يول	-2224
▁بس	-2225
▁ضع	-2226
▁كار	-2227
▁نفعل	-2228
▁الجما	-2229
▁اجل	-2230
مارسة	-2231
ّن	-2232
رائم	-2233
غو	-2234
صاص	-2235
▁المب	-2236
▁كثيراً	-2237
▁ارت	-2238
▁اعرف	-2239
▁سعيد	-2240
▁والس	-2241
▁يستطيع	-2242
▁القانونية	-2243
▁عض	-2244
▁تقري	-2245
▁تحديد	-2246
كو	-2247
▁26	-2248
فاوض	-2249
▁وليس	-2250
▁ونحن	-2251
ثق	-2252
▁تخبر	-2253
حو	-2254
تهم	-2255
وانين	-2256
▁مباشرة	-2257
▁الديمقراطية	-2258
راه	-2259
ومي	-2260
تمبر	-2261
▁شأن	-2262
▁عدة	-2263
▁عرف	-2264
▁مدى	-2265
ation	-2266
كتوبر	-2267
▁حياتي	-2268
▁اللعنة	-2269
-2	-2270
طب	-2271
▁R	-2272
▁المه	-2273
▁والتنمية	-2274
ائر	-2275
ريح	-2276
قامة	-2277
▁وفقا	-2278
▁أتعلم	-2279
تني	-2280
▁القر	-2281
▁بدأت	-2282
▁الأفضل	-2283
عون	-2284
▁وتم	-2285
▁خي	-2286
▁تتم	-2287
▁•	-2288
داث	-2289
▁عاد	-2290
▁أنشطة	-2291
▁طريقة	-2292
(19	-2293
بكة	-2294
اعدة	-2295
ريقي	-2296
▁فتاة	-2297
▁الصدد	-2298
▁الملك	-2299
▁المواد	-2300
▁الميزانية	-2301
جين	-2302
دمة	-2303
▁سأت	-2304
صالات	-2305
▁أصبح	-2306
صلي	-2307
جابة	-2308
▁بالق	-2309
▁الحرب	-2310
▁قليلاً	-2311
▁الرسمية	-2312
ظل	-2313
غط	-2314
▁and	-2315
▁والمن	-2316
▁تعرفين	-2317
▁المستوى	-2318
▁الإنسانية	-2319
اته	-2320
كيف	-2321
سام	-2322
سرع	-2323
ولد	-2324
▁نس	-2325
رائيل	-2326
▁فعله	-2327
ent	-2328
جرة	-2329
▁بوص	-2330
سان	-2331
▁احد	-2332
▁#	-2333
مبر	-2334
ويض	-2335
لفية	-2336
▁طبي	-2337
▁الفقر	-2338
2)	-2339
جيع	-2340
▁كون	-2341
▁ظننت	-2342
▁برامج	-2343
▁مسؤول	-2344
حيان	-2345
▁عال	-2346
▁البعثة	-2347
▁الصعيد	-2348
▁الثالثة	-2349
ابي	-2350
وصل	-2351
لامة	-2352
▁تظن	-2353
▁قاب	-2354
ليا	-2355
▁توق	-2356
▁والج	-2357
▁يجعل	-2358
▁دقيقة	-2359
▁هنالك	-2360
▁الإنمائي	-2361
اض	-2362
هة	-2363
ورا	-2364
▁يل	-2365
فتح	-2366
لبية	-2367
▁المؤقت	-2368
هار	-2369
اهدة	-2370
▁31	-2371
والي	-2372
▁مهم	-2373
▁أنتم	-2374
▁اللازمة	-2375
▁الوثيقة	-2376
وش	-2377
روس	-2378
-200	-2379
▁أية	-2380
▁الضر	-2381
▁تموز	-2382
▁نذهب	-2383
▁الجريمة	-2384
تمل	-2385
عرب	-2386
▁ميت	-2387
▁والات	-2388
▁منظ	-2389
▁أفهم	-2390
▁والق	-2391
▁حماية	-2392
▁استطيع	-2393
▁عزيزتي	-2394
جاح	-2395
جان	-2396
▁عني	-2397
ليزية	-2398
ميم	-2399
▁فت	-2400
▁حفظ	-2401
▁وجد	-2402
▁الوك	-2403
▁ساعد	-2404
▁سبيل	-2405
سائ	-2406
▁نش	-2407
▁السياسات	-2408
نز	-2409
▁نص	-2410
▁طفل	-2411
▁وتت	-2412
ضافية	-2413
▁الأد	-2414
▁يعلم	-2415
▁الإجراءات	-2416
وروبا	-2417
▁الها	-2418
▁الكون	-2419
▁والدي	-2420
▁الفرعية	-2421
▁يحب	-2422
▁تزال	-2423
▁دولة	-2424
رم	-2425
هُ	-2426
▁عب	-2427
▁مغ	-2428
قق	-2429
علي	-2430
ربما	-2431
واجه	-2432
ظار	-2433
▁رسالة	-2434
▁بالضبط	-2435
▁المدرسة	-2436
شارة	-2437
ويورك	-2438
▁بأنّ	-2439
▁رفاق	-2440
▁المشروع	-2441
▁الموظفين	-2442
فاف	-2443
وسع	-2444
▁نزع	-2445
▁الامر	-2446
▁انتها	-2447
زر	-2448
خصوص	-2449
▁مرا	-2450
▁الاستشار	-2451
ّى	-2452
▁اث	-2453
▁اص	-2454
خروج	-2455
▁اخبر	-2456
▁الأغ	-2457
▁حسنٌ	-2458
▁المحت	-2459
▁الوصول	-2460
مسة	-2461
تَ	-2462
اند	-2463
هات	-2464
▁حياة	-2465
▁المناطق	-2466
ينه	-2467
▁أيلول	-2468
بحت	-2469
خلص	-2470
سأل	-2471
ناً	-2472
▁الوث	-2473
أكتوبر	-2474
▁الساد	-2475
داع	-2476
يوليه	-2477
▁تشعر	-2478
زح	-2479
▁لطيف	-2480
▁المدينة	-2481
▁D	-2482
▁27	-2483
راضي	-2484
▁مؤخ	-2485
▁وحد	-2486
▁مستوى	-2487
▁الماضية	-2488
▁l	-2489
▁كَ	-2490
ريات	-2491
ظروف	-2492
▁بأي	-2493
▁مشت	-2494
▁إعداد	-2495
▁الاجتماع	-2496
وّ	-2497
ملة	-2498
▁خذ	-2499
نتائج	-2500
ra	-2501
ارع	-2502
الف	-2503
ائلة	-2504
فالة	-2505
وفمبر	-2506
▁الوف	-2507
▁المستدامة	-2508
شل	-2509
ريس	-2510
ستر	-2511
▁المو	-2512
▁كنتُ	-2513
طرة	-2514
▁in	-2515
▁جا	-2516
ديات	-2517
▁للش	-2518
▁انهم	-2519
▁لمدة	-2520
▁نفسي	-2521
▁وقال	-2522
▁علاقة	-2523
▁ويمكن	-2524
الا	-2525
▁التس	-2526
▁نعرف	-2527
▁أصبحت	-2528
▁المنش	-2529
▁تحسين	-2530
▁تماما	-2531
▁جميلة	-2532
جون	-2533
غيل	-2534
▁يتح	-2535
▁لكنه	-2536
سبتمبر	-2537
▁النمو	-2538
▁اع	-2539
جئين	-2540
ريكا	-2541
صالح	-2542
▁اين	-2543
▁الحال	-2544
▁حسنًا	-2545
▁التالي	-2546
▁المتصلة	-2547
نه	-2548
باء	-2549
▁28	-2550
▁ذكر	-2551
▁الحب	-2552
غان	-2553
▁يخ	-2554
▁السف	-2555
▁المقر	-2556
▁لفترة	-2557
▁المؤسسات	-2558
ورد	-2559
راحة	-2560
▁وان	-2561
▁دعنا	-2562
▁التزام	-2563
▁إجراءات	-2564
لّ	-2565
▁صوت	-2566
▁للد	-2567
سكرية	-2568
▁رائعة	-2569
▁قائمة	-2570
كلا	-2571
▁الثالث	-2572
▁الأهداف	-2573
ئمة	-2574
▁أنش	-2575
▁بوا	-2576
▁قدم	-2577
▁مار	-2578
▁منزل	-2579
حيط	-2580
بادل	-2581
▁التط	-2582
▁للمن	-2583
▁الليل	-2584
▁الصح	-2585
▁قالت	-2586
▁مالذي	-2587
▁الممكن	-2588
▁تقارير	-2589
▁دورتها	-2590
il	-2591
قطة	-2592
يلي	-2593
▁نم	-2594
▁بات	-2595
▁العل	-2596
▁رجال	-2597
▁الأصل	-2598
▁الصندوق	-2599
حاب	-2600
ديك	-2601
صرف	-2602
يتك	-2603
ائدة	-2604
▁منع	-2605
▁اسمع	-2606
▁لكنني	-2607
خصصة	-2608
▁التأ	-2609
▁التحدث	-2610
▁والاست	-2611
ئك	-2612
بن	-2613
تل	-2614
جعل	-2615
▁أط	-2616
▁ممكن	-2617
▁الموت	-2618
el	-2619
هذه	-2620
ضائية	-2621
▁متأك	-2622
▁لأنني	-2623
▁المخدرات	-2624
0)}	-2625
الح	-2626
جري	-2627
▁التم	-2628
▁باعت	-2629
▁وضعت	-2630
▁التجار	-2631
as	-2632
ol	-2633
ئت	-2634
▁f	-2635
خفض	-2636
هاز	-2637
امعة	-2638
▁قول	-2639
▁مفت	-2640
▁الوز	-2641
▁صاحب	-2642
▁عظيم	-2643
▁غريب	-2644
▁معها	-2645
مارسات	-2646
▁الاقت	-2647
▁صباح	-2648
▁وسوف	-2649
▁التقدم	-2650
/3	-2651
دّ	-2652
جاوز	-2653
يرية	-2654
▁متأ	-2655
▁بأنك	-2656
▁الحكومات	-2657
ذرة	-2658
ادرة	-2659
تكلم	-2660
▁إنّه	-2661
خة	-2662
ُّ	-2663
ضحك	-2664
حايا	-2665
▁ملك	-2666
▁أيام	-2667
▁عشرة	-2668
▁التقارير	-2669
▁فل	-2670
▁لاست	-2671
▁المتعلق	-2672
▁المقدمة	-2673
ئا	-2674
طاقة	-2675
▁علم	-2676
▁يقدم	-2677
▁المرة	-2678
▁الموج	-2679
▁لمكافحة	-2680
مات	-2681
▁اوه	-2682
▁ساعة	-2683
▁طويلة	-2684
▁للدول	-2685
▁الفتاة	-2686
▁شهر	-2687
▁جميل	-2688
▁وفيما	-2689
▁المركز	-2690
▁البرامج	-2691
غر	-2692
▁يف	-2693
خاصة	-2694
▁فوق	-2695
▁اتخذ	-2696
▁الحي	-2697
▁ايها	-2698
▁دعني	-2699
▁الجزء	-2700
▁متأكد	-2701
رتك	-2702
▁قا	-2703
▁جاء	-2704
قف	-2705
رجع	-2706
▁اليون	-2707
جو	-2708
وحة	-2709
▁50	-2710
▁إمكان	-2711
▁البيت	-2712
▁المحد	-2713
▁المشر	-2714
▁سأكون	-2715
Ad	-2716
وأ	-2717
كمل	-2718
يير	-2719
▁آن	-2720
▁آذار	-2721
▁وكأن	-2722
▁تقييم	-2723
▁مواصلة	-2724
▁ابت	-2725
▁بان	-2726
▁نقص	-2727
▁القا	-2728
▁صندوق	-2729
▁الممثل	-2730
▁بطريقة	-2731
رر	-2732
ورج	-2733
▁حظ	-2734
انظر	-2735
▁نيس	-2736
▁كثير	-2737
نوفمبر	-2738
▁تعلمين	-2739
▁الداخلية	-2740
غت	-2741
▁h	-2742
ئلة	-2743
اتل	-2744
ابية	-2745
▁قلق	-2746
▁لإن	-2747
▁المي	-2748
▁اليس	-2749
▁تأتي	-2750
▁تأخذ	-2751
▁جيداً	-2752
▁مقابل	-2753
▁جميعاً	-2754
▁استعراض	-2755
▁الحالات	-2756
▁المناسب	-2757
لغ	-2758
ذية	-2759
ونه	-2760
▁29	-2761
▁لمَ	-2762
▁الحس	-2763
▁الكت	-2764
▁والش	-2765
▁يكفي	-2766
▁الطلب	-2767
▁القطاع	-2768
▁الالتزام	-2769
▁المشتركة	-2770
5)	-2771
أخذ	-2772
عبة	-2773
ندا	-2774
▁خمس	-2775
▁قيد	-2776
▁إليك	-2777
▁العد	-2778
▁لحظة	-2779
▁معظم	-2780
▁التدريب	-2781
▁المستقبل	-2782
بيع	-2783
حيل	-2784
▁ــ	-2785
▁قُ	-2786
▁جاه	-2787
▁رأي	-2788
▁ضمن	-2789
▁أنتَ	-2790
▁أنّه	-2791
قذ	-2792
نب	-2793
▁تطلب	-2794
مْ	-2795
نيف	-2796
وريا	-2797
خابات	-2798
▁إزاء	-2799
▁توجد	-2800
▁السنة	-2801
▁والاجتماعية	-2802
سع	-2803
طيط	-2804
ماج	-2805
▁مض	-2806
وافق	-2807
▁نصف	-2808
▁المخ	-2809
▁اجتماع	-2810
▁مساعدة	-2811
▁المسألة	-2812
باه	-2813
▁قب	-2814
▁تمت	-2815
ريكية	-2816
▁الصحة	-2817
▁الفصل	-2818
▁الوثائق	-2819
3)	-2820
يدان	-2821
▁تحب	-2822
▁ماي	-2823
لاقات	-2824
▁ضمان	-2825
▁التابعة	-2826
▁H	-2827
ائرة	-2828
▁سير	-2829
▁يهم	-2830
هتمام	-2831
▁لديّ	-2832
▁الخير	-2833
▁الهدف	-2834
▁نتائج	-2835
تش	-2836
▁B	-2837
▁b	-2838
فسي	-2839
▁خطأ	-2840
فقات	-2841
قرير	-2842
▁جون	-2843
▁يزال	-2844
▁الصغير	-2845
يط	-2846
▁سو	-2847
▁كث	-2848
▁لص	-2849
سباب	-2850
▁بدأ	-2851
▁وتن	-2852
▁تذكر	-2853
▁تفهم	-2854
▁ذهبت	-2855
▁المشاركة	-2856
4)	-2857
▁وات	-2858
▁صغير	-2859
▁أحاول	-2860
▁البعض	-2861
وقيع	-2862
▁بالس	-2863
▁شركة	-2864
▁للعمل	-2865
▁مختلفة	-2866
كنولوجيا	-2867
▁حَ	-2868
▁فا	-2869
▁يص	-2870
مايو	-2871
وعية	-2872
▁اشت	-2873
▁عيد	-2874
▁العراق	-2875
ec	-2876
et	-2877
افة	-2878
ضمان	-2879
▁وهذه	-2880
▁سعيدة	-2881
▁المحلي	-2882
▁الأموال	-2883
دخل	-2884
قتي	-2885
▁هى	-2886
ريبة	-2887
وبية	-2888
▁فرص	-2889
▁السابق	-2890
▁الصباح	-2891
▁الجنائية	-2892
▁والمنظمات	-2893
شى	-2894
▁N	-2895
شارك	-2896
قائق	-2897
▁الوضع	-2898
قاذ	-2899
حيدة	-2900
▁أفكر	-2901
▁أقصد	-2902
▁نيسان	-2903
▁اعتماد	-2904
▁القضاء	-2905
▁m	-2906
هرب	-2907
▁رأس	-2908
▁سوى	-2909
▁تنظر	-2910
▁رؤية	-2911
يّ	-2912
▁وخ	-2913
امية	-2914
بريل	-2915
▁تعا	-2916
▁خلف	-2917
▁شكل	-2918
▁مخط	-2919
▁أيار	-2920
▁التى	-2921
▁الجز	-2922
▁بعمل	-2923
زلت	-2924
▁إث	-2925
▁لى	-2926
▁أعت	-2927
▁نتي	-2928
▁عليهم	-2929
▁المشاريع	-2930
ارف	-2931
الإ	-2932
ساد	-2933
فوضية	-2934
▁بغية	-2935
▁وإذا	-2936
▁ولقد	-2937
▁أخبرني	-2938
▁أوروبا	-2939
▁نستطيع	-2940
▁القضايا	-2941
▁ري	-2942
نتاج	-2943
اورات	-2944
▁تعني	-2945
▁قضية	-2946
▁معاً	-2947
▁تغيير	-2948
جوم	-2949
راز	-2950
لقى	-2951
وفر	-2952
▁حا	-2953
▁سين	-2954
▁تطبيق	-2955
▁تمويل	-2956
▁كثيرا	-2957
▁العربية	-2958
تع	-2959
ضم	-2960
ّف	-2961
صيل	-2962
يدز	-2963
ذكرة	-2964
ستين	-2965
▁فلا	-2966
▁المرح	-2967
▁سيارة	-2968
99	-2969
ريض	-2970
▁الشعب	-2971
اة	-2972
شة	-2973
▁الوظ	-2974
▁انني	-2975
▁معنا	-2976
▁الحدود	-2977
إي	-2978
عددة	-2979
فراد	-2980
▁اعلم	-2981
▁حالك	-2982
▁مجدداً	-2983
▁الأصلية	-2984
▁L	-2985
قام	-2986
لكتر	-2987
▁198	-2988
قيقية	-2989
▁1999	-2990
▁العق	-2991
▁المعق	-2992
▁نتيجة	-2993
▁والأمن	-2994
ذين	-2995
اهرة	-2996
تيار	-2997
▁قائ	-2998
▁بالخ	-2999
▁الصنا	-3000
▁المياه	-3001
فاذ	-3002
▁تقل	-3003
▁فال	-3004
بادرة	-3005
▁لأجل	-3006
▁المعت	-3007
▁يحتاج	-3008
▁الحقوق	-3009
▁بيانات	-3010
▁المك	-3011
▁يتعين	-3012
ro	-3013
▁0	-3014
فاظ	-3015
▁40	-3016
خاطر	-3017
▁كأن	-3018
▁أنكِ	-3019
▁نريد	-3020
▁أشكال	-3021
▁تنظيم	-3022
▁القضية	-3023
▁الأسبوع	-3024
▁مك	-3025
وجهة	-3026
وماً	-3027
▁فكر	-3028
▁للف	-3029
▁معا	-3030
▁تصبح	-3031
▁بخصوص	-3032
▁السلطات	-3033
▁السنتين	-3034
▁الاستثمار	-3035
الجة	-3036
ناصر	-3037
▁زال	-3038
▁سنت	-3039
▁كلمة	-3040
مرحباً	-3041
▁تناول	-3042
▁صديقي	-3043
▁الطاقة	-3044
cH	-3045
وام	-3046
يتي	-3047
ؤتمر	-3048
راقب	-3049
▁وفق	-3050
▁أبدا	-3051
▁بعثة	-3052
▁ويجب	-3053
▁والخمس	-3054
▁المشكلة	-3055
بو	-3056
احة	-3057
▁كر	-3058
ندما	-3059
▁تعد	-3060
▁نقل	-3061
▁صغيرة	-3062
▁نفسها	-3063
▁المعقودة	-3064
▁والاجتماعي	-3065
▁F	-3066
اله	-3067
عاد	-3068
مادة	-3069
▁الشم	-3070
▁عامة	-3071
▁والذي	-3072
▁الخامسة	-3073
بيت	-3074
رها	-3075
لاك	-3076
▁اسف	-3077
▁معد	-3078
▁العا	-3079
▁أولاً	-3080
▁النها	-3081
حاء	-3082
عدام	-3083
▁تنا	-3084
▁للص	-3085
▁مقد	-3086
أبريل	-3087
▁تجعل	-3088
▁قدمت	-3089
▁أحكام	-3090
▁إعلان	-3091
▁المعد	-3092
▁الجانب	-3093
▁الصحية	-3094
▁لتعزيز	-3095
ائع	-3096
ذاء	-3097
مور	-3098
▁تقدير	-3099
▁مجموع	-3100
▁التوجيه	-3101
▁السنوات	-3102
▁الإقليمي	-3103
مدت	-3104
واد	-3105
▁حض	-3106
ملكة	-3107
▁أتي	-3108
▁الفي	-3109
▁عالم	-3110
▁مهلاً	-3111
▁العودة	-3112
موظ	-3113
ذهبي	-3114
▁بهم	-3115
▁سيت	-3116
▁أخرج	-3117
▁حاجة	-3118
▁يتصل	-3119
▁النحو	-3120
▁قليلا	-3121
▁لديهم	-3122
رتي	-3123
▁مب	-3124
▁عنك	-3125
▁أشهر	-3126
▁تغير	-3127
▁قامت	-3128
▁لكني	-3129
▁يحصل	-3130
▁أطفال	-3131
▁البلاغ	-3132
▁الخبراء	-3133
فهوم	-3134
▁وإلى	-3135
▁حاليا	-3136
▁ضرورة	-3137
▁المساواة	-3138
▁مف	-3139
▁جيم	-3140
▁عما	-3141
▁ولن	-3142
▁يعد	-3143
▁أقوم	-3144
▁الصف	-3145
▁والب	-3146
▁إيجاد	-3147
▁يُمكن	-3148
▁الرابعة	-3149
وصية	-3150
ينيا	-3151
▁لأي	-3152
▁إنني	-3153
▁المض	-3154
▁طويل	-3155
▁عملا	-3156
▁الماء	-3157
▁دقائق	-3158
▁البقاء	-3159
▁وتعزيز	-3160
▁التحقيق	-3161
▁القدرات	-3162
أغ	-3163
ِب	-3164
بطة	-3165
شفى	-3166
قتر	-3167
▁تا	-3168
▁اخر	-3169
▁باب	-3170
▁للك	-3171
▁وصل	-3172
▁أتمنى	-3173
▁الرغم	-3174
▁الآخرين	-3175
▁الاتفاق	-3176
ig	-3177
▁الحالي	-3178
▁المشترك	-3179
▁تاريخ	-3180
▁موضوع	-3181
▁نحتاج	-3182
▁الاتصال	-3183
ويد	-3184
▁سجل	-3185
▁الأج	-3186
▁بالع	-3187
▁موقع	-3188
▁يرام	-3189
3-	-3190
أو	-3191
حر	-3192
ريط	-3193
ضيع	-3194
▁حب	-3195
▁اليا	-3196
▁تشير	-3197
▁القوة	-3198
▁مستعد	-3199
▁الحاجة	-3200
▁المبادئ	-3201
▁التجارية	-3202
/4	-3203
حم	-3204
شرب	-3205
راجع	-3206
يسير	-3207
▁درا	-3208
براير	-3209
▁المرت	-3210
▁مشاكل	-3211
▁الهاتف	-3212
▁الأمريكية	-3213
جح	-3214
▁اج	-3215
▁عق	-3216
▁منز	-3217
▁رأيك	-3218
▁موعد	-3219
▁حقيقة	-3220
كتشف	-3221
▁دفع	-3222
▁السر	-3223
▁المز	-3224
▁بالغ	-3225
▁التفا	-3226
▁تحاول	-3227
▁جميعا	-3228
▁اللاجئين	-3229
قلق	-3230
كوك	-3231
يان	-3232
ّاً	-3233
وانب	-3234
▁نسي	-3235
▁العنص	-3236
▁الأساسي	-3237
▁نيويورك	-3238
▁الاجتماعات	-3239
us	-3240
ww	-3241
صاب	-3242
فيف	-3243
داخل	-3244
▁الحا	-3245
▁المغ	-3246
▁البحث	-3247
▁رجاءً	-3248
▁الحالية	-3249
▁العسكرية	-3250
ئب	-3251
اءات	-3252
▁الحكم	-3253
▁بأنها	-3254
▁الاستشارية	-3255
ّق	-3256
حدى	-3257
متع	-3258
▁نَ	-3259
▁صاح	-3260
▁للخ	-3261
▁يار	-3262
▁جنوب	-3263
▁لأنك	-3264
فذ	-3265
ثلة	-3266
حين	-3267
ذيب	-3268
سطس	-3269
قاً	-3270
يكا	-3271
▁صف	-3272
فكير	-3273
▁قلب	-3274
بادرات	-3275
▁أيمكن	-3276
▁عليكِ	-3277
▁المجال	-3278
ev	-3279
ـ"	-3280
فز	-3281
رنت	-3282
لاه	-3283
▁201	-3284
▁جما	-3285
▁قوة	-3286
▁وكل	-3287
▁واضح	-3288
▁مجنون	-3289
ّب	-3290
حقا	-3291
خصص	-3292
مرح	-3293
متلك	-3294
وزيع	-3295
وقات	-3296
▁حان	-3297
▁فلن	-3298
▁هَل	-3299
▁نسبة	-3300
▁المخت	-3301
▁حقيقي	-3302
▁الواضح	-3303
زز	-3304
شاط	-3305
▁أى	-3306
نسية	-3307
▁بتح	-3308
▁وير	-3309
▁بأنني	-3310
▁القرارات	-3311
جوز	-3312
حات	-3313
عاة	-3314
تمعات	-3315
راجعة	-3316
▁الاخ	-3317
▁البحر	-3318
▁يب	-3319
▁بمن	-3320
▁تجاه	-3321
▁سواء	-3322
▁كامل	-3323
▁نظرة	-3324
▁يأتي	-3325
▁التقنية	-3326
▁السادسة	-3327
▁الاقتصاد	-3328
ذج	-3329
▁G	-3330
▁O	-3331
ديه	-3332
ربت	-3333
قيم	-3334
▁آب	-3335
▁قم	-3336
▁وآ	-3337
وفير	-3338
▁الظ	-3339
▁بيد	-3340
▁شىء	-3341
لامية	-3342
▁التخ	-3343
▁الحل	-3344
▁تحمل	-3345
▁حبيب	-3346
▁معرفة	-3347
▁التشري	-3348
▁المشاكل	-3349
سد	-3350
▁U	-3351
ارا	-3352
ساس	-3353
هتم	-3354
وها	-3355
▁عُ	-3356
▁تفا	-3357
▁تعرض	-3358
▁وحدة	-3359
عمليات	-3360
▁الترك	-3361
▁محددة	-3362
▁البيئة	-3363
▁الفضاء	-3364
▁الداخلي	-3365
▁السياسي	-3366
▁المسلحة	-3367
▁بو	-3368
ؤسسات	-3369
▁خمسة	-3370
▁للات	-3371
▁هيّا	-3372
▁تساعد	-3373
▁الرامية	-3374
حصل	-3375
▁أخر	-3376
▁بول	-3377
▁سأفعل	-3378
▁وزارة	-3379
▁وهناك	-3380
▁لاحقاً	-3381
▁القادمة	-3382
6)	-3383
فادة	-3384
▁إخت	-3385
▁ستح	-3386
▁سري	-3387
▁الأب	-3388
▁مهما	-3389
▁أتريد	-3390
▁النوع	-3391
▁السلطة	-3392
انكليزية	-3393
اطئ	-3394
روف	-3395
▁جو	-3396
راكة	-3397
▁(19	-3398
▁كول	-3399
▁نشر	-3400
▁بحقوق	-3401
▁الاجتماعي	-3402
كُ	-3403
الج	-3404
عامل	-3405
▁إسم	-3406
▁يشكل	-3407
▁الاخت	-3408
▁السجن	-3409
▁المهم	-3410
▁عزيزي	-3411
▁إضافية	-3412
▁المالي	-3413
كري	-3414
يقظ	-3415
▁فهو	-3416
▁حياتك	-3417
▁الطعام	-3418
مَ	-3419
بيان	-3420
جهزة	-3421
▁بحي	-3422
▁بور	-3423
▁ستت	-3424
▁صنع	-3425
▁واح	-3426
▁الاش	-3427
▁بالر	-3428
▁ذاهب	-3429
▁أتحدث	-3430
▁أريدك	-3431
▁إطلاق	-3432
▁إمكانية	-3433
▁to	-3434
▁تحصل	-3435
▁يذهب	-3436
▁أتعرف	-3437
▁للاست	-3438
▁النتائج	-3439
▁التنفيذي	-3440
▁الفلسطيني	-3441
7)	-3442
امت	-3443
حتى	-3444
فير	-3445
وصي	-3446
▁شرك	-3447
▁تحرك	-3448
▁والف	-3449
▁الرائ	-3450
▁سأذهب	-3451
▁الثلاث	-3452
▁وغيرها	-3453
لع	-3454
ابه	-3455
قيت	-3456
▁تعت	-3457
▁حاد	-3458
قافية	-3459
▁أمور	-3460
▁الفا	-3461
▁القلق	-3462
▁ستفعل	-3463
▁ولاية	-3464
أتي	-3465
ثاق	-3466
سيد	-3467
لتك	-3468
شرطة	-3469
غراض	-3470
▁أرض	-3471
▁تكوني	-3472
▁الرئيسي	-3473
▁المفترض	-3474
▁الخارجية	-3475
قتك	-3476
قلة	-3477
ونية	-3478
▁يحت	-3479
▁المط	-3480
▁للتح	-3481
▁الدرا	-3482
▁الشؤون	-3483
▁الشعوب	-3484
بيا	-3485
جاج	-3486
ّما	-3487
كاتب	-3488
▁أولا	-3489
▁اقتص	-3490
▁تشكل	-3491
▁شباط	-3492
▁أحدهم	-3493
▁الوفود	-3494
▁بالانكليزية	-3495
8)	-3496
انس	-3497
ندق	-3498
▁لغ	-3499
صابة	-3500
قيام	-3501
▁باء	-3502
▁عمي	-3503
ريقية	-3504
▁افعل	-3505
▁هيئة	-3506
▁المطل	-3507
ضرب	-3508
راكز	-3509
▁وشك	-3510
▁بالش	-3511
▁كنتِ	-3512
▁هُنا	-3513
فاوضات	-3514
▁إصلاح	-3515
▁إسرائيل	-3516
فو	-3517
لاب	-3518
واق	-3519
▁45	-3520
▁رك	-3521
ثناء	-3522
غلال	-3523
▁أعمل	-3524
فبراير	-3525
▁المفت	-3526
▁حوالي	-3527
▁وأعرب	-3528
▁وبالت	-3529
▁منظومة	-3530
▁التقييم	-3531
▁الفتيات	-3532
un	-3533
▁نُ	-3534
فاية	-3535
▁100	-3536
▁سيف	-3537
▁سؤال	-3538
▁مشاريع	-3539
▁المناعة	-3540
خب	-3541
عْرف	-3542
▁ترت	-3543
تمرات	-3544
▁وحسب	-3545
▁سيدتي	-3546
▁موارد	-3547
▁التعلي	-3548
شد	-3549
Add	-3550
قين	-3551
منح	-3552
هوة	-3553
ريكي	-3554
غادر	-3555
▁بسي	-3556
▁أسمع	-3557
▁تتخذ	-3558
▁تشمل	-3559
▁مهلا	-3560
▁مِنْ	-3561
▁أتذكر	-3562
▁أفراد	-3563
▁المذك	-3564
▁تتعلق	-3565
راتيجيات	-3566
ter	-3567
عدد	-3568
كية	-3569
▁2-	-3570
هدات	-3571
▁تضع	-3572
▁طرف	-3573
▁التف	-3574
▁صورة	-3575
▁نكون	-3576
▁المقب	-3577
▁والدك	-3578
▁الخروج	-3579
▁الكبير	-3580
▁والدول	-3581
بعا	-3582
وبا	-3583
▁اعط	-3584
▁أحضر	-3585
▁بدور	-3586
▁مزيد	-3587
▁أعلاه	-3588
▁أيتها	-3589
▁الأكثر	-3590
▁لتحقيق	-3591
▁الإعلام	-3592
▁الاتجار	-3593
4-	-3594
لته	-3595
▁تز	-3596
▁طي	-3597
▁نن	-3598
ستطع	-3599
▁هدف	-3600
بارات	-3601
▁تباً	-3602
▁امرأة	-3603
▁الحقيقي	-3604
2-	-3605
am	-3606
▁W	-3607
فها	-3608
قار	-3609
▁60	-3610
▁غض	-3611
▁فخ	-3612
راعات	-3613
موارد	-3614
▁اكثر	-3615
▁الخي	-3616
▁شبكة	-3617
▁التاس	-3618
▁الثام	-3619
▁لتنفيذ	-3620
كنت	-3621
واع	-3622
يدة	-3623
الها	-3624
▁احب	-3625
▁مكت	-3626
▁منح	-3627
▁هلا	-3628
▁سيدة	-3629
▁فأنا	-3630
▁والر	-3631
▁العلا	-3632
▁معاهدة	-3633
▁التمويل	-3634
سى	-3635
ئنا	-3636
افظ	-3637
حدد	-3638
قاد	-3639
كاء	-3640
هيل	-3641
▁حر	-3642
فقنا	-3643
نائي	-3644
▁جرى	-3645
▁ستة	-3646
▁النز	-3647
▁وبين	-3648
▁الخطة	-3649
▁ساعات	-3650
▁وظيفة	-3651
▁يحاول	-3652
▁باعتبار	-3653
قى	-3654
▁g	-3655
هدة	-3656
▁طال	-3657
▁00/1	-3658
▁عادة	-3659
▁يعيش	-3660
▁المان	-3661
▁بحلول	-3662
▁تأكيد	-3663
▁وكانت	-3664
▁المطال	-3665
▁الأراضي	-3666
يسي	-3667
▁صح	-3668
▁طف	-3669
إنها	-3670
دريب	-3671
فقرة	-3672
لاثة	-3673
يرات	-3674
يناير	-3675
▁البل	-3676
▁الرف	-3677
▁أنحاء	-3678
▁وماذا	-3679
▁يعتقد	-3680
▁البروتوكول	-3681
سفل	-3682
كبر	-3683
كتش	-3684
داية	-3685
راعة	-3686
شرات	-3687
وارئ	-3688
▁كلي	-3689
▁ممث	-3690
▁القص	-3691
▁قريب	-3692
▁النوم	-3693
▁الكامل	-3694
▁الأفريقي	-3695
▁بالإضافة	-3696
▁`	-3697
سسة	-3698
بلاغ	-3699
سكري	-3700
▁سابق	-3701
▁طلبت	-3702
▁إنّها	-3703
▁الأرب	-3704
ديو	-3705
▁فأ	-3706
▁لف	-3707
بقاء	-3708
سؤول	-3709
▁خطر	-3710
▁رغم	-3711
▁نمو	-3712
مجتمع	-3713
▁أهداف	-3714
▁الصين	-3715
▁العهد	-3716
▁المدير	-3717
▁الرسالة	-3718
▁الوحيدة	-3719
ثا	-3720
خم	-3721
عك	-3722
حضر	-3723
نتي	-3724
▁شا	-3725
▁مط	-3726
▁كبي	-3727
▁ملي	-3728
▁وسأ	-3729
أغسطس	-3730
▁تقلق	-3731
▁تفعله	-3732
غانستان	-3733
▁اعتبار	-3734
▁الشامل	-3735
▁الإطلاق	-3736
▁المدنية	-3737
روض	-3738
▁نو	-3739
▁عمر	-3740
▁مخت	-3741
▁واض	-3742
▁ومت	-3743
▁بالد	-3744
▁نموا	-3745
▁الدست	-3746
▁المتم	-3747
▁انظري	-3748
▁اللعين	-3749
▁الفلسطينية	-3750
هول	-3751
زايد	-3752
▁قسم	-3753
▁2009	-3754
▁أشياء	-3755
▁تواجه	-3756
▁يمكنه	-3757
▁النووي	-3758
▁مجالات	-3759
مّ	-3760
▁ظل	-3761
▁تبد	-3762
▁جدي	-3763
▁للر	-3764
▁ولد	-3765
▁النص	-3766
▁تعود	-3767
▁حدوث	-3768
قليمية	-3769
▁الإست	-3770
▁توجيه	-3771
▁جريمة	-3772
▁لكنها	-3773
▁مدينة	-3774
▁والمت	-3775
▁التوصل	-3776
▁الجنسي	-3777
▁الفرصة	-3778
▁المثال	-3779
im	-3780
الغ	-3781
اية	-3782
نحن	-3783
▁قدر	-3784
▁بيان	-3785
▁علما	-3786
▁هَلْ	-3787
▁إقامة	-3788
▁نتحدث	-3789
▁وفقاً	-3790
ئه	-3791
ؤية	-3792
جأة	-3793
نيا	-3794
▁شه	-3795
▁الهند	-3796
▁ولكنه	-3797
▁مشاركة	-3798
▁تكنولوج	-3799
▁الاستراتيجية	-3800
7-	-3801
CN	-3802
طبق	-3803
▁أمس	-3804
▁غرف	-3805
▁سلاح	-3806
▁عملي	-3807
▁الساح	-3808
▁أمريكا	-3809
▁الحديث	-3810
▁الخدمة	-3811
▁الصراع	-3812
▁القدرة	-3813
▁ممارسة	-3814
▁الجنسين	-3815
▁التوصيات	-3816
1-	-3817
6-	-3818
▁مقر	-3819
▁آسيا	-3820
▁وانا	-3821
▁تطوير	-3822
▁الغرفة	-3823
▁تكاليف	-3824
صت	-3825
▁ً	-3826
رال	-3827
سوف	-3828
كيم	-3829
▁صعب	-3830
▁مان	-3831
▁ويش	-3832
▁أعلى	-3833
▁أنفس	-3834
▁ايضا	-3835
▁غداً	-3836
▁فإنه	-3837
▁الأرج	-3838
▁التحض	-3839
▁لضمان	-3840
▁يساعد	-3841
▁الدائم	-3842
▁الدفاع	-3843
▁القوات	-3844
▁توصيات	-3845
إنه	-3846
علك	-3847
▁إع	-3848
راءة	-3849
فعلي	-3850
▁آمن	-3851
▁أمو	-3852
▁تعلي	-3853
▁سيئة	-3854
▁فهمت	-3855
▁البار	-3856
▁القمة	-3857
▁لجميع	-3858
▁الأخير	-3859
▁الدخول	-3860
ادت	-3861
سلة	-3862
▁طا	-3863
▁مأ	-3864
▁كام	-3865
▁دليل	-3866
▁مساء	-3867
▁يأخذ	-3868
▁الوسط	-3869
▁الحسابات	-3870
▁استراتيجية	-3871
بض	-3872
حل	-3873
سطة	-3874
فون	-3875
ماك	-3876
▁55	-3877
▁زي	-3878
▁امت	-3879
▁تقد	-3880
▁فتح	-3881
▁وفد	-3882
▁وانت	-3883
▁أربعة	-3884
▁وثائق	-3885
▁الرعاية	-3886
▁للتنمية	-3887
▁الاحتياجات	-3888
رّ	-3889
الد	-3890
دته	-3891
زعج	-3892
شية	-3893
ليب	-3894
▁جز	-3895
لامي	-3896
▁أثر	-3897
▁مشر	-3898
▁نقوم	-3899
▁الجيد	-3900
▁بداية	-3901
▁بكثير	-3902
▁تدريب	-3903
▁الإلكتر	-3904
▁الأفريقية	-3905
ثور	-3906
▁اق	-3907
▁رد	-3908
قاعد	-3909
لقات	-3910
▁بكِ	-3911
▁بير	-3912
تمويل	-3913
▁إحدى	-3914
▁تملك	-3915
▁شؤون	-3916
▁لستُ	-3917
▁مهمة	-3918
▁يصبح	-3919
▁بالتعاون	-3920
فن	-3921
هت	-3922
جلب	-3923
ستي	-3924
ياس	-3925
▁سخ	-3926
▁عِ	-3927
ابيع	-3928
بيئة	-3929
كلفة	-3930
▁متح	-3931
▁لبعض	-3932
▁الأون	-3933
▁اعتمدت	-3934
▁الحماية	-3935
em	-3936
ثبت	-3937
ضعة	-3938
▁3-	-3939
▁حص	-3940
ونات	-3941
▁تود	-3942
▁سام	-3943
▁سيء	-3944
▁ضرب	-3945
▁كله	-3946
▁أسرع	-3947
▁الور	-3948
▁بعيد	-3949
▁درجة	-3950
▁الشباب	-3951
▁بالأمر	-3952
ماس	-3953
نسا	-3954
▁قض	-3955
▁بني	-3956
▁مِن	-3957
▁زالت	-3958
▁سياق	-3959
▁يعود	-3960
▁حينما	-3961
▁يتحدث	-3962
▁التصويت	-3963
id	-3964
طن	-3965
باع	-3966
رون	-3967
قطع	-3968
قابة	-3969
يميا	-3970
▁شكر	-3971
جمالي	-3972
▁وراء	-3973
▁يجوز	-3974
▁دكتور	-3975
▁مناسب	-3976
▁الإطار	-3977
▁السياسة	-3978
▁النهاية	-3979
▁الاستعراض	-3980
▁التوجيهية	-3981
9-	-3982
ur	-3983
رو	-3984
إذا	-3985
برة	-3986
جهة	-3987
دات	-3988
فاة	-3989
▁(1	-3990
▁ذو	-3991
▁وغ	-3992
(192	-3993
صلحة	-3994
▁ترا	-3995
▁سيّ	-3996
▁ضوء	-3997
▁محق	-3998
▁مون	-3999
عْرفُ	-4000
▁آثار	-4001
▁تخرج	-4002
ولايات	-4003
▁دراسة	-4004
▁دولية	-4005
▁كثيرة	-4006
▁وبناء	-4007
▁الآراء	-4008
▁بواسطة	-4009
▁تستخدم	-4010
▁يستخدم	-4011
▁التفكير	-4012
▁المرحلة	-4013
▁للجمعية	-4014
▁العمليات	-4015
ائك	-4016
شيء	-4017
قته	-4018
مته	-4019
▁أض	-4020
ائفة	-4021
▁أمن	-4022
▁1998	-4023
▁إننا	-4024
▁اخرج	-4025
▁بالج	-4026
▁ببعض	-4027
▁بصفة	-4028
▁توافق	-4029
▁المسؤولية	-4030
رش	-4031
ّع	-4032
جاك	-4033
خفا	-4034
شري	-4035
عور	-4036
غرق	-4037
وفو	-4038
ونَ	-4039
جارة	-4040
ناسبة	-4041
▁كلها	-4042
▁كَان	-4043
▁رسمية	-4044
▁مفهوم	-4045
▁الجدول	-4046
▁بعيداً	-4047
▁سياسات	-4048
روي	-4049
طور	-4050
▁نست	-4051
راكات	-4052
▁ارتك	-4053
▁عرفت	-4054
▁يطلب	-4055
▁أخبرك	-4056
▁المرك	-4057
▁موجود	-4058
▁وأضاف	-4059
▁الأهمية	-4060
تيح	-4061
فعت	-4062
▁اض	-4063
▁لآ	-4064
حكام	-4065
صدار	-4066
▁جمع	-4067
▁يصل	-4068
▁اخرى	-4069
▁الدم	-4070
▁تسمع	-4071
▁يؤدي	-4072
▁أخبرتك	-4073
▁وتنفيذ	-4074
▁الإدارية	-4075
ئاً	-4076
▁تري	-4077
▁سوء	-4078
▁باسم	-4079
▁يمثل	-4080
▁حاولت	-4081
▁فعالة	-4082
▁فعلاً	-4083
▁التابع	-4084
▁الهيئة	-4085
▁32	-4086
▁فتى	-4087
▁فهي	-4088
▁محت	-4089
▁ميل	-4090
▁تؤكد	-4091
▁تبقى	-4092
▁لأني	-4093
▁الأجن	-4094
▁قاعدة	-4095
▁مذكرة	-4096
▁موظفي	-4097
▁معالجة	-4098
▁والسيا	-4099
▁الكبيرة	-4100
ُن	-4101
▁ابن	-4102
▁تعل	-4103
▁حدود	-4104
▁قررت	-4105
▁هاتف	-4106
لل	-4107
ائل	-4108
تري	-4109
رحل	-4110
غول	-4111
▁1-	-4112
▁آه	-4113
▁بخ	-4114
رتها	-4115
ضمام	-4116
عليم	-4117
قتها	-4118
لغام	-4119
▁فمن	-4120
▁سيدى	-4121
▁قدرة	-4122
▁القرن	-4123
▁مسائل	-4124
▁اللقاء	-4125
▁انتشار	-4126
▁القوانين	-4127
َة	-4128
ُك	-4129
ِ؟	-4130
▁J	-4131
ظاه	-4132
ّها	-4133
▁كري	-4134
▁نرى	-4135
شارلي	-4136
▁بلدي	-4137
▁تفكر	-4138
▁جيدا	-4139
▁سيتم	-4140
▁عمله	-4141
▁فعلا	-4142
▁قوات	-4143
▁قواعد	-4144
▁الحوار	-4145
▁الظروف	-4146
▁القضائية	-4147
▁المجموعة	-4148
▁y	-4149
ؤكد	-4150
باك	-4151
دتك	-4152
رفع	-4153
▁بحث	-4154
▁رفض	-4155
▁ونت	-4156
▁أحبك	-4157
▁لعبة	-4158
▁لمنع	-4159
▁كاملة	-4160
▁لنذهب	-4161
▁والتح	-4162
▁قرارات	-4163
▁يريدون	-4164
▁التاريخ	-4165
▁التركيز	-4166
▁الجرائم	-4167
طم	-4168
فات	-4169
فال	-4170
▁إم	-4171
▁حت	-4172
▁ستي	-4173
برعات	-4174
وسوفو	-4175
▁الإت	-4176
▁المأ	-4177
▁بوسع	-4178
▁تبحث	-4179
▁سيار	-4180
▁المناخ	-4181
▁المقترح	-4182
▁التكاليف	-4183
▁والخمسين	-4184
انه	-4185
▁تي	-4186
دتها	-4187
وارث	-4188
▁أخت	-4189
▁افت	-4190
▁خطط	-4191
▁أنتي	-4192
▁الدع	-4193
▁بأني	-4194
▁تبدأ	-4195
▁تقرر	-4196
▁لكنك	-4197
▁الزواج	-4198
▁التنسيق	-4199
باق	-4200
لندا	-4201
▁خرج	-4202
▁قطع	-4203
ضطلاع	-4204
▁جلسة	-4205
▁طبيب	-4206
▁نعلم	-4207
▁الأصلي	-4208
▁الوارد	-4209
▁للفترة	-4210
▁الكونغو	-4211
/7	-4212
دن	-4213
روا	-4214
دمير	-4215
فاءة	-4216
▁إنك	-4217
▁اذن	-4218
▁بري	-4219
▁تصل	-4220
▁رصد	-4221
▁نظم	-4222
▁هام	-4223
اليون	-4224
▁قتلت	-4225
▁وعدم	-4226
▁مرحلة	-4227
▁لأغراض	-4228
▁البحرية	-4229
▁القاعدة	-4230
5-	-4231
iv	-4232
تيش	-4233
دار	-4234
سلح	-4235
ليه	-4236
▁وو	-4237
خلال	-4238
كامل	-4239
▁بإن	-4240
قاطعة	-4241
▁تقصد	-4242
▁حلقة	-4243
▁ولكني	-4244
▁الرابع	-4245
▁الصحيح	-4246
▁لتقديم	-4247
ac	-4248
اتك	-4249
حسن	-4250
وتر	-4251
▁or	-4252
وامل	-4253
وبات	-4254
▁رسم	-4255
▁رفي	-4256
▁ويل	-4257
شاركة	-4258
▁بتلك	-4259
▁بقدر	-4260
▁بأكمل	-4261
▁تأثير	-4262
▁عائلة	-4263
▁العدالة	-4264
▁أفغانستان	-4265
▁التنفيذية	-4266
ht	-4267
داة	-4268
طان	-4269
هاء	-4270
▁جلب	-4271
▁نهج	-4272
▁يرت	-4273
▁تؤدي	-4274
▁ترغب	-4275
▁جاهز	-4276
▁دورة	-4277
▁شرطة	-4278
▁معدل	-4279
▁إدراج	-4280
▁الأجل	-4281
▁كَانَ	-4282
▁العشاء	-4283
▁قريباً	-4284
▁المعنون	-4285
▁مشاورات	-4286
▁المدنيين	-4287
أين	-4288
روب	-4289
مرة	-4290
ناس	-4291
ودان	-4292
▁ساب	-4293
▁ينا	-4294
ريفية	-4295
قترحة	-4296
▁أَنا	-4297
▁البد	-4298
▁البن	-4299
▁جنيف	-4300
▁مثلك	-4301
▁إنتظر	-4302
▁بعيدا	-4303
▁وأشار	-4304
▁السؤال	-4305
▁الكلمة	-4306
▁الطبيعية	-4307
▁المناسبة	-4308
ot	-4309
جاب	-4310
دفع	-4311
غار	-4312
ائزة	-4313
ثنين	-4314
▁برا	-4315
▁جاك	-4316
▁الجم	-4317
▁فضلا	-4318
▁الدور	-4319
تكِ	-4320
صار	-4321
ناع	-4322
▁لخ	-4323
بالغ	-4324
▁بمج	-4325
▁صاد	-4326
▁أراك	-4327
▁التل	-4328
▁جهاز	-4329
▁أشخاص	-4330
▁التقلي	-4331
▁محاولة	-4332
▁للبلدان	-4333
▁الاعتبار	-4334
عن	-4335
سنت	-4336
▁سك	-4337
▁كأ	-4338
▁197	-4339
▁ثمة	-4340
▁نجد	-4341
▁ويع	-4342
▁المق	-4343
▁قيمة	-4344
▁الفتى	-4345
▁الأسرة	-4346
▁كوسوفو	-4347
▁القواعد	-4348
▁المقبلة	-4349
▁المناقشة	-4350
▁الوكالات	-4351
شن	-4352
وخ	-4353
ساب	-4354
▁خد	-4355
قشات	-4356
▁تجد	-4357
▁ثال	-4358
▁غاض	-4359
▁افضل	-4360
▁بالص	-4361
▁لعمل	-4362
▁النقل	-4363
▁تنسيق	-4364
▁يعتبر	-4365
▁متابعة	-4366
▁البداية	-4367
▁التعامل	-4368
▁الشركات	-4369
▁القانوني	-4370
خرة	-4371
عقد	-4372
فيض	-4373
لنا	-4374
▁عص	-4375
قيات	-4376
يابة	-4377
▁أخذت	-4378
▁إذهب	-4379
▁الحظ	-4380
▁العض	-4381
▁القي	-4382
▁للتص	-4383
▁وصلت	-4384
ثنائية	-4385
▁الدائ	-4386
▁وإعادة	-4387
ذى	-4388
قه	-4389
مز	-4390
إلى	-4391
ربي	-4392
ضاع	-4393
عني	-4394
كرر	-4395
هوض	-4396
يدر	-4397
▁إش	-4398
▁لِ	-4399
كتاد	-4400
▁أشك	-4401
▁قصة	-4402
شكراً	-4403
▁تجري	-4404
▁مقاب	-4405
▁الشرق	-4406
▁فعالية	-4407
▁لايمكن	-4408
▁مؤسسات	-4409
▁العادية	-4410
▁بالكامل	-4411
▁المفوضية	-4412
نُ	-4413
تان	-4414
حظة	-4415
يجة	-4416
▁on	-4417
ستون	-4418
طلاع	-4419
▁شعر	-4420
▁محظ	-4421
▁ووف	-4422
وانات	-4423
▁الصعب	-4424
▁للحصول	-4425
▁ملايين	-4426
▁الأحيان	-4427
▁السابعة	-4428
▁الإنترنت	-4429
▁والتعاون	-4430
▁والعشرين	-4431
▁الانتخابات	-4432
8-	-4433
ُب	-4434
أمل	-4435
باً	-4436
▁In	-4437
سائر	-4438
شخاص	-4439
▁آمل	-4440
▁أمل	-4441
▁حقي	-4442
▁صور	-4443
▁مرض	-4444
▁أنّك	-4445
▁اكون	-4446
▁حساب	-4447
▁قطاع	-4448
▁كُلّ	-4449
بيانات	-4450
حياناً	-4451
▁أصحاب	-4452
▁لشؤون	-4453
▁أصدقاء	-4454
▁الخارجي	-4455
▁المملكة	-4456
▁الهيئات	-4457
دو	-4458
ظى	-4459
بعد	-4460
بور	-4461
خطط	-4462
ائها	-4463
بعاد	-4464
جرين	-4465
لمان	-4466
▁تقع	-4467
▁عضو	-4468
▁مذه	-4469
▁مسب	-4470
▁وهم	-4471
▁أطلق	-4472
▁تشجيع	-4473
▁قدرات	-4474
▁ولذلك	-4475
ميزانية	-4476
▁المقدم	-4477
▁التنظيم	-4478
0-	-4479
um	-4480
؟"	-4481
حْ	-4482
َد	-4483
دير	-4484
سمى	-4485
ساطة	-4486
عمار	-4487
ناية	-4488
ونها	-4489
حترام	-4490
قالية	-4491
▁اننا	-4492
▁بشدة	-4493
▁تعيش	-4494
▁لدعم	-4495
▁العدل	-4496
▁بالتح	-4497
▁معينة	-4498
▁وطنية	-4499
▁التقني	-4500
▁السيطرة	-4501
▁الضروري	-4502
▁تقريباً	-4503
▁للألفية	-4504
حوا	-4505
فكر	-4506
خدمة	-4507
خفاض	-4508
داول	-4509
ضافي	-4510
طرية	-4511
ميلة	-4512
وجود	-4513
▁تمر	-4514
▁ظهر	-4515
▁تترك	-4516
▁جورج	-4517
▁سماع	-4518
▁اعتمد	-4519
▁دعونا	-4520
▁الوسطى	-4521
▁وتقديم	-4522
▁وعندما	-4523
▁الإعلان	-4524
▁الوكالة	-4525
▁المعايير	-4526
▁المقترحة	-4527
ُه	-4528
جلة	-4529
شير	-4530
طوي	-4531
علن	-4532
فقت	-4533
فوا	-4534
مني	-4535
هيا	-4536
وتي	-4537
وكي	-4538
▁نز	-4539
يسيف	-4540
▁ألي	-4541
▁عدا	-4542
▁وسط	-4543
▁القت	-4544
▁بهدف	-4545
▁لنفس	-4546
▁المبا	-4547
▁تلاحظ	-4548
▁كافية	-4549
▁لأنها	-4550
▁مؤخرا	-4551
▁الطبيب	-4552
▁المحرز	-4553
▁الوحدة	-4554
▁تقريبا	-4555
▁للمنزل	-4556
▁استمرار	-4557
▁الأفراد	-4558
سَ	-4559
▁n	-4560
ers	-4561
ائم	-4562
فاز	-4563
حكمة	-4564
هولة	-4565
▁أصل	-4566
▁حكم	-4567
▁زلت	-4568
▁اتصل	-4569
▁موقف	-4570
▁يملك	-4571
▁يموت	-4572
▁تعيين	-4573
▁شخصاً	-4574
▁فعلته	-4575
▁مجددا	-4576
▁محكمة	-4577
▁وقالت	-4578
▁والاقتص	-4579
▁وبالتالي	-4580
ُر	-4581
ضار	-4582
قلت	-4583
▁اغ	-4584
ختار	-4585
▁جزي	-4586
▁لسنا	-4587
▁وحتى	-4588
▁أسبوع	-4589
▁الامت	-4590
▁بيننا	-4591
▁تعالي	-4592
▁الموقع	-4593
▁المحددة	-4594
ائه	-4595
برت	-4596
ثيل	-4597
كلي	-4598
مير	-4599
عيين	-4600
قتنا	-4601
▁سبق	-4602
▁للب	-4603
▁للط	-4604
▁لين	-4605
▁مقب	-4606
أنشطة	-4607
▁أدري	-4608
▁منكم	-4609
▁يقتل	-4610
لاحظات	-4611
▁أعطني	-4612
▁العقد	-4613
▁كيفية	-4614
▁مقدمة	-4615
▁منتصف	-4616
▁موجهة	-4617
▁يستحق	-4618
▁العليا	-4619
▁الدائمة	-4620
▁بالخارج	-4621
▁للمساعدة	-4622
جت	-4623
زب	-4624
ُل	-4625
انع	-4626
بته	-4627
لكن	-4628
وضح	-4629
ياز	-4630
▁36	-4631
رجمة	-4632
كومة	-4633
▁حفل	-4634
▁ففي	-4635
▁مسر	-4636
▁هول	-4637
▁بشيء	-4638
▁تصدق	-4639
▁تمكن	-4640
▁توفر	-4641
▁كتاب	-4642
▁العمر	-4643
▁الروسي	-4644
▁القليل	-4645
▁الكلام	-4646
01	-4647
bl	-4648
ff	-4649
افي	-4650
رفض	-4651
سيك	-4652
▁اى	-4653
فعال	-4654
وراً	-4655
▁أهم	-4656
▁أتيت	-4657
▁الرب	-4658
▁تمثل	-4659
▁حفلة	-4660
▁كلاّ	-4661
▁يزيد	-4662
▁السما	-4663
▁بعضنا	-4664
▁اهتمام	-4665
▁مراعاة	-4666
▁الإصلاح	-4667
▁الطوارئ	-4668
▁المجالات	-4669
▁الممارسات	-4670
ad	-4671
دئ	-4672
راي	-4673
ضاة	-4674
ضور	-4675
كول	-4676
▁بف	-4677
▁ظه	-4678
احنة	-4679
خبرك	-4680
زالة	-4681
واقع	-4682
وسيع	-4683
▁آخذ	-4684
▁ليت	-4685
▁أطلب	-4686
▁أكره	-4687
▁الإي	-4688
▁المث	-4689
▁تحول	-4690
▁تفضل	-4691
▁يشير	-4692
▁الثقة	-4693
▁العرض	-4694
▁كفالة	-4695
▁بتقديم	-4696
▁الثامنة	-4697
▁الشرقية	-4698
برى	-4699
بيض	-4700
طفل	-4701
▁حذ	-4702
▁عذ	-4703
بتعد	-4704
▁أحض	-4705
▁جان	-4706
▁موت	-4707
▁وتع	-4708
▁خيار	-4709
▁نقطة	-4710
▁والك	-4711
▁المنظ	-4712
▁المها	-4713
▁قضايا	-4714
▁مناطق	-4715
▁المتاحة	-4716
▁التحضيرية	-4717
ow	-4718
ّت	-4719
اتهم	-4720
بتها	-4721
جهود	-4722
▁أرد	-4723
▁أنْ	-4724
▁بدء	-4725
▁حبي	-4726
▁يَج	-4727
▁أرجو	-4728
▁عندي	-4729
▁قيام	-4730
▁مصدر	-4731
▁معاي	-4732
▁الثان	-4733
▁الدين	-4734
▁الشهر	-4735
▁نوعاً	-4736
▁يقولون	-4737
▁الأمنية	-4738
▁المقررة	-4739
▁مسؤولية	-4740
▁الاهتمام	-4741
ir	-4742
صى	-4743
ظي	-4744
الس	-4745
▁رغ	-4746
ياغة	-4747
▁بلغ	-4748
▁ترد	-4749
▁تسا	-4750
▁مفا	-4751
▁هات	-4752
▁وعن	-4753
▁يبد	-4754
▁الست	-4755
▁بوضع	-4756
▁ذاته	-4757
▁كافة	-4758
▁مبلغ	-4759
▁مشكل	-4760
▁مبادئ	-4761
▁وثيقة	-4762
▁تفعلين	-4763
▁متأكدة	-4764
▁البرنامجية	-4765
أه	-4766
دس	-4767
زين	-4768
عيم	-4769
فعة	-4770
▁سب	-4771
▁حرب	-4772
▁لتن	-4773
▁أراد	-4774
▁أملك	-4775
▁بحيث	-4776
▁سريع	-4777
▁مدير	-4778
▁وكيف	-4779
▁يشمل	-4780
▁القتل	-4781
▁بعدها	-4782
▁تنمية	-4783
▁احترام	-4784
▁مساعدتك	-4785
ًّا	-4786
▁--	-4787
▁35	-4788
▁يم	-4789
قطاع	-4790
ناها	-4791
▁أرسل	-4792
▁التغ	-4793
▁ترتي	-4794
▁دائم	-4795
▁علمت	-4796
▁قليل	-4797
▁وعلا	-4798
▁يشعر	-4799
وروبية	-4800
▁الفعل	-4801
▁النقد	-4802
▁الجهات	-4803
▁مناقشة	-4804
▁التاسعة	-4805
▁العلاقات	-4806
يص	-4807
َت	-4808
ابط	-4809
ارق	-4810
صاف	-4811
ليك	-4812
ونغ	-4813
▁فق	-4814
حداث	-4815
▁بذل	-4816
▁أداء	-4817
▁خائف	-4818
▁مؤرخ	-4819
▁السوق	-4820
▁اقتراح	-4821
▁الشركة	-4822
▁القادم	-4823
▁الكاري	-4824
▁حبيبتي	-4825
▁التقدير	-4826
▁المحاكم	-4827
▁المخصصة	-4828
▁تكنولوجيا	-4829
ظه	-4830
جير	-4831
خلت	-4832
منى	-4833
رقام	-4834
▁تيم	-4835
▁قوي	-4836
▁اسمي	-4837
▁الأع	-4838
▁الوق	-4839
▁تتصل	-4840
▁والل	-4841
▁المرا	-4842
▁بأننا	-4843
▁دعيني	-4844
يميائية	-4845
▁المبلغ	-4846
▁حقيقية	-4847
▁الغربية	-4848
▁اليابان	-4849
ep	-4850
زف	-4851
جيم	-4852
سعة	-4853
فذة	-4854
ماي	-4855
ويا	-4856
▁34	-4857
▁org	-4858
▁تأي	-4859
▁تعط	-4860
▁تفس	-4861
▁آلية	-4862
▁الإج	-4863
▁فأنت	-4864
▁لاحظ	-4865
▁معهم	-4866
▁وذكر	-4867
▁اللات	-4868
▁انتهى	-4869
▁عليكم	-4870
▁اعتقدت	-4871
▁الأيام	-4872
▁معايير	-4873
▁الطائرة	-4874
▁تعتقدين	-4875
9)	-4876
تن	-4877
خال	-4878
دّث	-4879
ينى	-4880
▁33	-4881
رسال	-4882
▁أبد	-4883
▁باك	-4884
▁بيل	-4885
▁شعب	-4886
▁صنا	-4887
▁نها	-4888
▁أقرب	-4889
▁الأص	-4890
▁تمزح	-4891
▁الميد	-4892
▁بنفسك	-4893
▁بينها	-4894
▁الفنية	-4895
▁بالعمل	-4896
▁لحماية	-4897
▁للسكان	-4898
▁السلامة	-4899
▁المنشأة	-4900
▁اجتماعات	-4901
▁المستشفى	-4902
▁الاستقرار	-4903
ارض	-4904
الن	-4905
جية	-4906
دائ	-4907
دام	-4908
▁56	-4909
▁عط	-4910
دينا	-4911
عدات	-4912
عوبة	-4913
▁دعي	-4914
▁متن	-4915
▁مَن	-4916
▁أنّي	-4917
▁فقدت	-4918
▁المرض	-4919
▁عديدة	-4920
▁الأوسط	-4921
ِد	-4922
رته	-4923
عدم	-4924
غاء	-4925
مرت	-4926
ياب	-4927
▁(2	-4928
▁57	-4929
▁كذ	-4930
▁يض	-4931
▁ذاك	-4932
▁مره	-4933
زيادة	-4934
▁أترك	-4935
▁إليّ	-4936
▁الأو	-4937
▁بضعة	-4938
▁يعجب	-4939
▁الفرص	-4940
▁تحليل	-4941
▁عبارة	-4942
▁مازلت	-4943
▁الهواء	-4944
▁الدراسة	-4945
▁المعاهدة	-4946
▁الالتزامات	-4947
َر	-4948
سار	-4949
قدة	-4950
مدة	-4951
▁يغ	-4952
▁دين	-4953
▁روح	-4954
▁مري	-4955
▁ويُ	-4956
▁اللي	-4957
▁عِنْ	-4958
▁واعت	-4959
موظفين	-4960
▁بالات	-4961
▁واضحة	-4962
▁وخاصة	-4963
▁يتطلب	-4964
▁للمجلس	-4965
▁الجنسية	-4966
▁الإنساني	-4967
بتك	-4968
تيه	-4969
خيص	-4970
ستن	-4971
فية	-4972
لان	-4973
▁جر	-4974
▁خل	-4975
▁أسم	-4976
▁النظ	-4977
▁قطعة	-4978
▁يدفع	-4979
▁النهج	-4980
▁بنسبة	-4981
▁تضطلع	-4982
▁ستعمل	-4983
▁عملها	-4984
▁الموسي	-4985
▁بوصفها	-4986
▁ولكنها	-4987
▁أحياناً	-4988
▁العسكري	-4989
▁بإمكاني	-4990
ضب	-4991
نسى	-4992
▁عش	-4993
تمال	-4994
عتها	-4995
مارك	-4996
ومان	-4997
▁إعت	-4998
▁حجم	-4999
▁فلت	-5000
▁يضع	-5001
▁أسوأ	-5002
▁الحر	-5003
▁سيحدث	-5004
▁الجنوب	-5005
▁الصورة	-5006
▁المحيط	-5007
▁احتياجات	-5008
▁_	-5009
ائن	-5010
اعر	-5011
ذاب	-5012
فرد	-5013
ورت	-5014
ونك	-5015
▁4-	-5016
بارك	-5017
متها	-5018
▁you	-5019
▁اني	-5020
▁اول	-5021
▁ويس	-5022
▁أهذا	-5023
▁حركة	-5024
▁شباب	-5025
▁مثير	-5026
▁مرحب	-5027
الإيدز	-5028
▁الفرع	-5029
▁تتضمن	-5030
▁زوجتي	-5031
▁ينتهي	-5032
▁الذاتي	-5033
▁للمرأة	-5034
▁الإشارة	-5035
▁العائلة	-5036
▁الأولوية	-5037
▁الصراعات	-5038
ob	-5039
سو	-5040
▁K	-5041
خاب	-5042
علة	-5043
هان	-5044
▁for	-5045
▁أكل	-5046
▁جئت	-5047
▁روس	-5048
▁صلة	-5049
▁ننت	-5050
▁اللغ	-5051
▁تسمح	-5052
▁عيني	-5053
▁يلزم	-5054
▁أولئك	-5055
▁الخطأ	-5056
▁الشمس	-5057
▁الصحي	-5058
▁الصور	-5059
▁المقد	-5060
▁بنفسي	-5061
▁يوماً	-5062
▁لإدارة	-5063
▁استعمال	-5064
▁الثلاثة	-5065
▁المؤقتة	-5066
▁لبرنامج	-5067
سه	-5068
عدي	-5069
واي	-5070
▁1)	-5071
▁تو	-5072
ئاسة	-5073
▁اخذ	-5074
▁بكم	-5075
▁بمع	-5076
▁هار	-5077
تياري	-5078
▁كهذا	-5079
▁مرات	-5080
▁أنتظر	-5081
▁القول	-5082
▁محظوظ	-5083
▁ملابس	-5084
▁البيان	-5085
▁الملحق	-5086
▁سياسية	-5087
▁مشتركة	-5088
▁الأحكام	-5089
▁التغيير	-5090
▁الريفية	-5091
▁المحتمل	-5092
ov	-5093
ِبُ	-5094
FFFF	-5095
يتين	-5096
▁أيض	-5097
▁بشر	-5098
▁زمن	-5099
▁فرض	-5100
▁وبد	-5101
شاريع	-5102
عايير	-5103
▁تظهر	-5104
▁نجاح	-5105
▁هامة	-5106
▁ووضع	-5107
▁تتذكر	-5108
▁تستحق	-5109
▁لصالح	-5110
▁يارجل	-5111
▁الأمير	-5112
▁الاشياء	-5113
▁المذكورة	-5114
امر	-5115
عته	-5116
لقي	-5117
▁48	-5118
طوير	-5119
مولة	-5120
▁دخل	-5121
▁ولي	-5122
بلوما	-5123
▁أشار	-5124
▁الخت	-5125
▁خدمة	-5126
▁عاما	-5127
رتيبات	-5128
▁الزوج	-5129
▁لمجلس	-5130
▁يفترض	-5131
▁قوانين	-5132
▁مناسبة	-5133
▁الرقابة	-5134
▁العنصري	-5135
▁النهائي	-5136
fn	-5137
ul	-5138
بقي	-5139
رسل	-5140
هدأ	-5141
باري	-5142
قافة	-5143
▁كات	-5144
ستخدم	-5145
▁أعطي	-5146
▁قادر	-5147
▁قادم	-5148
▁كُنت	-5149
▁لتلك	-5150
▁مقار	-5151
▁يسمح	-5152
▁الريا	-5153
▁بجانب	-5154
▁تواصل	-5155
▁ميدان	-5156
▁يتضمن	-5157
▁انتظري	-5158
▁حَسناً	-5159
▁التوصية	-5160
▁الدكتور	-5161
▁الميدان	-5162
▁للقانون	-5163
▁مستويات	-5164
▁التحديات	-5165
▁المتعددة	-5166
▁اللاتينية	-5167
▁المعاهدات	-5168
ce	-5169
ch	-5170
ادل	-5171
▁th	-5172
بعثة	-5173
حسنا	-5174
ذهاب	-5175
ريبا	-5176
سارة	-5177
سلوب	-5178
▁سان	-5179
▁فار	-5180
▁مدة	-5181
▁أبلغ	-5182
▁أعرب	-5183
▁تحدي	-5184
▁يبدأ	-5185
▁الألم	-5186
▁الأما	-5187
▁البنك	-5188
▁المفر	-5189
▁تعتبر	-5190
▁سأقوم	-5191
▁سنفعل	-5192
▁مؤرخة	-5193
▁السياق	-5194
▁وبعدها	-5195
▁وعلاوة	-5196
▁القديمة	-5197
▁المدارس	-5198
▁الوظائف	-5199
▁الشمالية	-5200
▁الأوروبية	-5201
▁التكنولوجيا	-5202
))	-5203
ort	-5204
▁39	-5205
اليب	-5206
ميلي	-5207
وسطة	-5208
▁حمل	-5209
▁صحي	-5210
▁غدا	-5211
▁لنت	-5212
صدقاء	-5213
موعات	-5214
▁قوية	-5215
▁مضحك	-5216
▁السلم	-5217
▁المسي	-5218
▁ايضاً	-5219
▁بوصفه	-5220
▁تسجيل	-5221
▁ربّما	-5222
▁شكرًا	-5223
▁المهمة	-5224
▁المؤتمرات	-5225
▁والاتصالات	-5226
رحب	-5227
عاش	-5228
عتك	-5229
لكم	-5230
ذكّر	-5231
طنين	-5232
مهور	-5233
ورين	-5234
▁196	-5235
▁فات	-5236
▁قضي	-5237
▁ملف	-5238
▁نيك	-5239
▁يدي	-5240
▁أربع	-5241
▁جيّد	-5242
رائيلي	-5243
▁أسعار	-5244
▁أسلحة	-5245
▁الإحص	-5246
▁الابت	-5247
▁المطب	-5248
▁بالله	-5249
حتياجات	-5250
▁تخبرني	-5251
▁تقريرا	-5252
▁الشخصية	-5253
▁وبرنامج	-5254
طه	-5255
سبق	-5256
غال	-5257
▁ند	-5258
رتبة	-5259
نيسة	-5260
▁أرس	-5261
▁بعم	-5262
▁ولل	-5263
▁أبحث	-5264
▁الاح	-5265
▁ترحب	-5266
▁تركت	-5267
▁لوحد	-5268
▁وكما	-5269
▁أنواع	-5270
▁الجيش	-5271
▁الحوا	-5272
▁الطرق	-5273
▁ولهذا	-5274
▁الآثار	-5275
▁الكتاب	-5276
▁رائعاً	-5277
▁للجميع	-5278
▁الشراكة	-5279
▁القيادة	-5280
op	-5281
بز	-5282
َم	-5283
ؤمن	-5284
عتي	-5285
قرأ	-5286
ميت	-5287
▁54	-5288
▁سه	-5289
▁أمك	-5290
▁برب	-5291
▁حظر	-5292
▁شري	-5293
▁الرح	-5294
▁تدخل	-5295
▁حيال	-5296
▁وصول	-5297
▁الاشت	-5298
▁تفعلي	-5299
▁مراقبة	-5300
▁منظمات	-5301
▁يمكنكِ	-5302
▁العاملة	-5303
▁الكوارث	-5304
▁بإمكانك	-5305
▁للأطفال	-5306
▁الانتشار	-5307
▁باستخدام	-5308
-3	-5309
ut	-5310
اذ	-5311
الع	-5312
▁38	-5313
▁اد	-5314
ment	-5315
ئناف	-5316
فيات	-5317
ماري	-5318
▁أجد	-5319
▁عين	-5320
▁أأنت	-5321
▁تهتم	-5322
▁مرفق	-5323
▁إعتقد	-5324
▁اتصال	-5325
▁الغذا	-5326
▁بجميع	-5327
▁تسوية	-5328
▁سنكون	-5329
▁فيروس	-5330
▁مراكز	-5331
▁وبالإ	-5332
▁وربما	-5333
▁الشعور	-5334
▁اللازم	-5335
▁بالاست	-5336
▁تعلمون	-5337
▁القطرية	-5338
▁والبلدان	-5339
▁التقليدية	-5340
CC	-5341
حه	-5342
000	-5343
عاء	-5344
كيل	-5345
ياد	-5346
يدو	-5347
لتها	-5348
نسيق	-5349
▁أذا	-5350
▁بقي	-5351
▁فرا	-5352
▁منط	-5353
▁وأد	-5354
داعاً	-5355
فافية	-5356
قليات	-5357
▁إقلي	-5358
▁بالب	-5359
▁بالف	-5360
▁خطوة	-5361
▁سلطة	-5362
▁شعرت	-5363
▁مريض	-5364
▁نسيت	-5365
وكالات	-5366
▁استنا	-5367
▁التنا	-5368
▁الرقم	-5369
▁الزمن	-5370
▁رأيته	-5371
▁ميلاد	-5372
▁وظائف	-5373
▁اختيار	-5374
▁وبخاصة	-5375
▁ولكنني	-5376
▁الأسئلة	-5377
50	-5378
غد	-5379
جوء	-5380
واز	-5381
▁46	-5382
▁59	-5383
▁إيج	-5384
▁عود	-5385
▁كرة	-5386
▁وقف	-5387
▁يال	-5388
▁يخص	-5389
رافية	-5390
▁أدنى	-5391
▁اترك	-5392
▁بوجه	-5393
▁فيلم	-5394
▁كلام	-5395
▁وأنه	-5396
▁وقعت	-5397
▁السلع	-5398
▁العثور	-5399
▁القديم	-5400
▁يمكننى	-5401
▁يَجِبُ	-5402
▁الأحداث	-5403
▁السودان	-5404
▁الولاية	-5405
▁الاقتراح	-5406
▁الدوليين	-5407
▁المفاوضات	-5408
كب	-5409
تاح	-5410
ثيق	-5411
جزء	-5412
وضي	-5413
بكات	-5414
جازة	-5415
واجد	-5416
ومال	-5417
▁فئة	-5418
▁كين	-5419
▁مرك	-5420
▁مضى	-5421
▁وتس	-5422
خبرني	-5423
عدالة	-5424
▁أسفل	-5425
▁اقول	-5426
▁تحقق	-5427
▁تصرف	-5428
▁فرقة	-5429
▁يظهر	-5430
فعالية	-5431
▁الزرا	-5432
▁الضوء	-5433
▁تجاوز	-5434
▁أسابيع	-5435
▁الأداء	-5436
▁الخامس	-5437
▁القاضي	-5438
▁بتنفيذ	-5439
▁الجمهورية	-5440
▁والثقافية	-5441
▁الاستثنائية	-5442
سق	-5443
َه	-5444
أني	-5445
بيه	-5446
شعر	-5447
فاد	-5448
فسة	-5449
▁سآ	-5450
(190	-5451
قتله	-5452
كِنُ	-5453
ولين	-5454
▁طول	-5455
رادات	-5456
ضرورة	-5457
▁أحصل	-5458
▁أنقذ	-5459
▁الضع	-5460
▁الكر	-5461
▁بالل	-5462
▁حتّى	-5463
▁مؤخر	-5464
▁شاملة	-5465
▁طالما	-5466
▁عاماً	-5467
▁فإنها	-5468
▁هُناك	-5469
▁البلدة	-5470
▁اللحظة	-5471
▁اللعبة	-5472
▁الألغام	-5473
▁الأونكتاد	-5474
ay	-5475
▁r	-5476
تكم	-5477
ريل	-5478
عنا	-5479
فرة	-5480
لتي	-5481
يجب	-5482
▁43	-5483
غلقة	-5484
▁جنس	-5485
▁وسن	-5486
▁وصف	-5487
▁يقل	-5488
رهابي	-5489
▁1996	-5490
▁الإث	-5491
▁الشي	-5492
▁سكان	-5493
▁شمال	-5494
▁ينظر	-5495
▁آليات	-5496
▁أهلاً	-5497
▁إضافة	-5498
▁الشأن	-5499
▁الصوت	-5500
▁المكت	-5501
▁بدلاً	-5502
▁جرائم	-5503
▁حينها	-5504
▁ضحايا	-5505
▁لديكِ	-5506
▁الفرعي	-5507
▁المرجع	-5508
ــــــــ	-5509
▁الألفية	-5510
▁البعثات	-5511
▁التعذيب	-5512
tr	-5513
طح	-5514
نَ	-5515
قاش	-5516
ويه	-5517
▁58	-5518
▁حم	-5519
▁طب	-5520
▁يز	-5521
افلة	-5522
جمات	-5523
فيفة	-5524
▁ثان	-5525
▁عدت	-5526
▁ولو	-5527
▁اشعر	-5528
▁مبدأ	-5529
▁وزير	-5530
▁أشكرك	-5531
▁الأسر	-5532
▁أساسية	-5533
▁الشارع	-5534
▁الإنتاج	-5535
▁الاتجاه	-5536
▁الوزراء	-5537
تج	-5538
ِل	-5539
أخر	-5540
ألف	-5541
ثان	-5542
قتلك	-5543
قلال	-5544
ولمة	-5545
▁أحت	-5546
▁إما	-5547
▁تنص	-5548
▁شار	-5549
▁شاه	-5550
▁لتس	-5551
▁1997	-5552
▁العب	-5553
▁سخيف	-5554
▁شعور	-5555
▁نائب	-5556
▁يبلغ	-5557
▁يُمْ	-5558
▁إنتاج	-5559
▁الغير	-5560
▁دورته	-5561
▁زوجتك	-5562
▁سأعود	-5563
▁قالوا	-5564
▁ممتاز	-5565
▁انتهاء	-5566
▁قرارها	-5567
▁الانتها	-5568
▁البيئية	-5569
▁العاملين	-5570
ذْ	-5571
شئ	-5572
/59	-5573
rab	-5574
خذه	-5575
موض	-5576
ميه	-5577
قاتل	-5578
▁أتح	-5579
▁رفع	-5580
▁نسب	-5581
▁هاد	-5582
▁عملت	-5583
▁للحد	-5584
▁واجب	-5585
▁واسع	-5586
▁العدد	-5587
▁تبادل	-5588
▁متأخر	-5589
▁ولكنك	-5590
▁الهادئ	-5591
▁للقيام	-5592
▁مؤخراً	-5593
▁معدلات	-5594
▁الكفاية	-5595
▁الموجود	-5596
▁الاختياري	-5597
اذا	-5598
ودا	-5599
▁42	-5600
▁نق	-5601
ابتن	-5602
سلسل	-5603
ظيمة	-5604
فرقة	-5605
لقاء	-5606
هديد	-5607
▁إني	-5608
▁ارج	-5609
▁حاس	-5610
▁يسا	-5611
كلمات	-5612
لاحظة	-5613
وافقة	-5614
▁أعود	-5615
▁أهتم	-5616
▁ابني	-5617
▁لاحق	-5618
▁أدناه	-5619
▁أماكن	-5620
▁أيّها	-5621
▁الفئة	-5622
▁جامعة	-5623
▁لمعال	-5624
▁البالغ	-5625
▁البلاد	-5626
▁الفساد	-5627
▁وحماية	-5628
▁يمكنها	-5629
▁الأجانب	-5630
▁العضوية	-5631
▁الفقرات	-5632
▁الموافقة	-5633
رص	-5634
شأ	-5635
بون	-5636
▁إج	-5637
داني	-5638
ديقة	-5639
رجال	-5640
ستها	-5641
طبيق	-5642
مانة	-5643
يرون	-5644
يمان	-5645
▁يرى	-5646
▁أحمق	-5647
▁أدرك	-5648
▁بعدم	-5649
▁جنون	-5650
▁حرية	-5651
▁غضون	-5652
▁كلما	-5653
▁واثق	-5654
▁يخرج	-5655
متلكات	-5656
▁إدماج	-5657
▁ابتعد	-5658
▁الدخل	-5659
▁داخلي	-5660
▁هيئات	-5661
▁والمع	-5662
▁وخلال	-5663
▁القهوة	-5664
▁المحقق	-5665
▁الموجودة	-5666
▁المجتمعات	-5667
▁المسؤولين	-5668
▁الكيميائية	-5669
/8	-5670
ثقي	-5671
راس	-5672
سيم	-5673
قيب	-5674
▁37	-5675
▁فك	-5676
ريدُ	-5677
غلاق	-5678
يسون	-5679
▁إعط	-5680
▁ابي	-5681
▁جين	-5682
▁سقط	-5683
▁غرب	-5684
▁لاأ	-5685
▁مُت	-5686
▁وأي	-5687
▁أننى	-5688
▁المف	-5689
▁حديث	-5690
▁فعال	-5691
▁لوضع	-5692
▁نسخة	-5693
▁أحداً	-5694
▁اثنين	-5695
▁الغرض	-5696
▁تيمور	-5697
▁فرنسا	-5698
▁وسيلة	-5699
▁يعتمد	-5700
▁استخدم	-5701
▁الأساس	-5702
▁لمساعد	-5703
▁مواجهة	-5704
▁الدستور	-5705
▁المخاطر	-5706
▁الاضطلاع	-5707
بْ	-5708
رع	-5709
▁أز	-5710
tern	-5711
ونيا	-5712
▁أفت	-5713
▁لتش	-5714
▁واو	-5715
▁يعت	-5716
ساعدك	-5717
▁النم	-5718
▁طعام	-5719
نتاجات	-5720
▁أموال	-5721
▁القلب	-5722
▁تشغيل	-5723
▁ثانيا	-5724
▁فضلاً	-5725
▁وكالة	-5726
▁الأبيض	-5727
▁الأحمر	-5728
▁الخطوات	-5729
▁المحتلة	-5730
▁المنصوص	-5731
▁وبالإضافة	-5732
▁=	-5733
▁v	-5734
/55	-5735
/58	-5736
بيذ	-5737
فيل	-5738
نيك	-5739
وتو	-5740
وضى	-5741
وكب	-5742
▁بذ	-5743
رويج	-5744
سيدة	-5745
كمال	-5746
▁تقي	-5747
▁حما	-5748
▁غبي	-5749
▁قوم	-5750
▁كيل	-5751
▁هاه	-5752
عوبات	-5753
▁أدلى	-5754
▁أقسم	-5755
▁اسمه	-5756
▁الاد	-5757
▁تبلغ	-5758
▁شاهد	-5759
▁شديد	-5760
▁مطال	-5761
▁نظرت	-5762
▁إيران	-5763
▁التعا	-5764
▁تعتمد	-5765
▁عندها	-5766
▁السماء	-5767
▁السنوي	-5768
▁القاتل	-5769
▁المتخذ	-5770
▁بالرغم	-5771
▁مستحيل	-5772
▁موجودة	-5773
▁الأخبار	-5774
زت	-5775
ترا	-5776
خيل	-5777
طاء	-5778
ناد	-5779
ّدة	-5780
▁41	-5781
▁دم	-5782
بيتر	-5783
تمان	-5784
جلات	-5785
حدات	-5786
فلات	-5787
ليكس	-5788
لينا	-5789
همات	-5790
▁بيع	-5791
▁تخص	-5792
▁محل	-5793
▁آنسة	-5794
▁الغد	-5795
▁تبذل	-5796
▁تدعو	-5797
▁تدفع	-5798
▁تقتل	-5799
▁سمحت	-5800
▁فهذا	-5801
▁قاتل	-5802
▁والآ	-5803
▁أنّها	-5804
▁أيضًا	-5805
▁إصدار	-5806
▁احتاج	-5807
▁الارت	-5808
▁المؤس	-5809
▁تأييد	-5810
▁تبدين	-5811
▁تعديل	-5812
▁سيادة	-5813
▁فيينا	-5814
▁مالية	-5815
▁وقتاً	-5816
▁التصدي	-5817
▁الدليل	-5818
▁الرسمي	-5819
▁الرصاص	-5820
▁القائم	-5821
▁النطاق	-5822
▁حالياً	-5823
▁حكومية	-5824
▁مراجعة	-5825
▁موافقة	-5826
▁الملابس	-5827
▁المراقبة	-5828
رأ	-5829
است	-5830
بها	-5831
رتب	-5832
سرق	-5833
عطي	-5834
فقد	-5835
منع	-5836
نسي	-5837
/199	-5838
جميع	-5839
فجار	-5840
هيئة	-5841
وبرت	-5842
▁The	-5843
▁امي	-5844
▁بلى	-5845
▁تبا	-5846
▁لله	-5847
▁وحي	-5848
▁ووا	-5849
▁أبعد	-5850
▁الإم	-5851
▁العص	-5852
▁وطلب	-5853
▁يبحث	-5854
ولوجية	-5855
▁أعرفه	-5856
▁إنجاز	-5857
▁الإيج	-5858
▁الرصد	-5859
▁الوعي	-5860
▁تنتهي	-5861
▁حالاً	-5862
▁عناصر	-5863
▁لكفالة	-5864
▁الضحايا	-5865
▁التطورات	-5866
▁الحقيقية	-5867
▁السيارات	-5868
▁الاتصالات	-5869
)"	-5870
-4	-5871
73	-5872
oc	-5873
ِي	-5874
خلف	-5875
رجى	-5876
شين	-5877
▁52	-5878
▁53	-5879
▁ht	-5880
▁بث	-5881
سألك	-5882
ستيف	-5883
▁بجد	-5884
▁ثمّ	-5885
▁ديف	-5886
▁سبل	-5887
▁شرق	-5888
▁1995	-5889
▁افتح	-5890
▁الشك	-5891
▁بيئة	-5892
▁تتبع	-5893
▁ماهو	-5894
▁خطيرة	-5895
▁شخصية	-5896
▁لاحقا	-5897
▁معروف	-5898
▁وسائل	-5899
▁ولاحظ	-5900
▁البشري	-5901
▁الصادر	-5902
▁الضمان	-5903
▁القائد	-5904
▁ثانيةً	-5905
▁والمجتمع	-5906
أل	-5907
حك	-5908
زو	-5909
اره	-5910
جمة	-5911
وقت	-5912
▁بِ	-5913
▁صي	-5914
▁فن	-5915
▁مم	-5916
▁ثمن	-5917
▁لتم	-5918
▁لمْ	-5919
▁مور	-5920
▁ورد	-5921
لماذا	-5922
▁تكفل	-5923
▁رأسك	-5924
▁رحلة	-5925
▁فكرت	-5926
▁لعدم	-5927
▁وأود	-5928
▁220)}	-5929
▁العيش	-5930
▁توقفي	-5931
▁فعلها	-5932
▁مشترك	-5933
▁والإن	-5934
▁السلوك	-5935
▁المصدر	-5936
▁رئيسية	-5937
▁الامتثال	-5938
▁المتقدمة	-5939
▁الإسلامية	-5940
ess	-5941
رفي	-5942
زلي	-5943
ماغ	-5944
وند	-5945
▁re	-5946
▁سف	-5947
دافع	-5948
رينا	-5949
قتضى	-5950
هادة	-5951
واغل	-5952
▁تول	-5953
rabic	-5954
ائرات	-5955
ختلفة	-5956
▁إذًا	-5957
▁انتم	-5958
▁انتِ	-5959
▁بقوة	-5960
▁تشري	-5961
▁يرغب	-5962
▁أمانة	-5963
▁الشكل	-5964
▁كوريا	-5965
▁مازال	-5966
▁معقول	-5967
▁مقترح	-5968
رائيلية	-5969
▁الطابق	-5970
▁الكبرى	-5971
▁أتعلمين	-5972
▁السفينة	-5973
▁السنوية	-5974
▁الميلاد	-5975
▁دولارات	-5976
▁لمعالجة	-5977
▁والخدمات	-5978
▁يُمْكِنُ	-5979
▁والمؤسسات	-5980
le	-5981
بلي	-5982
طبع	-5983
ظيف	-5984
عاً	-5985
ونُ	-5986
▁إص	-5987
▁خص	-5988
▁رق	-5989
▁غي	-5990
ight	-5991
امين	-5992
جاعة	-5993
حاطة	-5994
ساءل	-5995
شاور	-5996
هناك	-5997
وندي	-5998
يكية	-5999
▁دال	-6000
▁سَأ	-6001
▁طيب	-6002
▁فان	-6003
▁هذة	-6004
▁يظن	-6005
▁تلقي	-6006
▁حادث	-6007
▁شأنه	-6008
▁قائد	-6009
▁قابل	-6010
▁مؤقت	-6011
▁ماري	-6012
▁ورغم	-6013
▁الخلف	-6014
▁الشاب	-6015
▁العلم	-6016
▁تتوقف	-6017
▁تنتظر	-6018
▁توزيع	-6019
▁كبيرا	-6020
▁أخيراً	-6021
▁ارتفاع	-6022
▁الأرجح	-6023
▁الأزمة	-6024
▁البريد	-6025
▁اللجوء	-6026
▁للطاقة	-6027
▁الإنجاز	-6028
▁الكاملة	-6029
▁الملكية	-6030
▁الاقتضاء	-6031
▁المساهمة	-6032
▁الإسرائيلية	-6033
ـ)	-6034
حول	-6035
ذان	-6036
وعي	-6037
▁49	-6038
▁جس	-6039
سائط	-6040
▁500	-6041
▁أوا	-6042
▁ساح	-6043
▁معت	-6044
▁ونظ	-6045
▁يخت	-6046
ـــــ	-6047
▁أدخل	-6048
▁الاب	-6049
▁خاطئ	-6050
▁شعبة	-6051
▁معنى	-6052
▁نعمل	-6053
▁يهتم	-6054
فاقيات	-6055
▁بأنّك	-6056
▁ببيان	-6057
▁تراجع	-6058
▁عنوان	-6059
▁مثلما	-6060
▁المعهد	-6061
▁الواجب	-6062
▁والعمل	-6063
▁العناصر	-6064
▁للتعاون	-6065
▁المبادرات	-6066
▁الانتقالية	-6067
ُد	-6068
امن	-6069
بوب	-6070
جيب	-6071
سيس	-6072
فيت	-6073
▁غل	-6074
فيدة	-6075
لتقي	-6076
وظيف	-6077
▁لكَ	-6078
▁ليل	-6079
اميرا	-6080
▁ابدا	-6081
▁الفت	-6082
▁شريك	-6083
▁قدره	-6084
▁ورقة	-6085
▁المرج	-6086
▁النفس	-6087
▁سياسة	-6088
▁الاستع	-6089
▁الخصوص	-6090
▁العمال	-6091
▁متعددة	-6092
▁التصديق	-6093
▁العلاقة	-6094
▁تستطيعين	-6095
▁باعتبارها	-6096
اا	-6097
ُم	-6098
/57	-6099
ial	-6100
أنه	-6101
الص	-6102
تون	-6103
قبض	-6104
لهي	-6105
وكس	-6106
▁از	-6107
بقية	-6108
▁أري	-6109
▁امر	-6110
▁تفض	-6111
▁قرر	-6112
▁مطل	-6113
فايات	-6114
قاليم	-6115
▁البط	-6116
▁الحم	-6117
▁القض	-6118
▁تسأل	-6119
▁معكِ	-6120
▁يديك	-6121
▁يوما	-6122
▁أجهزة	-6123
▁إنقاذ	-6124
▁القبض	-6125
▁المنق	-6126
▁تحدثت	-6127
▁دائرة	-6128
▁لطيفة	-6129
▁مايكل	-6130
▁متزوج	-6131
▁مصادر	-6132
▁العميل	-6133
▁يكونوا	-6134
▁المطلوب	-6135
▁الإجمالي	-6136
▁العنصرية	-6137
▁بالنيابة	-6138
▁الإسرائيلي	-6139
بني	-6140
▁صن	-6141
رائب	-6142
شارد	-6143
قدام	-6144
▁بوس	-6145
▁خبر	-6146
▁سيس	-6147
▁صدق	-6148
▁أنكم	-6149
▁إنّي	-6150
▁الحص	-6151
▁الشئ	-6152
▁دعوة	-6153
▁زواج	-6154
▁يحمل	-6155
فريقيا	-6156
▁إنهاء	-6157
▁الفرا	-6158
▁الملف	-6159
▁تعليم	-6160
▁دعينا	-6161
▁مشغول	-6162
▁منزلي	-6163
▁يبدوا	-6164
▁الدوري	-6165
▁الهجرة	-6166
▁للأمين	-6167
▁الجامعة	-6168
▁الجماعة	-6169
▁المتوقع	-6170
▁بالتزام	-6171
▁بالداخل	-6172
▁المتخصصة	-6173
▁اليونيسيف	-6174
قض	-6175
ect	-6176
لوس	-6177
مرض	-6178
هدد	-6179
هيت	-6180
▁51	-6181
▁فظ	-6182
▁هد	-6183
قترب	-6184
لكية	-6185
وغوس	-6186
▁دار	-6187
▁لرؤ	-6188
جتماع	-6189
طالما	-6190
واندا	-6191
▁الري	-6192
▁الفع	-6193
▁شراب	-6194
▁أخبار	-6195
▁الإعت	-6196
▁السفر	-6197
▁الشيط	-6198
▁بقرار	-6199
▁بمجرد	-6200
▁فرانك	-6201
▁لأننا	-6202
▁لكننا	-6203
▁معذرة	-6204
ational	-6205
▁الأصول	-6206
▁القبيل	-6207
▁المساء	-6208
▁للدولة	-6209
▁لمؤتمر	-6210
▁مبادرة	-6211
▁البارحة	-6212
▁الجوانب	-6213
▁المتخذة	-6214
▁المكاتب	-6215
/9	-6216
رث	-6217
زى	-6218
and	-6219
أول	-6220
جول	-6221
زاز	-6222
سته	-6223
سفة	-6224
شاف	-6225
لعب	-6226
يسَ	-6227
▁44	-6228
▁5-	-6229
▁سع	-6230
▁قف	-6231
جلوس	-6232
وحيد	-6233
▁خفض	-6234
▁فحص	-6235
▁لعب	-6236
▁وقع	-6237
طلبات	-6238
ولاية	-6239
▁أنشط	-6240
▁الجو	-6241
▁تموت	-6242
▁كلنا	-6243
▁كوني	-6244
▁وظيف	-6245
▁النظم	-6246
▁قادرة	-6247
▁ينتظر	-6248
▁الضحية	-6249
▁الطبية	-6250
▁اللجان	-6251
▁مقارنة	-6252
▁التأكيد	-6253
▁التخطيط	-6254
▁الشعبية	-6255
▁بروتوكول	-6256
▁الفلسطينيين	-6257
oo	-6258
نق	-6259
art	-6260
شئة	-6261
شيل	-6262
قيد	-6263
هيب	-6264
وست	-6265
▁61	-6266
▁يط	-6267
رامة	-6268
فتاة	-6269
مايك	-6270
▁أهل	-6271
▁اظن	-6272
▁سحب	-6273
▁لأج	-6274
▁ملت	-6275
▁ممن	-6276
▁أترى	-6277
▁أوقف	-6278
▁إسمع	-6279
▁بقية	-6280
▁تأخر	-6281
▁جملة	-6282
▁عملك	-6283
▁قبيل	-6284
▁كُنْ	-6285
▁هراء	-6286
▁ودعم	-6287
▁يدخل	-6288
راتيجي	-6289
▁أتفهم	-6290
▁تتطلب	-6291
▁ميثاق	-6292
▁نموذج	-6293
▁اقتصاد	-6294
▁البحار	-6295
▁الحفلة	-6296
▁السريع	-6297
▁الوفاء	-6298
بروتوكول	-6299
▁الأسواق	-6300
▁الابتدا	-6301
▁السامية	-6302
▁تقريرها	-6303
▁الأصليين	-6304
▁الاعتراف	-6305
▁الكاريبي	-6306
▁المختلفة	-6307
▁المشروعة	-6308
▁استراتيجيات	-6309
ia	-6310
شب	-6311
حته	-6312
عاف	-6313
مرك	-6314
هير	-6315
▁قي	-6316
كانت	-6317
ماني	-6318
وائد	-6319
▁ابق	-6320
▁انع	-6321
▁ذوي	-6322
▁قمة	-6323
▁مصر	-6324
باراة	-6325
ديلات	-6326
كومات	-6327
واصلة	-6328
▁أرغب	-6329
▁أمكن	-6330
▁الأق	-6331
▁الال	-6332
▁الخل	-6333
▁تبين	-6334
▁تدرك	-6335
▁شراء	-6336
▁القصة	-6337
▁بطاقة	-6338
▁خطوات	-6339
وغوسلاف	-6340
▁اتفقنا	-6341
▁الجوية	-6342
▁الشبكة	-6343
▁القطري	-6344
▁المطاف	-6345
▁لتحسين	-6346
▁وداعاً	-6347
▁المانحة	-6348
▁المبادرة	-6349
▁التشريعات	-6350
▁المشاورات	-6351
st	-6352
خمة	-6353
ران	-6354
سنى	-6355
نتك	-6356
يفر	-6357
▁نع	-6358
ؤولة	-6359
قلية	-6360
وصول	-6361
▁بتس	-6362
▁جاد	-6363
▁جزر	-6364
▁حتي	-6365
▁شاب	-6366
▁مقا	-6367
▁ومج	-6368
▁الرد	-6369
▁السّ	-6370
▁تمام	-6371
▁شامل	-6372
▁قوله	-6373
▁مايك	-6374
▁مثلي	-6375
▁مقرر	-6376
سبانية	-6377
▁أنظري	-6378
▁السري	-6379
▁اللعب	-6380
▁ستذهب	-6381
▁سلسلة	-6382
▁مثيرة	-6383
▁اللغات	-6384
▁المباشر	-6385
▁قانونية	-6386
▁الدبلوما	-6387
▁الصناعية	-6388
20	-6389
ذات	-6390
وكا	-6391
▁كش	-6392
▁قيم	-6393
▁للآ	-6394
كاملة	-6395
▁اسمك	-6396
▁الإش	-6397
▁دولي	-6398
▁سبعة	-6399
▁سلام	-6400
▁لشخص	-6401
▁لفعل	-6402
▁موظف	-6403
▁وأخي	-6404
▁أستطع	-6405
▁أفعله	-6406
▁استمر	-6407
▁الصيد	-6408
▁تمييز	-6409
▁رجلاً	-6410
▁سنذهب	-6411
▁ممثلي	-6412
▁والان	-6413
▁أنفسهم	-6414
▁الصكوك	-6415
▁الهجوم	-6416
▁مستعدة	-6417
▁واحداً	-6418
▁وزيادة	-6419
▁التنظيمية	-6420
ئن	-6421
قُ	-6422
نج	-6423
ائز	-6424
ادث	-6425
باس	-6426
ثقة	-6427
نها	-6428
يرك	-6429
▁آي	-6430
اتيح	-6431
يمكن	-6432
▁توم	-6433
▁ذاه	-6434
▁قصد	-6435
▁لمج	-6436
واجهة	-6437
ومبيا	-6438
▁انتي	-6439
▁دخول	-6440
▁زوجي	-6441
▁شرطي	-6442
▁للمع	-6443
▁ملمو	-6444
القرار	-6445
فرنسية	-6446
▁آخرين	-6447
▁اسمعي	-6448
▁الخطر	-6449
▁الرأي	-6450
▁بماذا	-6451
▁تتحرك	-6452
▁تحويل	-6453
▁رؤيتك	-6454
▁قصيرة	-6455
▁للأبد	-6456
▁يجعلك	-6457
▁الديون	-6458
▁الفيدر	-6459
▁الإبلاغ	-6460
▁الإتصال	-6461
▁الحكومي	-6462
▁المنتدى	-6463
▁بأكملها	-6464
▁الختامية	-6465
▁سيراليون	-6466
▁الإرهابية	-6467
▁المهاجرين	-6468
tp	-6469
َي	-6470
ity	-6471
ذنب	-6472
طاف	-6473
نظر	-6474
نيل	-6475
وضة	-6476
ياح	-6477
▁6-	-6478
▁80	-6479
▁90	-6480
افية	-6481
حتها	-6482
زواج	-6483
قتين	-6484
هلاك	-6485
وابط	-6486
وسنة	-6487
وضوح	-6488
▁أدى	-6489
▁أضع	-6490
▁بند	-6491
▁تخت	-6492
▁تعب	-6493
▁عمو	-6494
كتشاف	-6495
▁أخشى	-6496
▁الجغ	-6497
▁الطب	-6498
▁تؤثر	-6499
▁خصوص	-6500
▁داني	-6501
▁دخلت	-6502
▁سراح	-6503
▁ظروف	-6504
▁كندا	-6505
▁ملاب	-6506
▁مهام	-6507
▁وإلا	-6508
▁يجدر	-6509
▁يقود	-6510
ations	-6511
▁إضافي	-6512
▁القدم	-6513
▁الوغد	-6514
▁دوماً	-6515
▁صياغة	-6516
▁غريبة	-6517
▁مؤسسة	-6518
▁نعتقد	-6519
▁ووفقا	-6520
ريتشارد	-6521
▁الأدنى	-6522
▁الحرية	-6523
▁الحمام	-6524
▁القتال	-6525
▁القيود	-6526
▁المقبل	-6527
▁للقضاء	-6528
▁مرحبًا	-6529
▁الإعدام	-6530
▁بالحقوق	-6531
▁التبرعات	-6532
th	-6533
َن	-6534
▁k	-6535
/10	-6536
/13	-6537
حقة	-6538
دري	-6539
دعو	-6540
دعي	-6541
ديا	-6542
لمس	-6543
مول	-6544
▁47	-6545
▁77	-6546
ابقة	-6547
بيعة	-6548
تاحة	-6549
ذْهب	-6550
واري	-6551
ينها	-6552
▁بطا	-6553
▁حدة	-6554
▁دوا	-6555
▁روز	-6556
▁صار	-6557
▁فلم	-6558
▁ونا	-6559
▁ويد	-6560
▁ينص	-6561
▁آراء	-6562
▁أداة	-6563
▁تقلي	-6564
▁توصي	-6565
▁سيّد	-6566
▁شروط	-6567
▁لحفظ	-6568
▁مارك	-6569
▁مالي	-6570
▁مسار	-6571
▁أسئلة	-6572
▁اتخذت	-6573
▁الأمل	-6574
▁الخمس	-6575
▁بمكان	-6576
▁تسليم	-6577
▁تيسير	-6578
▁ذاتها	-6579
▁مجتمع	-6580
▁البناء	-6581
▁الهامة	-6582
▁وأعتقد	-6583
▁أصدقائي	-6584
▁التشغيل	-6585
▁الجارية	-6586
▁المشورة	-6587
▁والستين	-6588
▁الإضافية	-6589
▁الثانوية	-6590
▁المعاملة	-6591
▁المواضيع	-6592
اغ	-6593
/56	-6594
رقص	-6595
سلم	-6596
قدت	-6597
قيل	-6598
كور	-6599
وره	-6600
▁70	-6601
▁96	-6602
بعاً	-6603
تملة	-6604
ظاهر	-6605
فقود	-6606
▁أتت	-6607
▁أطل	-6608
▁دان	-6609
▁طرق	-6610
▁غال	-6611
▁يجد	-6612
▁يود	-6613
مايكل	-6614
مرحبا	-6615
▁أجلك	-6616
▁الاس	-6617
▁بدلا	-6618
▁تنفي	-6619
▁جزءا	-6620
▁عضوا	-6621
▁غادر	-6622
▁لكنّ	-6623
▁نادي	-6624
▁نساء	-6625
▁واقع	-6626
▁وبعض	-6627
▁إشارة	-6628
▁بالمن	-6629
▁تتكلم	-6630
▁جوانب	-6631
▁شيئًا	-6632
▁طائرة	-6633
▁عالية	-6634
▁وجدنا	-6635
▁الأدلة	-6636
▁الأسود	-6637
▁الأعلى	-6638
▁السماح	-6639
▁الكهرب	-6640
▁النقود	-6641
▁النهوض	-6642
▁بالنظر	-6643
▁ومنظمة	-6644
▁ألمانيا	-6645
▁التجاري	-6646
▁الحادية	-6647
▁العاشرة	-6648
▁المدرجة	-6649
▁المطالبات	-6650
//	-6651
ag	-6652
ائب	-6653
بوس	-6654
حتك	-6655
فصل	-6656
خدمت	-6657
خرين	-6658
غاثة	-6659
وناً	-6660
▁خلق	-6661
▁ستم	-6662
▁عاج	-6663
▁وأُ	-6664
▁ومؤ	-6665
صالحة	-6666
لاثين	-6667
▁أغلب	-6668
▁أقصى	-6669
▁النف	-6670
▁قبول	-6671
▁ماتت	-6672
▁مرّة	-6673
ستطيعُ	-6674
▁أمراً	-6675
▁أنتما	-6676
▁إقرار	-6677
▁المبذ	-6678
▁سنتين	-6679
▁صديقك	-6680
▁قريبا	-6681
▁وأنتِ	-6682
▁(2001)	-6683
▁الفندق	-6684
▁الموقف	-6685
▁جهودها	-6686
▁حسابات	-6687
▁للبيئة	-6688
▁يعرفون	-6689
▁الأسماك	-6690
▁الجزيرة	-6691
▁اللعينة	-6692
▁بالقرار	-6693
▁الدراسية	-6694
▁المركزية	-6695
▁والأطفال	-6696
▁بالمناسبة	-6697
▁الإلكتروني	-6698
▁والإقليمية	-6699
CO	-6700
عله	-6701
ميص	-6702
هنا	-6703
يره	-6704
▁it	-6705
ربون	-6706
شكلة	-6707
ياكل	-6708
▁إحت	-6709
▁خير	-6710
▁سيئ	-6711
▁معى	-6712
▁وشر	-6713
▁وهل	-6714
▁يقع	-6715
حيانا	-6716
لامات	-6717
▁أختي	-6718
▁اذاً	-6719
▁الأض	-6720
▁عندك	-6721
▁نحصل	-6722
▁نظرا	-6723
▁ومنذ	-6724
تشارلي	-6725
▁الفرد	-6726
▁الكلب	-6727
▁صعوبة	-6728
▁طريقي	-6729
▁قائلا	-6730
▁والسل	-6731
▁الأكبر	-6732
▁الامور	-6733
▁السرعة	-6734
▁المدعي	-6735
▁المهام	-6736
▁للمادة	-6737
▁الأغذية	-6738
▁الكلمات	-6739
▁بالمرأة	-6740
▁المعتمدة	-6741
▁واستخدام	-6742
دَ	-6743
هش	-6744
▁V	-6745
://	-6746
لاس	-6747
نته	-6748
ادثة	-6749
جنوب	-6750
جورج	-6751
حيات	-6752
خطيط	-6753
رمين	-6754
▁بمث	-6755
▁تسل	-6756
▁سمع	-6757
▁سوق	-6758
▁سَي	-6759
▁كُل	-6760
▁ودا	-6761
▁يأت	-6762
جلسات	-6763
حادية	-6764
خابية	-6765
ساواة	-6766
فرانك	-6767
▁اليد	-6768
▁بانت	-6769
▁تشجع	-6770
▁تولي	-6771
▁كنتم	-6772
▁هدية	-6773
▁وقوع	-6774
▁قليلة	-6775
▁قيادة	-6776
▁للمست	-6777
▁مدرسة	-6778
▁واسعة	-6779
▁والهر	-6780
▁الجمعة	-6781
▁الجيدة	-6782
▁الدماء	-6783
▁المبدأ	-6784
▁المعيش	-6785
▁النجاح	-6786
▁بمقتضى	-6787
▁وإدارة	-6788
▁وتحسين	-6789
▁اتفاقات	-6790
▁التسجيل	-6791
▁الشيطان	-6792
▁المعذرة	-6793
▁للمحكمة	-6794
▁لمساعدة	-6795
▁المناقشات	-6796
▁الموضوعية	-6797
30	-6798
سخ	-6799
راط	-6800
شكل	-6801
فقط	-6802
نيه	-6803
أيها	-6804
بادة	-6805
زمات	-6806
صبحت	-6807
▁300	-6808
▁أسر	-6809
▁باه	-6810
▁بتع	-6811
▁بطل	-6812
▁تبر	-6813
▁تحد	-6814
▁طبق	-6815
▁عقب	-6816
▁كتب	-6817
▁للغ	-6818
▁محب	-6819
▁يمر	-6820
ارفور	-6821
املات	-6822
▁تعرب	-6823
▁حقيق	-6824
▁كنتَ	-6825
▁ومست	-6826
▁يؤكد	-6827
▁اثنان	-6828
▁الجام	-6829
▁الحاس	-6830
▁الذكر	-6831
▁العظم	-6832
▁بداخل	-6833
▁بمفرد	-6834
▁تركيز	-6835
▁تعرفي	-6836
▁رئيسي	-6837
▁لديكم	-6838
▁للنظر	-6839
▁لَيسَ	-6840
▁مكانك	-6841
▁يواجه	-6842
▁السادس	-6843
▁الطويل	-6844
▁الفكرة	-6845
▁الانتظار	-6846
▁البرلمان	-6847
▁المبذولة	-6848
▁المطلوبة	-6849
▁انتهاكات	-6850
ِر	-6851
ِه	-6852
الق	-6853
توم	-6854
راث	-6855
ناة	-6856
ُني	-6857
▁''	-6858
ابتة	-6859
خفيف	-6860
▁تخط	-6861
▁كلب	-6862
▁كوب	-6863
▁هرب	-6864
قارنة	-6865
وكالة	-6866
▁أوجه	-6867
▁الحض	-6868
▁بفعل	-6869
▁تقبل	-6870
▁عامل	-6871
▁قاعة	-6872
▁كوبا	-6873
▁موجز	-6874
▁والط	-6875
▁يدعو	-6876
▁أساسي	-6877
▁ابنتي	-6878
▁استمع	-6879
▁بوضوح	-6880
▁تخطيط	-6881
▁تصميم	-6882
▁تعالى	-6883
▁تعاني	-6884
▁حياته	-6885
▁طبيعي	-6886
▁قادمة	-6887
▁قاموا	-6888
▁نحاول	-6889
▁أتعتقد	-6890
▁الأحمق	-6891
▁قانوني	-6892
▁وكالات	-6893
▁الصادرة	-6894
▁المراقب	-6895
▁الضرورية	-6896
▁النهائية	-6897
▁التكنولوج	-6898
▁والاقتصادية	-6899
40	-6900
شط	-6901
ِك	-6902
اعه	-6903
حاط	-6904
روز	-6905
لاج	-6906
يفا	-6907
▁خز	-6908
▁لث	-6909
اريا	-6910
ثقيف	-6911
ساءة	-6912
لاعب	-6913
نبلة	-6914
وضيح	-6915
ولكن	-6916
يتنا	-6917
▁هيل	-6918
▁أحرز	-6919
▁الزي	-6920
▁تبقي	-6921
▁تحيط	-6922
▁تزوج	-6923
▁تلعب	-6924
▁نبحث	-6925
▁وجهي	-6926
▁وقبل	-6927
▁يطلق	-6928
▁اتصلت	-6929
▁الحجم	-6930
▁الوجه	-6931
▁تتمكن	-6932
▁تصويت	-6933
▁حلقات	-6934
▁لمعرف	-6935
▁الجهاز	-6936
▁الشمال	-6937
▁لمنظمة	-6938
▁ولكننا	-6939
▁الأجنبي	-6940
▁الشاملة	-6941
▁العلمية	-6942
AC	-6943
زق	-6944
ضت	-6945
بدء	-6946
ترك	-6947
رقة	-6948
سرت	-6949
سكي	-6950
قلب	-6951
منة	-6952
▁62	-6953
▁Un	-6954
▁wh	-6955
▁ذك	-6956
ضادة	-6957
وقين	-6958
يروس	-6959
▁تدع	-6960
▁تظل	-6961
▁تقا	-6962
▁خذي	-6963
▁فرد	-6964
▁موس	-6965
▁وبم	-6966
▁يرد	-6967
▁أمسك	-6968
▁الإف	-6969
▁الفض	-6970
▁تعقد	-6971
▁فجأة	-6972
▁فلسط	-6973
▁فيهم	-6974
▁لأنّ	-6975
▁مرور	-6976
▁منكِ	-6977
▁وكنت	-6978
▁ويتم	-6979
▁أحضرت	-6980
▁أساسا	-6981
▁إمرأة	-6982
▁المطر	-6983
▁تحبين	-6984
▁تشارك	-6985
▁جلسات	-6986
▁خائفة	-6987
▁طلبات	-6988
▁لبناء	-6989
▁مرتين	-6990
▁مغلقة	-6991
▁واحده	-6992
▁وحقوق	-6993
▁انظروا	-6994
▁بالكاد	-6995
▁بمثابة	-6996
▁تتناول	-6997
▁الأحوال	-6998
▁الاثنين	-6999
▁الرئيسة	-7000
▁الشركاء	-7001
▁العاهرة	-7002
▁العشرين	-7003
▁العولمة	-7004
▁الكنيسة	-7005
▁المصلحة	-7006
▁للأسلحة	-7007
▁للمؤتمر	-7008
▁الجماعات	-7009
▁الموسيقى	-7010
▁والميزانية	-7011
ex	-7012
شق	-7013
وو	-7014
/62	-7015
اتم	-7016
افل	-7017
الش	-7018
جبة	-7019
فاه	-7020
يدي	-7021
▁سج	-7022
افظة	-7023
بريا	-7024
ستطا	-7025
وارع	-7026
وقعة	-7027
يسيا	-7028
▁بضع	-7029
▁جهد	-7030
▁ليش	-7031
▁يعط	-7032
كتشفت	-7033
وطنات	-7034
ولوجي	-7035
▁أهلا	-7036
▁أياً	-7037
▁الهد	-7038
▁بصفت	-7039
▁نخرج	-7040
▁وجهة	-7041
يرلندا	-7042
▁الخوف	-7043
▁الكرة	-7044
▁بأنّه	-7045
▁بمبلغ	-7046
▁تقلقي	-7047
▁توسيع	-7048
▁كلمات	-7049
▁منزلك	-7050
▁والمج	-7051
▁التحقق	-7052
▁الحفاظ	-7053
▁الدرجة	-7054
▁الهراء	-7055
▁انتهاك	-7056
▁التهديد	-7057
▁المكسيك	-7058
▁النفقات	-7059
▁والهرسك	-7060
▁المحاكمة	-7061
▁والعدالة	-7062
▁الاستفادة	-7063
▁الحيوانات	-7064
ternational	-7065
▁الإلكترونية	-7066
12	-7067
أر	-7068
بئ	-7069
www	-7070
ثلج	-7071
سور	-7072
سيل	-7073
عدا	-7074
متك	-7075
ورط	-7076
▁بى	-7077
انين	-7078
رافق	-7079
رقية	-7080
شياء	-7081
لفزي	-7082
نيين	-7083
▁أثق	-7084
▁بوب	-7085
▁كاب	-7086
▁لحم	-7087
▁نتح	-7088
▁وعم	-7089
سنوات	-7090
طاليا	-7091
فيروس	-7092
ناقشة	-7093
▁الطي	-7094
▁اليك	-7095
▁بدعم	-7096
▁بسيط	-7097
▁تأكل	-7098
▁تقاب	-7099
▁تقود	-7100
▁جعلت	-7101
▁زوجة	-7102
▁فسوف	-7103
▁لأحد	-7104
▁نبدأ	-7105
▁والز	-7106
▁وعند	-7107
▁ويست	-7108
سياسات	-7109
▁أولاد	-7110
▁العاص	-7111
▁بعضهم	-7112
▁بوجود	-7113
▁خبراء	-7114
▁سأقول	-7115
▁الجلوس	-7116
▁العقود	-7117
▁الغذاء	-7118
▁انخفاض	-7119
▁جزيلاً	-7120
▁سابقاً	-7121
▁لإعادة	-7122
▁للدورة	-7123
▁وبرامج	-7124
▁وتوفير	-7125
▁الإجراء	-7126
▁ميزانية	-7127
▁والتدريب	-7128
▁الاتحادية	-7129
▁المجموعات	-7130
AR	-7131
ct	-7132
▁\	-7133
ؤدي	-7134
شرح	-7135
فجر	-7136
ليت	-7137
ليف	-7138
ميس	-7139
وجي	-7140
▁خر	-7141
التي	-7142
رتين	-7143
ريبي	-7144
شاكل	-7145
شرون	-7146
كلّم	-7147
ندات	-7148
وقيت	-7149
▁(1)	-7150
▁أصد	-7151
▁تضم	-7152
▁سرق	-7153
▁شرط	-7154
▁كوت	-7155
▁مقت	-7156
▁نصي	-7157
▁واق	-7158
▁آلاف	-7159
▁أطول	-7160
▁أمير	-7161
▁تحدد	-7162
▁تركز	-7163
▁رأسي	-7164
▁علاج	-7165
▁هوية	-7166
▁اسمها	-7167
▁الضغط	-7168
▁المرش	-7169
▁المقا	-7170
▁تريده	-7171
▁تشكيل	-7172
▁مفتوح	-7173
نيويورك	-7174
▁Arabic	-7175
▁بشأنها	-7176
▁تقريره	-7177
▁دارفور	-7178
▁لطالما	-7179
▁استنادا	-7180
▁التفاوض	-7181
▁الجمهور	-7182
▁السلمية	-7183
▁الطرفين	-7184
▁الطيران	-7185
▁الإسلامي	-7186
▁الجماعية	-7187
▁والبرامج	-7188
▁التحقيقات	-7189
سْ	-7190
ئيا	-7191
قصى	-7192
وهم	-7193
ينو	-7194
يوم	-7195
▁63	-7196
▁جه	-7197
ادات	-7198
درسة	-7199
رافي	-7200
ركات	-7201
قليل	-7202
لادي	-7203
والت	-7204
مرحلة	-7205
▁أقوى	-7206
▁إنما	-7207
▁السج	-7208
▁القس	-7209
▁تدعم	-7210
▁طيلة	-7211
▁كنّا	-7212
▁معكم	-7213
▁مواد	-7214
▁ولدي	-7215
▁يبقى	-7216
▁يرجى	-7217
▁أحسنت	-7218
▁أقوله	-7219
▁الخبر	-7220
▁القمر	-7221
▁تعريف	-7222
▁جاهزة	-7223
▁جماعة	-7224
▁لكنهم	-7225
▁ليسوا	-7226
▁الحركة	-7227
▁السرير	-7228
▁المبنى	-7229
▁المفوض	-7230
▁ساعدني	-7231
▁مستقلة	-7232
▁والمست	-7233
▁استعداد	-7234
▁المستقلة	-7235
▁المستويات	-7236
\3	-7237
ie	-7238
ub	-7239
خو	-7240
/61	-7241
أيت	-7242
الى	-7243
ثرة	-7244
ُها	-7245
ّات	-7246
▁de	-7247
▁كف	-7248
▁نب	-7249
ادرت	-7250
رائق	-7251
شارل	-7252
ليمة	-7253
واقب	-7254
ونيل	-7255
ينني	-7256
▁لوح	-7257
أعتقد	-7258
غتصاب	-7259
▁2010	-7260
▁تفقد	-7261
▁عقدت	-7262
▁كنتي	-7263
▁مارت	-7264
▁يقرر	-7265
▁أسباب	-7266
▁إثنان	-7267
▁الافت	-7268
▁تجربة	-7269
▁تقوله	-7270
▁لربما	-7271
▁لكنّي	-7272
▁متوسط	-7273
▁نمواً	-7274
▁وتشمل	-7275
▁يتوقف	-7276
▁الآنسة	-7277
▁الدعوة	-7278
▁الشديد	-7279
▁العلاج	-7280
▁الغريب	-7281
▁المطبخ	-7282
▁الناتج	-7283
▁عالمية	-7284
▁استجابة	-7285
▁الأسباب	-7286
▁التلفاز	-7287
▁الجميلة	-7288
▁الرسائل	-7289
▁المتعدد	-7290
▁الأجنبية	-7291
▁بالمخدرات	-7292
44	-7293
ـُ	-7294
فج	-7295
مح	-7296
ies	-7297
ثرت	-7298
ريه	-7299
كلف	-7300
▁un	-7301
▁ثق	-7302
▁ذي	-7303
تيري	-7304
دماج	-7305
وائر	-7306
وازن	-7307
▁195	-7308
▁ادع	-7309
▁مَع	-7310
/2000	-7311
▁1990	-7312
▁إنظر	-7313
▁الار	-7314
▁جدًا	-7315
▁حصول	-7316
▁حوار	-7317
▁شارع	-7318
▁وحيد	-7319
بعاثات	-7320
▁أتكلم	-7321
▁انتهت	-7322
▁توقفت	-7323
▁حصلنا	-7324
▁فتيات	-7325
▁ناحية	-7326
▁وإنما	-7327
▁الحلقة	-7328
▁القطار	-7329
▁الكويت	-7330
▁انتخاب	-7331
▁ثمانية	-7332
▁للسلام	-7333
▁مستقبل	-7334
▁والدتك	-7335
▁وسيكون	-7336
▁يمكنهم	-7337
▁الصحراء	-7338
▁الصومال	-7339
▁الناحية	-7340
▁للاتحاد	-7341
وغوسلافيا	-7342
▁والقانون	-7343
▁الترتيبات	-7344
▁الممتلكات	-7345
/60	-7346
ber	-7347
obe	-7348
رّك	-7349
▁نخ	-7350
▁وُ	-7351
ارضة	-7352
ثنان	-7353
عطيك	-7354
قبال	-7355
▁أتى	-7356
▁بام	-7357
▁بوت	-7358
▁تثق	-7359
▁روب	-7360
▁سيُ	-7361
▁ماك	-7362
▁مسم	-7363
▁منش	-7364
▁مول	-7365
▁أبدو	-7366
▁الائ	-7367
▁قلته	-7368
▁قلقة	-7369
▁للتع	-7370
▁نعود	-7371
▁وافق	-7372
▁وكيل	-7373
▁أعتذر	-7374
▁إليهم	-7375
▁إيقاف	-7376
▁اذهبي	-7377
▁الدفع	-7378
▁الغرب	-7379
▁رؤساء	-7380
▁ستقوم	-7381
▁سنقوم	-7382
▁سيّدي	-7383
▁عظيمة	-7384
▁كلانا	-7385
▁لبنان	-7386
▁لرؤية	-7387
▁مباشر	-7388
▁مستقب	-7389
▁يفعله	-7390
▁أيمكنك	-7391
▁الآلية	-7392
▁الرائع	-7393
▁العظيم	-7394
▁العقاب	-7395
▁ببساطة	-7396
▁ومنطقة	-7397
▁أخبرتني	-7398
▁الإداري	-7399
▁التعبير	-7400
▁التفتيش	-7401
▁الغابات	-7402
▁الفاعلة	-7403
▁المركزي	-7404
▁الهياكل	-7405
▁الممارسة	-7406
▁والخمسون	-7407
▁المواطنين	-7408
▁والثلاثين	-7409
▁والسياسية	-7410
أم	-7411
ّث	-7412
اجر	-7413
ربط	-7414
سيط	-7415
غبة	-7416
لأن	-7417
▁St	-7418
▁عي	-7419
قيقه	-7420
كشاف	-7421
لاقة	-7422
وعات	-7423
يسرا	-7424
▁أيا	-7425
▁أَو	-7426
▁إنس	-7427
▁بدي	-7428
▁تلت	-7429
▁سار	-7430
▁عنا	-7431
▁فشل	-7432
▁لوس	-7433
▁هاي	-7434
علمين	-7435
كُونُ	-7436
▁أتظن	-7437
▁أمّي	-7438
▁التك	-7439
▁الرؤ	-7440
▁تزيد	-7441
▁توقع	-7442
▁صالح	-7443
▁عقلي	-7444
▁فندق	-7445
▁لويس	-7446
▁نحنُ	-7447
▁يصدق	-7448
علانات	-7449
▁إحراز	-7450
▁إرسال	-7451
▁إيلاء	-7452
▁القدر	-7453
▁بكامل	-7454
▁تهديد	-7455
▁رعاية	-7456
▁فائدة	-7457
دونيسيا	-7458
▁البحوث	-7459
▁التخلص	-7460
▁المسرح	-7461
▁المصرف	-7462
▁المفضل	-7463
▁بالأمس	-7464
▁حياتنا	-7465
▁ديفوار	-7466
▁كبيراً	-7467
▁للخروج	-7468
التزامات	-7469
▁الأمراض	-7470
▁الطبيعة	-7471
▁المعدات	-7472
▁الموجهة	-7473
▁الناشئة	-7474
▁الزراعية	-7475
▁الفضائية	-7476
▁المطالبة	-7477
▁والحريات	-7478
ap	-7479
آت	-7480
شو	-7481
ذجي	-7482
زاب	-7483
ساط	-7484
عاج	-7485
متي	-7486
نام	-7487
نفس	-7488
هنة	-7489
واح	-7490
▁7-	-7491
▁آل	-7492
fnAd	-7493
رابة	-7494
راعي	-7495
سكين	-7496
ميها	-7497
وماس	-7498
▁أخط	-7499
▁تصد	-7500
▁جار	-7501
▁فاس	-7502
▁فري	-7503
▁ولت	-7504
كالمة	-7505
▁اصدق	-7506
▁الخز	-7507
▁الهر	-7508
▁تسبب	-7509
▁تعيد	-7510
▁شخصا	-7511
▁عفوا	-7512
▁فظيع	-7513
▁لأول	-7514
▁محمد	-7515
▁مقدم	-7516
▁موسي	-7517
▁ميتة	-7518
▁نقود	-7519
سؤولية	-7520
▁أراضي	-7521
▁ارجوك	-7522
▁الرأس	-7523
▁باريس	-7524
▁سيقوم	-7525
▁للخطر	-7526
▁يتمكن	-7527
fnAdobe	-7528
▁السابع	-7529
▁الصفحة	-7530
▁العجوز	-7531
▁العظمى	-7532
▁القومي	-7533
▁بتعزيز	-7534
▁دراسية	-7535
▁لعملية	-7536
▁لمعرفة	-7537
▁وأعربت	-7538
▁والأرب	-7539
▁ونتيجة	-7540
▁يجعلني	-7541
▁الأفكار	-7542
▁الأولية	-7543
▁التعويض	-7544
▁تنفيذها	-7545
▁الانتقال	-7546
▁الجنساني	-7547
▁الساحلية	-7548
▁وجمهورية	-7549
▁الاستخدام	-7550
▁والتكنولوجيا	-7551
ak	-7552
ll	-7553
جأ	-7554
يغ	-7555
حام	-7556
صور	-7557
ميك	-7558
▁كع	-7559
▁نه	-7560
تابع	-7561
ديان	-7562
راحل	-7563
طالب	-7564
نسبة	-7565
▁آتي	-7566
▁ارى	-7567
▁اكن	-7568
▁جهة	-7569
▁جيش	-7570
▁قيا	-7571
▁مكر	-7572
▁وتق	-7573
▁وفض	-7574
ذْهبُ	-7575
رامية	-7576
▁1994	-7577
▁اردت	-7578
▁اننى	-7579
▁بإست	-7580
▁تايل	-7581
▁تدرج	-7582
▁تسير	-7583
▁خلاف	-7584
▁شهور	-7585
▁صفقة	-7586
▁لندن	-7587
▁معجب	-7588
▁وتست	-7589
▁يدعى	-7590
مقراطي	-7591
▁أريده	-7592
▁إلينا	-7593
▁الحزب	-7594
▁القيا	-7595
▁حالما	-7596
▁رائحة	-7597
▁غينيا	-7598
▁قابلت	-7599
▁وأنها	-7600
▁والشر	-7601
▁ويجري	-7602
▁الحاضر	-7603
▁بتقرير	-7604
▁لتحديد	-7605
▁الإمكان	-7606
▁الجلسات	-7607
▁الأمريكي	-7608
▁الانضمام	-7609
▁التزامات	-7610
▁المنافسة	-7611
▁الاستجابة	-7612
(1	-7613
أخ	-7614
خن	-7615
َ؟	-7616
est	-7617
omm	-7618
orr	-7619
ؤيد	-7620
إذن	-7621
روة	-7622
سكو	-7623
شون	-7624
عدت	-7625
ملت	-7626
ّرت	-7627
▁بآ	-7628
رادة	-7629
عتين	-7630
ويلة	-7631
▁أرت	-7632
▁أعل	-7633
▁تذك	-7634
▁تفك	-7635
▁حري	-7636
▁حوا	-7637
▁خطي	-7638
▁ضعف	-7639
▁لشر	-7640
▁لكى	-7641
▁مبر	-7642
▁مرب	-7643
▁مفر	-7644
▁وفر	-7645
رازيل	-7646
▁استم	-7647
▁اعني	-7648
▁صعبة	-7649
▁عادي	-7650
▁مذهل	-7651
▁مسرح	-7652
▁يشبه	-7653
▁الكتب	-7654
▁اللغة	-7655
▁النصف	-7656
▁بأمان	-7657
▁تظنين	-7658
▁للانت	-7659
▁وافقت	-7660
▁الأولي	-7661
▁التصرف	-7662
▁الرفيع	-7663
▁الفيلم	-7664
▁عائلتي	-7665
▁عِنْدَ	-7666
▁للنساء	-7667
▁مفتوحة	-7668
▁مقاطعة	-7669
▁والسيد	-7670
▁الفعلية	-7671
▁المعرفة	-7672
▁الميثاق	-7673
▁تتحدثين	-7674
▁الأقاليم	-7675
▁الاستشاري	-7676
▁التشريعية	-7677
ee	-7678
َع	-7679
انغ	-7680
سفر	-7681
غلق	-7682
قرة	-7683
هرة	-7684
▁سح	-7685
▁طر	-7686
اناة	-7687
شنطن	-7688
عاقة	-7689
ميات	-7690
هنري	-7691
وياً	-7692
▁par	-7693
▁أذن	-7694
▁صغي	-7695
▁ضغط	-7696
▁عدي	-7697
▁فيل	-7698
▁لام	-7699
▁مبك	-7700
▁مزي	-7701
▁منى	-7702
▁ويم	-7703
زاءات	-7704
▁أثبت	-7705
▁إنهُ	-7706
▁الأز	-7707
▁تحضر	-7708
▁تسعة	-7709
▁تكذب	-7710
▁ثاني	-7711
▁خطاب	-7712
▁خطير	-7713
▁رسمي	-7714
▁عددا	-7715
▁لعين	-7716
▁لنرى	-7717
▁أخبرت	-7718
▁الأثر	-7719
▁الحضر	-7720
▁الذهب	-7721
▁توقيع	-7722
▁قراءة	-7723
▁لقرار	-7724
▁لنفسك	-7725
▁نفعله	-7726
▁يومين	-7727
▁التدخل	-7728
▁الفئات	-7729
▁المقام	-7730
▁تفاصيل	-7731
▁فعلتها	-7732
▁للتصدي	-7733
▁ولماذا	-7734
▁بوروندي	-7735
▁للموظفين	-7736
▁والاتحاد	-7737
▁والتعليم	-7738
▁والتمييز	-7739
--	-7740
حث	-7741
▁u	-7742
/63	-7743
ant	-7744
ill	-7745
أكل	-7746
ئول	-7747
بتي	-7748
قبة	-7749
لهى	-7750
وفا	-7751
ّين	-7752
▁شم	-7753
اليا	-7754
انها	-7755
وائح	-7756
ويين	-7757
▁أدت	-7758
▁حلم	-7759
▁سما	-7760
▁صدر	-7761
▁فما	-7762
▁مخل	-7763
▁هما	-7764
▁يظل	-7765
ريبية	-7766
▁أغلق	-7767
▁الإخ	-7768
▁السم	-7769
▁السو	-7770
▁الكي	-7771
▁الوج	-7772
▁حقًا	-7773
▁عطلة	-7774
▁قلبي	-7775
▁كبار	-7776
▁لَكن	-7777
▁معرض	-7778
▁موضع	-7779
▁نشاط	-7780
▁نوعا	-7781
▁ودون	-7782
▁يترك	-7783
▁يخبر	-7784
▁يسبق	-7785
▁يكفل	-7786
▁230)}	-7787
▁أطراف	-7788
▁العائ	-7789
▁المجا	-7790
▁الياب	-7791
▁تخفيض	-7792
▁تستمع	-7793
▁تنطوي	-7794
▁دورات	-7795
▁سأتصل	-7796
▁شأنها	-7797
▁شديدة	-7798
▁ضروري	-7799
▁والمح	-7800
▁يتوجب	-7801
▁يواصل	-7802
▁الحادي	-7803
▁القيمة	-7804
▁المطار	-7805
▁بإنشاء	-7806
▁بالقرب	-7807
▁تقولين	-7808
▁جميعنا	-7809
▁طويلاً	-7810
▁علاقات	-7811
▁يعملون	-7812
▁أَعْرفُ	-7813
▁البوسنة	-7814
▁التأثير	-7815
▁باكستان	-7816
▁مقترحات	-7817
▁المرتبطة	-7818
▁الجنسانية	-7819
1`	-7820
av	-7821
َك	-7822
ّ؟	-7823
Rev	-7824
انى	-7825
داي	-7826
فيس	-7827
وله	-7828
ونى	-7829
يكي	-7830
َلُ	-7831
▁إض	-7832
أريد	-7833
اوية	-7834
تمكن	-7835
راوح	-7836
ريطة	-7837
زالت	-7838
زعات	-7839
كرار	-7840
وزيل	-7841
▁تهم	-7842
▁رأى	-7843
▁ستن	-7844
▁سكر	-7845
▁سهل	-7846
▁قوا	-7847
▁كسر	-7848
▁كشف	-7849
▁لائ	-7850
دادات	-7851
▁1373	-7852
▁أعيش	-7853
▁أقدم	-7854
▁اجلس	-7855
▁التض	-7856
▁بمقد	-7857
▁تتيح	-7858
▁حدثت	-7859
▁حلول	-7860
▁عميل	-7861
▁فنحن	-7862
▁معين	-7863
▁وبما	-7864
▁وجهك	-7865
▁يسمى	-7866
المادة	-7867
كليزية	-7868
▁أحببت	-7869
▁إخبار	-7870
▁اقترح	-7871
▁البدء	-7872
▁الحظر	-7873
▁الحمل	-7874
▁اللحم	-7875
▁المفض	-7876
▁تفسير	-7877
▁زوجته	-7878
▁عملاً	-7879
▁كفاية	-7880
▁للبيت	-7881
▁للحظة	-7882
▁يستمر	-7883
▁تقدمها	-7884
▁للذهاب	-7885
▁وأشارت	-7886
▁التأمين	-7887
▁الجزرية	-7888
▁الطاولة	-7889
▁العمالة	-7890
▁العوامل	-7891
▁المؤرخة	-7892
▁النافذة	-7893
▁الاعتماد	-7894
▁المترتبة	-7895
▁الميدانية	-7896
TM	-7897
aw	-7898
▁ِ	-7899
برز	-7900
بعث	-7901
بوط	-7902
ثمر	-7903
دعى	-7904
دوج	-7905
صدي	-7906
ندي	-7907
يتا	-7908
ينز	-7909
أنتِ	-7910
الذي	-7911
راها	-7912
ربين	-7913
ستور	-7914
عتني	-7915
لويس	-7916
نتظر	-7917
ندية	-7918
▁ألن	-7919
▁صحة	-7920
▁فور	-7921
▁لمت	-7922
▁نفذ	-7923
عندما	-7924
لاحقة	-7925
▁(199	-7926
▁1993	-7927
▁أتصل	-7928
▁أناس	-7929
▁أيدي	-7930
▁دفعت	-7931
▁سيست	-7932
▁كذبت	-7933
▁منّي	-7934
▁وحده	-7935
▁أعطيت	-7936
▁إقليم	-7937
▁للأسف	-7938
▁يتعرض	-7939
▁اختبار	-7940
▁المتفق	-7941
▁بسهولة	-7942
▁مايرام	-7943
▁الأرقام	-7944
▁الزيادة	-7945
▁الطلبات	-7946
▁المتوسط	-7947
▁والنساء	-7948
__	-7949
ثث	-7950
/11	-7951
ate	-7952
اده	-7953
جال	-7954
ذائ	-7955
زيل	-7956
سوم	-7957
عدل	-7958
قصد	-7959
لكِ	-7960
▁سئ	-7961
ثرين	-7962
وتين	-7963
وننا	-7964
▁194	-7965
▁أمى	-7966
▁إلت	-7967
▁جري	-7968
▁جسم	-7969
▁دعا	-7970
▁عقل	-7971
▁نكن	-7972
داءات	-7973
وائية	-7974
واتيم	-7975
▁أجلي	-7976
▁أعظم	-7977
▁احضر	-7978
▁ادخل	-7979
▁اليه	-7980
▁بيتر	-7981
▁ترين	-7982
▁تعطي	-7983
▁تنفذ	-7984
▁غاية	-7985
▁لكون	-7986
▁محقة	-7987
▁يحدد	-7988
▁يسمع	-7989
▁اتجاه	-7990
▁البال	-7991
▁الرقص	-7992
▁الفرق	-7993
▁المدى	-7994
▁تدمير	-7995
▁تصديق	-7996
▁تعميم	-7997
▁توصية	-7998
▁سياسي	-7999
▁صديقة	-8000
▁مقبول	-8001
▁نوعية	-8002
▁هايتي	-8003
▁والتع	-8004
▁الخيار	-8005
▁الذرية	-8006
▁الشراب	-8007
▁الشكوى	-8008
▁المحدد	-8009
▁انعقاد	-8010
▁للفريق	-8011
▁الأوراق	-8012
▁التعليق	-8013
▁التقاعد	-8014
▁الزراعة	-8015
▁الفائدة	-8016
▁المعونة	-8017
▁الوظيفة	-8018
▁تَعْرفُ	-8019
▁البرازيل	-8020
▁الثقافية	-8021
▁الجنوبية	-8022
▁الصعيدين	-8023
▁الاتفاقات	-8024
RC	-8025
ld	-8026
صا	-8027
َا	-8028
ّـ	-8029
ارى	-8030
جلد	-8031
شيا	-8032
وتا	-8033
ويب	-8034
▁75	-8035
▁اك	-8036
اتنا	-8037
جاجة	-8038
قدّم	-8039
كسون	-8040
وبيا	-8041
ونني	-8042
▁إبن	-8043
▁إيا	-8044
▁حاج	-8045
▁لذي	-8046
▁متط	-8047
▁نصل	-8048
راليا	-8049
قابلة	-8050
▁أعيد	-8051
▁الإح	-8052
▁بلغت	-8053
▁تتسم	-8054
▁حضرة	-8055
▁لنقل	-8056
▁مسدس	-8057
▁مصاب	-8058
▁والغ	-8059
▁ونشر	-8060
▁إدخال	-8061
▁ابداً	-8062
▁اتمنى	-8063
▁الشعر	-8064
▁القسم	-8065
▁النفط	-8066
▁الوفد	-8067
▁بحالة	-8068
▁بينهم	-8069
▁عاهرة	-8070
▁فإننا	-8071
▁موافق	-8072
▁والمؤ	-8073
▁وصلنا	-8074
▁الراهن	-8075
▁الظلام	-8076
▁المتعا	-8077
▁المسلح	-8078
▁لتمويل	-8079
▁مؤشرات	-8080
▁والمنا	-8081
▁الاحتيا	-8082
▁التحديد	-8083
▁الحرارة	-8084
▁الطبيعي	-8085
▁تشريعات	-8086
▁اليونيدو	-8087
▁الانتخابية	-8088
10	-8089
60	-8090
ab	-8091
ّز	-8092
اعب	-8093
حاث	-8094
قوط	-8095
لقة	-8096
َعْ	-8097
▁خُ	-8098
▁وَ	-8099
برين	-8100
ديثة	-8101
صحيح	-8102
ورها	-8103
يمون	-8104
▁أرك	-8105
▁اكت	-8106
▁جنا	-8107
▁درج	-8108
▁عنص	-8109
▁قرب	-8110
▁لاب	-8111
▁لوك	-8112
▁وتد	-8113
▁أزمة	-8114
▁أمان	-8115
▁الكن	-8116
▁تكلم	-8117
▁رحلت	-8118
▁عنصر	-8119
▁قتله	-8120
▁قديم	-8121
▁للسل	-8122
▁مطلق	-8123
▁وجهه	-8124
▁وفده	-8125
سبانيا	-8126
▁أراهن	-8127
▁أرسلت	-8128
▁أفكار	-8129
▁إزالة	-8130
▁إلغاء	-8131
▁الجوي	-8132
▁السهل	-8133
▁الفور	-8134
▁بأنهم	-8135
▁بالحق	-8136
▁حبيبي	-8137
▁رأينا	-8138
▁سلطات	-8139
▁علماً	-8140
▁لمكتب	-8141
▁مواقع	-8142
▁اختصاص	-8143
▁التحفظ	-8144
▁الشاطئ	-8145
▁الصيني	-8146
▁النبيذ	-8147
▁الوقود	-8148
▁لزيادة	-8149
▁مجنونة	-8150
▁الهجمات	-8151
▁القطاعات	-8152
▁المنتجات	-8153
▁النفايات	-8154
▁باستمرار	-8155
▁المشاركين	-8156
بّ	-8157
تب	-8158
ثم	-8159
صط	-8160
نر	-8161
ist	-8162
أرج	-8163
هاي	-8164
وته	-8165
وقة	-8166
▁در	-8167
0000	-8168
رتكب	-8169
ليلي	-8170
ناقش	-8171
وزون	-8172
▁أعم	-8173
▁جام	-8174
▁جيل	-8175
▁خاط	-8176
▁خلا	-8177
▁ذكي	-8178
▁سعر	-8179
▁كأس	-8180
▁لون	-8181
انيين	-8182
▁أبقى	-8183
▁الشا	-8184
▁بقتل	-8185
▁بلده	-8186
▁سألت	-8187
▁سباق	-8188
▁للمت	-8189
▁مهتم	-8190
▁هذين	-8191
▁واخت	-8192
▁وفدي	-8193
▁يذكر	-8194
▁يومي	-8195
كرانيا	-8196
▁أتوقع	-8197
▁أعقاب	-8198
▁الإنج	-8199
▁الشكر	-8200
▁الممر	-8201
▁بشأنه	-8202
▁طبيعة	-8203
▁لتكون	-8204
▁منخفض	-8205
▁يتسنى	-8206
▁التوقف	-8207
▁السامي	-8208
▁السرية	-8209
▁الغابة	-8210
▁الفعال	-8211
▁المسيح	-8212
▁بإجراء	-8213
▁بصراحة	-8214
▁تشعرين	-8215
▁لأحكام	-8216
▁مجموعه	-8217
▁مفوضية	-8218
▁ويتعين	-8219
▁يعيشون	-8220
▁الأفعال	-8221
▁الأولاد	-8222
▁السيدات	-8223
▁الدراسات	-8224
▁والأسلحة	-8225
▁والمساعدة	-8226
▁والإجراءات	-8227
بى	-8228
مُ	-8229
تمة	-8230
رفت	-8231
شات	-8232
فيه	-8233
نيت	-8234
▁"(	-8235
▁أذ	-8236
▁زم	-8237
▁شف	-8238
حضار	-8239
طراف	-8240
قيبة	-8241
نزير	-8242
يفان	-8243
▁أفس	-8244
▁تخل	-8245
▁تلق	-8246
▁تمّ	-8247
▁ساد	-8248
▁فرق	-8249
▁مجر	-8250
▁موه	-8251
▁أبقي	-8252
▁أذكر	-8253
▁أقدر	-8254
▁تعزز	-8255
▁جراء	-8256
▁جولة	-8257
▁حامل	-8258
▁سرية	-8259
▁سلوك	-8260
▁قمنا	-8261
▁ماكس	-8262
▁موري	-8263
▁نقاط	-8264
▁أعوام	-8265
▁إنتهى	-8266
▁القاب	-8267
▁الممت	-8268
▁تخصيص	-8269
▁تكلفة	-8270
▁تمثيل	-8271
▁ستعود	-8272
▁قابلة	-8273
▁كتابة	-8274
▁وسائط	-8275
▁وغيره	-8276
▁وكأنه	-8277
▁البريط	-8278
▁الجنون	-8279
▁الدروس	-8280
▁انتباه	-8281
▁بعملية	-8282
▁تريدني	-8283
▁للبعثة	-8284
▁للشرطة	-8285
▁مماثلة	-8286
▁وإضافة	-8287
▁الأماكن	-8288
▁الإقليم	-8289
▁الخفيفة	-8290
▁الضرائب	-8291
▁واللجنة	-8292
▁الأقليات	-8293
▁الغذائية	-8294
ديت	-8295
قاق	-8296
نيد	-8297
وحي	-8298
يرو	-8299
▁72	-8300
اضعة	-8301
بالت	-8302
لاحق	-8303
وضاع	-8304
يزيا	-8305
▁تشر	-8306
▁تغي	-8307
▁جسد	-8308
▁راي	-8309
▁روم	-8310
▁سبع	-8311
▁طرد	-8312
▁غزة	-8313
▁فلي	-8314
▁للو	-8315
عتماد	-8316
قاعدة	-8317
▁أنَّ	-8318
▁اصبح	-8319
▁بلوغ	-8320
▁ترمي	-8321
▁جيده	-8322
▁خرجت	-8323
▁عينا	-8324
▁للمج	-8325
▁محطة	-8326
▁معهد	-8327
▁يلعب	-8328
▁أخيرا	-8329
▁أسألك	-8330
▁أوراق	-8331
▁إنفاذ	-8332
▁احاول	-8333
▁الشاي	-8334
▁العاب	-8335
▁القوم	-8336
▁الوطن	-8337
▁الولد	-8338
▁بأنكِ	-8339
▁بالإن	-8340
▁بسيطة	-8341
▁بعثات	-8342
▁بنجاح	-8343
▁ترتدي	-8344
▁زيارة	-8345
▁عالمي	-8346
▁وأكثر	-8347
▁واحدا	-8348
▁التحكم	-8349
▁الكافي	-8350
▁اللذين	-8351
▁المصير	-8352
▁بأكمله	-8353
▁لقانون	-8354
▁محدودة	-8355
▁مشاهدة	-8356
▁استغلال	-8357
▁الشاحنة	-8358
▁الصحافة	-8359
▁الفيديو	-8360
▁المستمر	-8361
▁المضادة	-8362
▁المعقود	-8363
▁الموحدة	-8364
▁مساعدتي	-8365
▁والواقع	-8366
▁الثنائية	-8367
15	-8368
18	-8369
pl	-8370
our	-8371
تهي	-8372
خلا	-8373
خلى	-8374
سبه	-8375
ضيف	-8376
عاب	-8377
يسر	-8378
▁73	-8379
▁فص	-8380
أمين	-8381
ارئة	-8382
باحث	-8383
قتضي	-8384
كلين	-8385
نيات	-8386
يزان	-8387
▁أدع	-8388
▁إبت	-8389
▁إحص	-8390
▁جثة	-8391
▁خطب	-8392
▁ريا	-8393
▁عات	-8394
▁قان	-8395
▁مبت	-8396
▁مصن	-8397
▁ورق	-8398
▁وكن	-8399
انمار	-8400
بيقات	-8401
سينات	-8402
▁الجد	-8403
▁الجر	-8404
▁بأمر	-8405
▁تؤمن	-8406
▁حضور	-8407
▁سرقة	-8408
▁عودة	-8409
▁فعلى	-8410
▁للشر	-8411
▁محام	-8412
▁وأوص	-8413
▁وردت	-8414
▁وقتا	-8415
▁وموظ	-8416
▁يفهم	-8417
بالطبع	-8418
قاطعات	-8419
▁210)}	-8420
▁أعربت	-8421
▁أغنية	-8422
▁إعطاء	-8423
▁البيض	-8424
▁الضرر	-8425
▁بوسعي	-8426
▁تخفيف	-8427
▁ذاهبة	-8428
▁سابقا	-8429
▁سفينة	-8430
▁سوياً	-8431
▁سيفعل	-8432
▁شركات	-8433
▁فوراً	-8434
▁والفق	-8435
وزيلندا	-8436
▁أرجوكِ	-8437
▁استيقظ	-8438
▁المرور	-8439
▁بأنشطة	-8440
▁تبذلها	-8441
▁لإجراء	-8442
▁مقابلة	-8443
▁أخبريني	-8444
▁التحليل	-8445
▁التوقيع	-8446
▁الطويلة	-8447
▁الفقيرة	-8448
▁المهنية	-8449
▁ترتيبات	-8450
▁الأصدقاء	-8451
▁الممثلين	-8452
▁بالأسلحة	-8453
▁الإيرادات	-8454
▁الاستراتيجي	-8455
2`	-8456
حض	-8457
ّط	-8458
▁]	-8459
تاج	-8460
رغم	-8461
ستا	-8462
لائ	-8463
لوك	-8464
نيع	-8465
هاد	-8466
هلك	-8467
ِّر	-8468
▁8-	-8469
▁بُ	-8470
الآن	-8471
جينا	-8472
ديون	-8473
نابل	-8474
▁أقر	-8475
▁بون	-8476
▁تحث	-8477
▁فسي	-8478
▁مضت	-8479
▁نائ	-8480
▁نود	-8481
/2003	-8482
رابطة	-8483
زايدة	-8484
شارات	-8485
واريخ	-8486
▁ألست	-8487
▁أمين	-8488
▁الإل	-8489
▁النت	-8490
▁تخيل	-8491
▁تنسى	-8492
▁رصاص	-8493
▁صعيد	-8494
▁فئات	-8495
▁قهوة	-8496
▁كلّا	-8497
▁هيكل	-8498
▁واله	-8499
▁وترك	-8500
▁يتخذ	-8501
▁إحاطة	-8502
▁التام	-8503
▁الحين	-8504
▁المدف	-8505
▁النوا	-8506
▁تأمين	-8507
▁رسائل	-8508
▁طريقه	-8509
▁قلقها	-8510
▁للبحث	-8511
▁محامي	-8512
▁أولوية	-8513
▁اسمحوا	-8514
▁الغداء	-8515
▁بأهمية	-8516
▁بحماية	-8517
▁ديسمبر	-8518
▁لتناول	-8519
▁ملاحظة	-8520
▁وتقييم	-8521
▁يفعلون	-8522
▁أولويات	-8523
▁التوالي	-8524
▁الفرنسي	-8525
▁الفقراء	-8526
▁القضائي	-8527
▁تعليقات	-8528
▁2002-200	-8529
▁المشمولة	-8530
▁كولومبيا	-8531
▁الأولويات	-8532
▁الانتهاكات	-8533
َب	-8534
ِم	-8535
all	-8536
انق	-8537
بلد	-8538
تبة	-8539
حيب	-8540
ذاك	-8541
رنا	-8542
شاب	-8543
عمة	-8544
فان	-8545
كيت	-8546
▁64	-8547
▁66	-8548
▁be	-8549
▁فش	-8550
بلغت	-8551
راجة	-8552
واني	-8553
▁أشد	-8554
▁جوه	-8555
▁قبر	-8556
▁نجح	-8557
▁وني	-8558
/2002	-8559
حتلال	-8560
سَناً	-8561
▁أراه	-8562
▁أعدك	-8563
▁أقتل	-8564
▁أوضح	-8565
▁الخص	-8566
▁السح	-8567
▁الني	-8568
▁تهدف	-8569
▁توفي	-8570
▁ثالث	-8571
▁ذكرت	-8572
▁سرقت	-8573
▁شارك	-8574
▁غياب	-8575
▁لقاء	-8576
▁لوحة	-8577
▁مئات	-8578
▁مالك	-8579
▁معرف	-8580
▁يفكر	-8581
▁أبدًا	-8582
▁أدوات	-8583
▁أنّكِ	-8584
▁الأبد	-8585
▁السمك	-8586
▁الكام	-8587
▁الكذب	-8588
▁اللون	-8589
▁بعيدة	-8590
▁سلامة	-8591
▁شركاء	-8592
▁إجمالي	-8593
▁الجنود	-8594
▁النشاط	-8595
▁النقطة	-8596
▁باتخاذ	-8597
▁خارجية	-8598
▁صحيحاً	-8599
▁للوصول	-8600
▁ليبريا	-8601
▁معاملة	-8602
▁وتحقيق	-8603
▁يقومون	-8604
▁يمكنكم	-8605
▁إقليمية	-8606
▁التحكيم	-8607
▁الحضرية	-8608
▁المؤسسة	-8609
▁لعمليات	-8610
▁يستطيعون	-8611
▁استخدامها	-8612
▁الاستعمار	-8613
▁والتوصيات	-8614
▁الاستنتاجات	-8615
▁International	-8616
11	-8617
تو	-8618
تام	-8619
جدة	-8620
سرة	-8621
غلب	-8622
لها	-8623
وفة	-8624
▁9-	-8625
▁قِ	-8626
ائعة	-8627
جارب	-8628
دراج	-8629
رامي	-8630
رسون	-8631
مامة	-8632
وداً	-8633
وزان	-8634
ولات	-8635
يفية	-8636
▁(2)	-8637
▁10-	-8638
▁بخط	-8639
▁بصد	-8640
▁جرت	-8641
▁حار	-8642
▁خار	-8643
▁فسأ	-8644
▁مخا	-8645
▁معل	-8646
▁ناد	-8647
▁وتُ	-8648
شتراك	-8649
هيئات	-8650
▁1991	-8651
▁ابنك	-8652
▁تلقى	-8653
▁توجه	-8654
▁جاءت	-8655
▁جدتي	-8656
▁دماء	-8657
▁روما	-8658
▁عنهم	-8659
▁قرأت	-8660
▁قلتِ	-8661
▁كتبت	-8662
▁كهذه	-8663
▁وعمل	-8664
▁وفاة	-8665
▁وقتك	-8666
▁أجزاء	-8667
▁أصوات	-8668
▁إثبات	-8669
▁بحرية	-8670
▁ترتيب	-8671
▁تقولي	-8672
▁ثالثا	-8673
▁حيثما	-8674
▁سيصبح	-8675
▁علامة	-8676
▁علاوة	-8677
▁وأدلى	-8678
▁وبالم	-8679
▁وتطلب	-8680
▁وجميع	-8681
▁وداعا	-8682
▁وهكذا	-8683
▁ارتكاب	-8684
▁الفعلي	-8685
▁المخصص	-8686
▁النزاع	-8687
▁لإيجاد	-8688
▁والدتي	-8689
▁والصين	-8690
▁الأغراض	-8691
▁الأوقات	-8692
▁الإجابة	-8693
▁الاستئم	-8694
▁الدائرة	-8695
▁المبالغ	-8696
▁المجنون	-8697
▁المذكور	-8698
▁المعروض	-8699
▁بالتالي	-8700
▁بعمليات	-8701
▁حَسَناً	-8702
▁ستكونين	-8703
▁ملاحظات	-8704
▁والمحيط	-8705
▁التفاصيل	-8706
▁الجزاءات	-8707
▁المتوقعة	-8708
▁باستثناء	-8709
▁المستخدمة	-8710
▁والأربعين	-8711
آه	-8712
سس	-8713
مى	-8714
نش	-8715
ُ؟	-8716
ِن	-8717
/25	-8718
iss	-8719
جمع	-8720
جوة	-8721
حاق	-8722
ريغ	-8723
شيط	-8724
عجب	-8725
ماط	-8726
ونس	-8727
وّل	-8728
يفي	-8729
▁إف	-8730
إلهي	-8731
تيال	-8732
دينة	-8733
ساعة	-8734
صديق	-8735
علام	-8736
كلمت	-8737
وطيد	-8738
يمين	-8739
▁أوغ	-8740
▁إرت	-8741
▁راق	-8742
▁ربط	-8743
▁سأن	-8744
▁شغل	-8745
▁كرا	-8746
بيوتر	-8747
زيارة	-8748
ساسية	-8749
غيرات	-8750
▁أصاب	-8751
▁الرك	-8752
▁اهلا	-8753
▁بصيغ	-8754
▁تطلق	-8755
▁تفيد	-8756
▁سوية	-8757
▁عادت	-8758
▁كلهم	-8759
▁محدد	-8760
▁مخطئ	-8761
▁مياه	-8762
▁هجوم	-8763
▁واجه	-8764
▁وترد	-8765
▁وقدم	-8766
ثيوبيا	-8767
ــــــ	-8768
▁المتأ	-8769
▁المدة	-8770
▁المنس	-8771
▁الهام	-8772
▁اهتما	-8773
▁بالغة	-8774
▁سأخبر	-8775
▁سريعة	-8776
▁مصلحة	-8777
▁مفتاح	-8778
▁منهما	-8779
▁وحيدة	-8780
▁وزراء	-8781
▁يتوقع	-8782
▁يضطلع	-8783
رهابيين	-8784
▁أحيانا	-8785
▁أنفسنا	-8786
▁احتمال	-8787
▁استشار	-8788
▁الجميل	-8789
▁الدمار	-8790
▁الرحلة	-8791
▁الصفقة	-8792
▁دراسات	-8793
▁لتمكين	-8794
▁الأجهزة	-8795
▁الإدماج	-8796
▁الدورات	-8797
▁الكربون	-8798
▁المختصة	-8799
▁الناجمة	-8800
▁النقدية	-8801
▁بفعالية	-8802
▁للموارد	-8803
▁لمواجهة	-8804
▁الاستماع	-8805
▁المتوسطة	-8806
▁النموذجي	-8807
▁لاتفاقية	-8808
▁والأنشطة	-8809
▁والموارد	-8810
▁الأرجنتين	-8811
▁الإعلامية	-8812
▁التعليمية	-8813
▁المحتويات	-8814
25	-8815
ثت	-8816
ذف	-8817
آسف	-8818
خين	-8819
ذير	-8820
قاع	-8821
قها	-8822
مقى	-8823
ولف	-8824
-201	-8825
ئوية	-8826
الين	-8827
زعاج	-8828
سنان	-8829
عتنا	-8830
قاسم	-8831
هينا	-8832
▁com	-8833
▁آلة	-8834
▁أفك	-8835
▁بتن	-8836
▁تقر	-8837
▁حزب	-8838
▁سجن	-8839
▁غاز	-8840
▁فست	-8841
▁ميد	-8842
▁نقد	-8843
/2001	-8844
توقيع	-8845
قافات	-8846
▁http	-8847
▁اقوم	-8848
▁بغرض	-8849
▁بوقت	-8850
▁بيتي	-8851
▁سآخذ	-8852
▁قضيت	-8853
▁كمية	-8854
▁مراج	-8855
▁نأمل	-8856
▁وأكد	-8857
▁وثمة	-8858
▁وجعل	-8859
▁يعنى	-8860
الفقرة	-8861
خبارات	-8862
▁إبلاغ	-8863
▁إنسان	-8864
▁اخبرك	-8865
▁اكتشف	-8866
▁المبر	-8867
▁بقوات	-8868
▁تعاون	-8869
▁حادثة	-8870
▁رؤيته	-8871
▁رئاسة	-8872
▁سأحضر	-8873
▁عندنا	-8874
▁فقدان	-8875
▁متاحة	-8876
▁معروض	-8877
▁مكتوب	-8878
▁والتق	-8879
▁يتصرف	-8880
▁الأمام	-8881
▁الرحيل	-8882
▁الفوضى	-8883
▁اللعنه	-8884
▁تشارلي	-8885
▁سأخبرك	-8886
▁سيارتي	-8887
▁لتوفير	-8888
▁لمشروع	-8889
▁وتحديد	-8890
▁يارفاق	-8891
واتيمالا	-8892
▁الآليات	-8893
▁المستقل	-8894
▁المنظور	-8895
▁المنقحة	-8896
▁الوحدات	-8897
▁الإنتظار	-8898
▁الملاحظات	-8899
▁بالفرنسية	-8900
▁للمعلومات	-8901
▁والاستقرار	-8902
▁الاستثمارات	-8903
ئذ	-8904
راخ	-8905
زون	-8906
صير	-8907
طيء	-8908
قيح	-8909
لزم	-8910
مجة	-8911
يها	-8912
▁جم	-8913
▁زع	-8914
ئياً	-8915
رحيل	-8916
ضايق	-8917
غطية	-8918
ليام	-8919
واتج	-8920
وانا	-8921
▁ألب	-8922
▁انس	-8923
▁رخص	-8924
▁لحد	-8925
▁ملح	-8926
▁وبص	-8927
▁يفت	-8928
/2004	-8929
/2005	-8930
راهية	-8931
ريدين	-8932
موضوع	-8933
▁آمنة	-8934
▁أعجب	-8935
▁إنّك	-8936
▁بارد	-8937
▁تصدر	-8938
▁تضمن	-8939
▁ثمّة	-8940
▁ذكية	-8941
▁ستست	-8942
▁كانا	-8943
▁لاعب	-8944
▁لجعل	-8945
▁لَنْ	-8946
▁مطار	-8947
▁وقام	-8948
▁ونصف	-8949
▁أسماء	-8950
▁أفترض	-8951
▁الروس	-8952
▁الصرف	-8953
▁المفا	-8954
▁الميت	-8955
▁بدرجة	-8956
▁بعضها	-8957
▁تتصرف	-8958
▁تحرير	-8959
▁تستمر	-8960
▁تعويض	-8961
▁تغطية	-8962
▁تمكنت	-8963
▁عملنا	-8964
▁ليكون	-8965
▁نظرها	-8966
▁يتحرك	-8967
▁أساليب	-8968
▁الحساب	-8969
▁الطابع	-8970
▁القدوم	-8971
▁الكونغ	-8972
▁عسكرية	-8973
▁اتخذتها	-8974
▁استعادة	-8975
▁الإنفاق	-8976
▁التحالف	-8977
▁الشوارع	-8978
▁للأفراد	-8979
▁اعتبارها	-8980
▁المفروضة	-8981
▁المساعدات	-8982
14	-8983
تز	-8984
ith	-8985
ؤها	-8986
الر	-8987
الو	-8988
بهة	-8989
درج	-8990
درو	-8991
ذبة	-8992
ساك	-8993
ساو	-8994
عهد	-8995
فيز	-8996
لدي	-8997
ومك	-8998
▁65	-8999
▁68	-9000
▁Ch	-9001
▁اف	-9002
▁سُ	-9003
باحة	-9004
جولي	-9005
رقاء	-9006
سيدي	-9007
طيرة	-9008
قافي	-9009
قاية	-9010
كايل	-9011
متين	-9012
▁www	-9013
▁أجن	-9014
▁تاب	-9015
▁ثقي	-9016
▁ساف	-9017
▁طرح	-9018
▁لأم	-9019
▁لوز	-9020
▁ماء	-9021
▁هان	-9022
▁وأس	-9023
▁وأش	-9024
▁وار	-9025
▁ومو	-9026
الباً	-9027
ربّما	-9028
سائية	-9029
قتراح	-9030
كلمين	-9031
كُونَ	-9032
▁تكره	-9033
▁عشاء	-9034
▁كلية	-9035
▁متفا	-9036
▁مثال	-9037
▁مخيف	-9038
▁مدين	-9039
▁مرار	-9040
▁مطعم	-9041
▁وحما	-9042
▁يتفق	-9043
▁اتباع	-9044
▁الثلج	-9045
▁السعي	-9046
▁السير	-9047
▁الغبي	-9048
▁ترجمة	-9049
▁جزءاً	-9050
▁ستقول	-9051
▁صاحبة	-9052
▁عقوبة	-9053
▁غادرت	-9054
▁لأكون	-9055
▁مشاعر	-9056
▁والأن	-9057
▁التمتع	-9058
▁التنوع	-9059
▁الخميس	-9060
▁السفير	-9061
▁الشروط	-9062
▁الضابط	-9063
▁الكلية	-9064
▁المهني	-9065
▁الموحد	-9066
▁بأنّني	-9067
▁تتجاوز	-9068
▁رواندا	-9069
▁عزيزتى	-9070
▁يستغرق	-9071
▁القليلة	-9072
▁المفضلة	-9073
▁المنزلي	-9074
▁الوسائل	-9075
▁بالدخول	-9076
▁بمساعدة	-9077
▁للإدارة	-9078
▁مبادرات	-9079
▁اقتصادية	-9080
▁بالتقرير	-9081
▁لجمهورية	-9082
▁والتنسيق	-9083
og	-9084
ud	-9085
بأ	-9086
تس	-9087
نغ	-9088
/12	-9089
ائط	-9090
افه	-9091
ستُ	-9092
طلح	-9093
لتُ	-9094
هضة	-9095
وطن	-9096
وكة	-9097
ينغ	-9098
▁إق	-9099
جيري	-9100
ذربي	-9101
قتصر	-9102
كوين	-9103
لياً	-9104
ماكس	-9105
موال	-9106
وبين	-9107
▁اما	-9108
▁تبت	-9109
▁تكت	-9110
▁شرف	-9111
▁صبي	-9112
▁لتت	-9113
▁مضط	-9114
▁موث	-9115
▁نخب	-9116
▁هاج	-9117
▁ابقى	-9118
▁احصل	-9119
▁اقصد	-9120
▁بعين	-9121
▁بيني	-9122
▁تؤيد	-9123
▁زعيم	-9124
▁سانت	-9125
▁سرعة	-9126
▁نجحت	-9127
▁نقول	-9128
▁ويرد	-9129
▁يتبع	-9130
▁يثير	-9131
▁يرسل	-9132
▁ألديك	-9133
▁إجازة	-9134
▁إليكم	-9135
▁الانح	-9136
▁البوا	-9137
▁الحفل	-9138
▁القدس	-9139
▁الواق	-9140
▁تتوقع	-9141
▁تشاهد	-9142
▁تلبية	-9143
▁تمانع	-9144
▁فعلنا	-9145
▁مريضة	-9146
▁مفيدة	-9147
▁ممثلة	-9148
▁يعاني	-9149
▁ينطبق	-9150
▁يهمني	-9151
سؤوليات	-9152
▁أعماله	-9153
▁إتفقنا	-9154
▁الموعد	-9155
▁النجوم	-9156
▁ملائمة	-9157
▁هولندا	-9158
▁أتريدين	-9159
▁الأزمات	-9160
▁المضمون	-9161
▁الوزاري	-9162
▁مجموعات	-9163
▁الاحتلال	-9164
▁المسؤولة	-9165
▁والتقييم	-9166
▁والمالية	-9167
▁التغييرات	-9168
طى	-9169
قك	-9170
ّح	-9171
99)	-9172
ell	-9173
for	-9174
ثني	-9175
جاة	-9176
حار	-9177
ساة	-9178
لهة	-9179
ليد	-9180
يزة	-9181
▁دو	-9182
▁لض	-9183
ائنا	-9184
جيمس	-9185
خراج	-9186
خرية	-9187
فران	-9188
قبات	-9189
كافؤ	-9190
كلير	-9191
متنا	-9192
نتها	-9193
وتها	-9194
يفيا	-9195
▁اقل	-9196
▁تسم	-9197
▁تفت	-9198
▁خلي	-9199
▁ستُ	-9200
▁غسل	-9201
▁مدي	-9202
▁مطر	-9203
▁نار	-9204
▁هوي	-9205
▁يحق	-9206
▁يفس	-9207
مانية	-9208
▁أسأل	-9209
▁أوسع	-9210
▁افهم	-9211
▁البا	-9212
▁التر	-9213
▁اهتم	-9214
▁بفضل	-9215
▁تخضع	-9216
▁تسعى	-9217
▁زوجك	-9218
▁عجوز	-9219
▁قاله	-9220
▁لسبب	-9221
▁للوف	-9222
▁مارس	-9223
▁ومنع	-9224
▁أفرقة	-9225
▁البطا	-9226
▁الجبل	-9227
▁القوى	-9228
▁بالمع	-9229
▁بنشاط	-9230
▁تتمتع	-9231
▁تخبري	-9232
▁تمارس	-9233
▁توافر	-9234
▁رائعا	-9235
▁رابطة	-9236
▁عذراً	-9237
▁عليكَ	-9238
▁لأنهم	-9239
▁مكاتب	-9240
▁وتقوم	-9241
▁وحدات	-9242
▁(2004)	-9243
▁البرلم	-9244
▁الحقير	-9245
▁الخبرة	-9246
▁المتضر	-9247
▁النقاط	-9248
▁بأعمال	-9249
▁صديقتي	-9250
▁عِنْدي	-9251
▁لأسباب	-9252
▁وتنظيم	-9253
▁يعجبني	-9254
▁الجنائي	-9255
▁الحيوية	-9256
▁المواقع	-9257
▁للصندوق	-9258
▁الثلاثاء	-9259
▁العقوبات	-9260
▁الفرنسية	-9261
▁الكاميرا	-9262
▁المحتملة	-9263
▁بالإمكان	-9264
▁لاستعراض	-9265
▁الابتدائية	-9266
od	-9267
غى	-9268
لر	-9269
ِع	-9270
/14	-9271
/15	-9272
اجع	-9273
بله	-9274
جحة	-9275
دنا	-9276
ركِ	-9277
سير	-9278
ظلم	-9279
عيه	-9280
غطي	-9281
ِكَ	-9282
▁حُ	-9283
دعاء	-9284
سامح	-9285
شتري	-9286
عدني	-9287
وامر	-9288
ويلا	-9289
▁Rep	-9290
▁بغض	-9291
▁تقف	-9292
▁شبه	-9293
▁شتى	-9294
▁صوب	-9295
▁قبي	-9296
▁كيم	-9297
▁لغة	-9298
▁موق	-9299
▁نوا	-9300
▁وجب	-9301
سابات	-9302
قليمي	-9303
▁أدلة	-9304
▁أمرا	-9305
▁تجمع	-9306
▁تفتح	-9307
▁جمال	-9308
▁قميص	-9309
▁كأنه	-9310
▁نملك	-9311
▁يتيح	-9312
▁يثبت	-9313
▁يعرض	-9314
تمالات	-9315
▁أشارت	-9316
▁إتاحة	-9317
▁اشياء	-9318
▁الإخت	-9319
▁البول	-9320
▁الجهة	-9321
▁السبت	-9322
▁الفكر	-9323
▁القوي	-9324
▁الكلي	-9325
▁النهر	-9326
▁الوحش	-9327
▁تكوين	-9328
▁دائمة	-9329
▁دواعي	-9330
▁شاحنة	-9331
▁طويلا	-9332
▁محاول	-9333
▁معاهد	-9334
▁مكتبي	-9335
▁يتغير	-9336
▁يتمثل	-9337
▁الأسفل	-9338
▁الدنيا	-9339
▁السادة	-9340
▁السيئة	-9341
▁القضاة	-9342
▁المراه	-9343
▁النظرة	-9344
▁بإعداد	-9345
▁بالحكم	-9346
▁توقفوا	-9347
▁جورجيا	-9348
▁مساهمة	-9349
▁ولاحظت	-9350
▁يتجاوز	-9351
▁يتناول	-9352
▁التصوير	-9353
▁السعادة	-9354
▁بالشرطة	-9355
▁بالفقرة	-9356
▁ببيانات	-9357
▁والدولي	-9358
▁الطائرات	-9359
▁باعتباره	-9360
▁إندونيسيا	-9361
▁المنازعات	-9362
▁والمعلومات	-9363
eg	-9364
ؤل	-9365
بؤ	-9366
خف	-9367
شم	-9368
(1)	-9369
5)}	-9370
BAR	-9371
ubl	-9372
ألم	-9373
ئها	-9374
ادم	-9375
جنب	-9376
خان	-9377
ديف	-9378
ريج	-9379
ريم	-9380
شأن	-9381
قضي	-9382
لوا	-9383
هية	-9384
ونج	-9385
وود	-9386
ّني	-9387
▁71	-9388
▁آر	-9389
▁ثل	-9390
تيها	-9391
رتيب	-9392
ريجي	-9393
سكوت	-9394
سيطر	-9395
ضيات	-9396
ليها	-9397
ناري	-9398
وصيل	-9399
▁إبق	-9400
▁تأك	-9401
▁جير	-9402
▁خال	-9403
▁سند	-9404
▁لأت	-9405
▁واب	-9406
▁يدك	-9407
ادرات	-9408
فقودة	-9409
يروبي	-9410
▁أؤكد	-9411
▁افكر	-9412
▁بأسر	-9413
▁تقضي	-9414
▁طابع	-9415
▁عقلك	-9416
▁فريد	-9417
▁ماهي	-9418
▁مُست	-9419
▁نعيش	-9420
▁ومما	-9421
▁يعطي	-9422
نسانية	-9423
▁أجريت	-9424
▁إلكتر	-9425
▁الاسم	-9426
▁العين	-9427
▁المحي	-9428
▁المرء	-9429
▁المضي	-9430
▁تتحمل	-9431
▁تلقيت	-9432
▁سعادة	-9433
▁سيئاً	-9434
▁شاهدت	-9435
▁لاحظت	-9436
▁لدرجة	-9437
▁ممثلو	-9438
▁وجدته	-9439
▁وذكرت	-9440
▁ورئيس	-9441
▁وضعها	-9442
▁يتمتع	-9443
▁استطعت	-9444
▁التحول	-9445
▁الوفاة	-9446
▁اليهود	-9447
▁بتوفير	-9448
▁تحديات	-9449
▁صباحاً	-9450
▁قدمتها	-9451
▁كُنْتُ	-9452
▁مسبقاً	-9453
بالتأكيد	-9454
▁استقرار	-9455
▁الأربعة	-9456
▁الإقامة	-9457
▁الاسبوع	-9458
▁الحقائق	-9459
▁الدينية	-9460
▁الرابطة	-9461
▁السورية	-9462
▁دولاراً	-9463
▁للمجتمع	-9464
▁النزاعات	-9465
▁والفتيات	-9466
12)	-9467
اهن	-9468
دوا	-9469
صيب	-9470
عقب	-9471
منا	-9472
ورن	-9473
وعا	-9474
▁67	-9475
▁st	-9476
▁اُ	-9477
▁مذ	-9478
اروس	-9479
رجاء	-9480
ساوي	-9481
▁Con	-9482
▁أسط	-9483
▁بنك	-9484
▁عبء	-9485
▁فائ	-9486
▁فيك	-9487
▁قاط	-9488
▁قيل	-9489
▁لطف	-9490
▁ليّ	-9491
▁هاء	-9492
الأمر	-9493
البند	-9494
حاولة	-9495
حتاجُ	-9496
رائها	-9497
رائية	-9498
سياسة	-9499
شارلز	-9500
عبارة	-9501
▁إبني	-9502
▁ابحث	-9503
▁الكم	-9504
▁بلدا	-9505
▁تثبت	-9506
▁داعي	-9507
▁ذالك	-9508
▁رباه	-9509
▁شقيق	-9510
▁شيءٍ	-9511
▁قضاء	-9512
▁لستِ	-9513
▁لوقت	-9514
▁مبكر	-9515
▁مثلا	-9516
▁مفيد	-9517
▁نظره	-9518
▁وأمن	-9519
▁يأكل	-9520
▁يؤلم	-9521
▁ينجح	-9522
▁أقدام	-9523
▁إليكِ	-9524
▁اريدك	-9525
▁الآسي	-9526
▁البدي	-9527
▁المدر	-9528
▁تزويد	-9529
▁تصوير	-9530
▁حقيبة	-9531
▁خالية	-9532
▁رئيسة	-9533
▁سجلات	-9534
▁سيأتي	-9535
▁طائفة	-9536
▁لازلت	-9537
▁مصالح	-9538
▁مليئة	-9539
▁وأبوس	-9540
▁يتكلم	-9541
▁أعتقدت	-9542
▁إعتقدت	-9543
▁التاسع	-9544
▁التعرف	-9545
▁الشخصي	-9546
▁المرضى	-9547
▁الهيكل	-9548
▁بالقلق	-9549
▁محاكمة	-9550
▁مستمرة	-9551
▁منتظمة	-9552
▁وتشجيع	-9553
▁وقانون	-9554
▁أيمكنني	-9555
▁الأرضية	-9556
▁التجربة	-9557
▁التكلفة	-9558
▁الحافلة	-9559
▁العنوان	-9560
▁باعتماد	-9561
▁مفاوضات	-9562
▁ومكافحة	-9563
▁يعتقدون	-9564
▁المؤسسية	-9565
▁بإمكاننا	-9566
▁والزراعة	-9567
▁للاتفاقية	-9568
▁والوكالات	-9569
▁الاستراتيجيات	-9570
ip	-9571
ice	-9572
الل	-9573
تكَ	-9574
تمت	-9575
جزة	-9576
جور	-9577
جيد	-9578
حبت	-9579
ضطر	-9580
قون	-9581
نّى	-9582
ّرة	-9583
ّون	-9584
▁at	-9585
▁by	-9586
▁رَ	-9587
▁صل	-9588
▁يو	-9589
إنّه	-9590
اتية	-9591
جلسة	-9592
ذائف	-9593
فيلد	-9594
قيمة	-9595
كادي	-9596
كتها	-9597
لفين	-9598
هاري	-9599
▁أبى	-9600
▁ببط	-9601
▁بنت	-9602
▁سطح	-9603
▁ضخم	-9604
▁طري	-9605
▁عبد	-9606
▁غلط	-9607
▁لحظ	-9608
▁ليف	-9609
▁مين	-9610
▁نضع	-9611
▁نيل	-9612
▁وبر	-9613
▁وها	-9614
ساوية	-9615
غلبية	-9616
وثائق	-9617
▁إياه	-9618
▁الرق	-9619
▁بقيت	-9620
▁بلدة	-9621
▁تحظى	-9622
▁تمنح	-9623
▁تنظم	-9624
▁سارة	-9625
▁ضابط	-9626
▁ضخمة	-9627
▁لأخذ	-9628
▁مثله	-9629
▁مستع	-9630
▁نفاذ	-9631
▁يؤثر	-9632
▁الأست	-9633
▁الجثة	-9634
▁السفن	-9635
▁السكن	-9636
▁الشري	-9637
▁الغاز	-9638
▁انخفض	-9639
▁بليون	-9640
▁بنفسه	-9641
▁تعترف	-9642
▁تعرضت	-9643
▁تهاني	-9644
▁جائزة	-9645
▁ستحصل	-9646
▁سعيدا	-9647
▁للمنا	-9648
▁لمكان	-9649
▁مكانه	-9650
▁مماثل	-9651
▁والده	-9652
▁يلاحظ	-9653
ذربيجان	-9654
▁أتسائل	-9655
▁إنتظري	-9656
▁الافضل	-9657
▁البنود	-9658
▁الثامن	-9659
▁الرؤية	-9660
▁الزمني	-9661
▁الشرقي	-9662
▁النقاش	-9663
▁الواحد	-9664
▁انتقال	-9665
▁تعرفون	-9666
▁رأيتها	-9667
▁لإنشاء	-9668
▁مستشار	-9669
▁ملموسة	-9670
▁وأضافت	-9671
▁وأفراد	-9672
▁والصحة	-9673
▁أتعرفين	-9674
▁الخسائر	-9675
▁العقوبة	-9676
▁المتمثل	-9677
▁المشتبه	-9678
▁للمنظمة	-9679
▁ممارسات	-9680
▁الشفافية	-9681
▁المتكامل	-9682
▁المجاورة	-9683
▁انتخابات	-9684
▁مسؤوليات	-9685
▁الدبلوماسية	-9686
90	-9687
آر	-9688
ّص	-9689
ive	-9690
ran	-9691
ust	-9692
ازة	-9693
تلك	-9694
سال	-9695
سيب	-9696
شيد	-9697
عبي	-9698
كتر	-9699
لمَ	-9700
ناث	-9701
ياط	-9702
ّاه	-9703
▁85	-9704
▁No	-9705
▁Pr	-9706
▁Th	-9707
▁فو	-9708
أليس	-9709
أييد	-9710
اندي	-9711
بيلي	-9712
توقف	-9713
خائر	-9714
خوخة	-9715
ذرني	-9716
رتان	-9717
ركون	-9718
رواح	-9719
لبين	-9720
ماعة	-9721
يتان	-9722
▁Pro	-9723
▁تجر	-9724
▁تنس	-9725
▁رمز	-9726
▁سمي	-9727
▁قات	-9728
▁كيت	-9729
▁منس	-9730
▁هير	-9731
▁ودع	-9732
▁وعي	-9733
-2007	-9734
بيعات	-9735
سيارة	-9736
عاهدة	-9737
▁أصغر	-9738
▁اصمت	-9739
▁الصي	-9740
▁الطف	-9741
▁بريط	-9742
▁تغطي	-9743
▁جائع	-9744
▁حالا	-9745
▁ستيف	-9746
▁صوتك	-9747
▁عمره	-9748
▁قدما	-9749
▁قولي	-9750
▁لَمْ	-9751
▁متوت	-9752
▁مدهش	-9753
▁يتسم	-9754
▁يدور	-9755
▁يقضي	-9756
داولات	-9757
▁أنّني	-9758
▁اتحدث	-9759
▁الإحت	-9760
▁تذهبي	-9761
▁تعرفه	-9762
▁تمكين	-9763
▁حيوان	-9764
▁دوليا	-9765
▁زوجها	-9766
▁سابقة	-9767
▁شهادة	-9768
▁طبعاً	-9769
▁عادية	-9770
▁عوامل	-9771
▁غاضبة	-9772
▁غيرها	-9773
▁قدمها	-9774
▁قديمة	-9775
▁كفاءة	-9776
▁متعدد	-9777
▁مقدار	-9778
▁نتكلم	-9779
▁ننتظر	-9780
▁وتشير	-9781
▁وفضلا	-9782
▁أتساءل	-9783
▁البيئي	-9784
▁التحدي	-9785
▁السنين	-9786
▁السويد	-9787
▁العزيز	-9788
▁الفراش	-9789
▁الفرقة	-9790
▁الليله	-9791
▁اليسار	-9792
▁بإعادة	-9793
▁بفيروس	-9794
▁بمرحلة	-9795
▁تريدون	-9796
▁ثانياً	-9797
▁أنشطتها	-9798
▁استخدمت	-9799
▁التطبيق	-9800
▁التعديل	-9801
▁التوازن	-9802
▁الغذائي	-9803
▁المراكز	-9804
▁المصالح	-9805
▁الملازم	-9806
▁الاحتفاظ	-9807
▁الشراكات	-9808
▁الكيانات	-9809
▁المشردين	-9810
▁والولايات	-9811
▁يوغوسلافيا	-9812
fs	-9813
if	-9814
ue	-9815
أى	-9816
صق	-9817
اهة	-9818
ايل	-9819
باي	-9820
تشا	-9821
حاض	-9822
طني	-9823
غيب	-9824
قسم	-9825
هيم	-9826
َّل	-9827
▁عَ	-9828
▁فم	-9829
أعرف	-9830
ارين	-9831
تيان	-9832
جنون	-9833
جهيز	-9834
جواب	-9835
دارس	-9836
عاقب	-9837
عيات	-9838
لاند	-9839
لعاب	-9840
هيار	-9841
▁105	-9842
▁400	-9843
▁أوق	-9844
▁بتش	-9845
▁برف	-9846
▁ككل	-9847
▁وسل	-9848
▁ووز	-9849
▁يحد	-9850
انسيس	-9851
كلارك	-9852
والتر	-9853
▁1992	-9854
▁أحبّ	-9855
▁أعدت	-9856
▁أعلن	-9857
▁أكتب	-9858
▁النس	-9859
▁بروك	-9860
▁تثير	-9861
▁تحفظ	-9862
▁جندي	-9863
▁حاضر	-9864
▁شخصي	-9865
▁عيون	-9866
▁فخور	-9867
▁مشاع	-9868
▁وجرى	-9869
▁وهنا	-9870
▁يحضر	-9871
قصائية	-9872
▁إبتعد	-9873
▁الفوز	-9874
▁المتط	-9875
▁المره	-9876
▁جزيرة	-9877
▁ذهبنا	-9878
▁رأيتك	-9879
▁روسيا	-9880
▁ظننتُ	-9881
▁عمرها	-9882
▁لوحدي	-9883
▁مسرور	-9884
▁وضمان	-9885
▁ونظرا	-9886
▁ويبدو	-9887
▁ويقدم	-9888
▁يرتدي	-9889
▁أمريكي	-9890
▁اعتراض	-9891
▁الإيدز	-9892
▁الجدار	-9893
▁الحاكم	-9894
▁السواء	-9895
▁العقيد	-9896
▁الكلاب	-9897
▁المجلد	-9898
▁النسبة	-9899
▁النفسي	-9900
▁النهار	-9901
▁الهوية	-9902
▁انتهيت	-9903
▁انعدام	-9904
▁بإدارة	-9905
▁بتاريخ	-9906
▁تحركوا	-9907
▁تكونين	-9908
▁حكومات	-9909
▁حياتها	-9910
▁سريعاً	-9911
▁لأنشطة	-9912
▁لسنوات	-9913
▁للفقرة	-9914
▁للقرار	-9915
▁مطلقاً	-9916
▁الإصابة	-9917
▁الاطلاق	-9918
▁الحقيبة	-9919
▁الشواغل	-9920
▁المفتاح	-9921
▁توجيهية	-9922
▁وبالرغم	-9923
▁ومؤسسات	-9924
▁الصناديق	-9925
▁المانحين	-9926
▁المتابعة	-9927
▁بالإدارة	-9928
▁والإدارة	-9929
▁والجريمة	-9930
▁والدولية	-9931
▁الاستمرار	-9932
▁الجغرافية	-9933
▁المعاملات	-9934
▁الاتفاقيات	-9935
▁الديمقراطي	-9936
PR	-9937
خْ	-9938
غن	-9939
فص	-9940
قْ	-9941
كه	-9942
ine	-9943
man	-9944
أوه	-9945
تمس	-9946
جيف	-9947
رغب	-9948
ريز	-9949
ساً	-9950
شال	-9951
ناط	-9952
وتك	-9953
▁قس	-9954
ence	-9955
بقري	-9956
حاكم	-9957
دولة	-9958
زعجة	-9959
ظهرت	-9960
ظومة	-9961
غبين	-9962
قُول	-9963
نوان	-9964
وارب	-9965
ودين	-9966
يازة	-9967
يتهم	-9968
▁احض	-9969
▁انط	-9970
▁رئي	-9971
▁سأل	-9972
▁صيد	-9973
▁ظلت	-9974
▁كذب	-9975
▁متر	-9976
▁مرش	-9977
▁نحت	-9978
▁نهر	-9979
▁وأك	-9980
▁يمك	-9981
/2006	-9982
حاكمة	-9983
ختيار	-9984
فجرات	-9985
هامات	-9986
واتيا	-9987
ورنيا	-9988
▁آخرى	-9989
▁أنشأ	-9990
▁اضطر	-9991
▁اكبر	-9992
▁الأل	-9993
▁الشف	-9994
▁بحوز	-9995
▁بهما	-9996
▁تسلم	-9997
▁تقدر	-9998
▁تنام	-9999
▁جواز	-10000
▁حملة	-10001
▁خبير	-10002
▁زلنا	-10003
▁ساحة	-10004
▁سنين	-10005
▁عنكِ	-10006
▁غاضب	-10007
▁فران	-10008
▁قدمه	-10009
▁لمست	-10010
▁مخطط	-10011
▁مسجل	-10012
▁وتحث	-10013
▁يؤيد	-10014
ريتريا	-10015
لفزيون	-10016
▁آخرون	-10017
▁أسنان	-10018
▁أسواق	-10019
▁إلقاء	-10020
▁الأطل	-10021
▁التقي	-10022
▁الجنا	-10023
▁الجنة	-10024
▁الحدث	-10025
▁الشوا	-10026
▁اللبن	-10027
▁المدن	-10028
▁اليها	-10029
▁بعدما	-10030
▁روبرت	-10031
▁عموما	-10032
▁قريبة	-10033
▁لنفسي	-10034
▁مسموح	-10035
▁معدات	-10036
▁واثقة	-10037
▁وتقدم	-10038
▁وطلبت	-10039
▁يشارك	-10040
▁يغادر	-10041
▁أخبرته	-10042
▁الحديد	-10043
▁الزفاف	-10044
▁الطفلة	-10045
▁العادي	-10046
▁القارب	-10047
▁المتهم	-10048
▁المريض	-10049
▁الملكة	-10050
▁انتظار	-10051
▁بصيغته	-10052
▁تقصدين	-10053
▁جميعهم	-10054
▁دولارا	-10055
▁صناديق	-10056
▁مفاجأة	-10057
▁والأمم	-10058
▁إيجابية	-10059
▁إيطاليا	-10060
▁الأغنية	-10061
▁الجنرال	-10062
▁الراهنة	-10063
▁لمراقبة	-10064
▁والقضاء	-10065
▁الأميركي	-10066
▁الاحتجاز	-10067
▁التشيكية	-10068
▁2002-2003	-10069
▁الإحصائية	-10070
▁الإنتاجية	-10071
▁الإيجابية	-10072
▁المتكاملة	-10073
▁الاستعراضي	-10074
16	-10075
رْ	-10076
فْ	-10077
َح	-10078
end	-10079
أسف	-10080
ائص	-10081
تحت	-10082
تير	-10083
ثيف	-10084
خرس	-10085
دها	-10086
صرة	-10087
صين	-10088
فار	-10089
لاي	-10090
هاج	-10091
وجر	-10092
ولو	-10093
يدا	-10094
▁اط	-10095
▁حج	-10096
▁عز	-10097
▁غد	-10098
أكثر	-10099
إذاً	-10100
براط	-10101
تاين	-10102
حسنٌ	-10103
خيرة	-10104
عبئة	-10105
عترف	-10106
غلقت	-10107
مثيل	-10108
وائل	-10109
وديا	-10110
▁11-	-10111
▁con	-10112
▁pro	-10113
▁أبر	-10114
▁أعض	-10115
▁اصط	-10116
▁انض	-10117
▁انى	-10118
▁تاي	-10119
▁تحق	-10120
▁جيف	-10121
▁حصة	-10122
▁ريد	-10123
▁شام	-10124
▁طاب	-10125
▁فمك	-10126
▁نام	-10127
بادلة	-10128
عينات	-10129
هادات	-10130
▁أجري	-10131
▁أجعل	-10132
▁أظهر	-10133
▁أفقد	-10134
▁أنجز	-10135
▁ابقي	-10136
▁اعمل	-10137
▁بريد	-10138
▁تحكم	-10139
▁تشبه	-10140
▁تعجب	-10141
▁جيمي	-10142
▁خطأي	-10143
▁دقيق	-10144
▁دوري	-10145
▁سَيَ	-10146
▁ضحية	-10147
▁عادل	-10148
▁عالي	-10149
▁قارب	-10150
▁لرصد	-10151
▁متجر	-10152
▁مصرف	-10153
▁مقرف	-10154
▁ورائ	-10155
▁ورصد	-10156
▁ولدت	-10157
▁يؤمن	-10158
▁يخضع	-10159
▁أعرفك	-10160
▁أنشأت	-10161
▁أنشئت	-10162
▁الاول	-10163
▁البرت	-10164
▁الجسم	-10165
▁الصبي	-10166
▁الصيف	-10167
▁المخا	-10168
▁المعم	-10169
▁بجدية	-10170
▁تتولى	-10171
▁تقنية	-10172
▁ثقافة	-10173
▁جمعية	-10174
▁عائلت	-10175
▁للهول	-10176
▁ماهذا	-10177
▁مراقب	-10178
▁نظراً	-10179
▁وعليه	-10180
▁وقدمت	-10181
▁ينطوي	-10182
▁أنظروا	-10183
▁افتتاح	-10184
▁التحرك	-10185
▁الحادث	-10186
▁الحانة	-10187
▁الخطوة	-10188
▁الستين	-10189
▁السّيد	-10190
▁العالي	-10191
▁القرية	-10192
▁المسدس	-10193
▁بوسعنا	-10194
▁جميعكم	-10195
▁داخليا	-10196
▁سويسرا	-10197
▁طريقنا	-10198
▁عائلتك	-10199
▁متزايد	-10200
▁ممتعاً	-10201
▁وأخيرا	-10202
▁واشنطن	-10203
▁وبينما	-10204
▁استثمار	-10205
▁الأدوية	-10206
▁الأوضاع	-10207
▁التمثيل	-10208
▁الخلفية	-10209
▁الفعالة	-10210
▁النموذج	-10211
▁الوقاية	-10212
▁الولادة	-10213
▁تحتاجين	-10214
▁ومنظمات	-10215
▁يُمكنني	-10216
▁الفقرتين	-10217
▁المباشرة	-10218
▁المجرمين	-10219
▁المستحيل	-10220
▁الملائمة	-10221
▁الميداني	-10222
▁بالأشخاص	-10223
▁لأفريقيا	-10224
▁التعليقات	-10225
▁المشتريات	-10226
▁المقترحات	-10227
▁الاستئماني	-10228
▁الانبعاثات	-10229
▁والممارسات	-10230
17	-10231
ظف	-10232
قن	-10233
/23	-10234
أحب	-10235
افت	-10236
الط	-10237
حال	-10238
حتي	-10239
حون	-10240
راص	-10241
صيد	-10242
طيف	-10243
غوا	-10244
فرا	-10245
همت	-10246
ِّي	-10247
▁2)	-10248
▁Ad	-10249
▁UN	-10250
جهات	-10251
خطاء	-10252
رابط	-10253
سنين	-10254
عالج	-10255
عوام	-10256
فسية	-10257
فكّر	-10258
ناسب	-10259
ومات	-10260
▁أور	-10261
▁إشت	-10262
▁ترج	-10263
▁تعم	-10264
▁تقم	-10265
▁ثقة	-10266
▁دام	-10267
▁شهد	-10268
▁عاص	-10269
▁عثر	-10270
▁فين	-10271
▁كور	-10272
▁لإي	-10273
▁للي	-10274
▁مدر	-10275
▁مدف	-10276
▁موف	-10277
أليكس	-10278
عودية	-10279
فاقات	-10280
قتصاد	-10281
مايكا	-10282
▁أشكر	-10283
▁أصول	-10284
▁الاف	-10285
▁بحسب	-10286
▁تراه	-10287
▁حانة	-10288
▁دورك	-10289
▁رجلا	-10290
▁سَتَ	-10291
▁عميق	-10292
▁عمّا	-10293
▁غبية	-10294
▁قصير	-10295
▁لعدة	-10296
▁لموظ	-10297
▁لِمَ	-10298
▁مبنى	-10299
▁مرتك	-10300
▁مفوض	-10301
▁مكاف	-10302
▁ملكة	-10303
▁منصب	-10304
▁منطق	-10305
▁نأخذ	-10306
▁نظيف	-10307
▁هنري	-10308
▁وسيا	-10309
▁وطني	-10310
▁يبذل	-10311
▁يسعى	-10312
▁يوفر	-10313
حقاقات	-10314
▁أسلوب	-10315
▁أفعال	-10316
▁أوقات	-10317
▁إغلاق	-10318
▁الثمن	-10319
▁الخلي	-10320
▁الروح	-10321
▁الظهر	-10322
▁العكس	-10323
▁العمي	-10324
▁المقي	-10325
▁تغادر	-10326
▁جزيلا	-10327
▁ستصبح	-10328
▁صحيحة	-10329
▁فترات	-10330
▁كابتن	-10331
▁لأكثر	-10332
▁لنظام	-10333
▁ليشتي	-10334
▁متحمس	-10335
▁والإد	-10336
▁ومكتب	-10337
▁ويجوز	-10338
▁ويشمل	-10339
▁الغاية	-10340
▁اللاتي	-10341
▁المحضر	-10342
▁المصاب	-10343
▁المنهج	-10344
▁بامكان	-10345
▁تعطيني	-10346
▁قدرتها	-10347
▁لتشجيع	-10348
▁للعودة	-10349
▁مغادرة	-10350
▁والصنا	-10351
▁أعمالها	-10352
▁استحداث	-10353
▁الجماعي	-10354
▁السلبية	-10355
▁المعركة	-10356
▁تخبريني	-10357
▁مناقشات	-10358
▁والبيئة	-10359
▁الضمانات	-10360
▁المرشحين	-10361
▁المفاتيح	-10362
▁المنظومة	-10363
▁بالأطفال	-10364
▁التعديلات	-10365
▁الفيدرالي	-10366
▁الموجودات	-10367
▁والسياسات	-10368
SR	-10369
ثى	-10370
جْ	-10371
▁%	-10372
/16	-10373
ary	-10374
ere	-10375
ish	-10376
ئتم	-10377
ادة	-10378
بوت	-10379
تبع	-10380
جهز	-10381
خلك	-10382
درب	-10383
دّة	-10384
شيش	-10385
صرخ	-10386
متى	-10387
نوب	-10388
ودع	-10389
يرا	-10390
▁69	-10391
▁زب	-10392
▁قَ	-10393
ited	-10394
امرة	-10395
بريط	-10396
تايل	-10397
خبار	-10398
دايا	-10399
رجاع	-10400
رياً	-10401
سبية	-10402
صدير	-10403
ماذج	-10404
وفيق	-10405
وقّف	-10406
ّرات	-10407
▁أنى	-10408
▁بإي	-10409
▁باي	-10410
▁بتص	-10411
▁بسب	-10412
▁حضر	-10413
▁ضبط	-10414
▁فأن	-10415
▁قار	-10416
▁كسب	-10417
▁نوم	-10418
▁وأج	-10419
▁يَت	-10420
كتورة	-10421
▁para	-10422
▁that	-10423
▁أبدأ	-10424
▁أجلس	-10425
▁أحدث	-10426
▁أشير	-10427
▁اتفق	-10428
▁اجعل	-10429
▁استع	-10430
▁الرّ	-10431
▁الضي	-10432
▁بارت	-10433
▁بالو	-10434
▁بحاج	-10435
▁تجلس	-10436
▁تدعى	-10437
▁تلمس	-10438
▁تنشأ	-10439
▁دماغ	-10440
▁رأسه	-10441
▁سأجد	-10442
▁سائق	-10443
▁سَأَ	-10444
▁ضعيف	-10445
▁ظهور	-10446
▁فإذا	-10447
▁كارل	-10448
▁كافي	-10449
▁كجزء	-10450
▁كوكب	-10451
▁لانك	-10452
▁مائة	-10453
▁متعب	-10454
▁مررت	-10455
▁مميز	-10456
▁ننظر	-10457
▁يدرك	-10458
▁يمنع	-10459
▁أعترف	-10460
▁أوامر	-10461
▁احتفظ	-10462
▁الأنت	-10463
▁السحر	-10464
▁السكر	-10465
▁العجز	-10466
▁المحك	-10467
▁المخل	-10468
▁بدأنا	-10469
▁تحديث	-10470
▁تستند	-10471
▁تمديد	-10472
▁توضيح	-10473
▁جدّاً	-10474
▁حديقة	-10475
▁رومان	-10476
▁سيقتل	-10477
▁شبكات	-10478
▁فيديو	-10479
▁قنبلة	-10480
▁كلارك	-10481
▁للقلق	-10482
▁مثلاً	-10483
▁مستمر	-10484
▁ممتلك	-10485
▁نفقات	-10486
▁واصلت	-10487
▁(1999)	-10488
▁البنوك	-10489
▁التأكد	-10490
▁الخبير	-10491
▁السوفي	-10492
▁الشريط	-10493
▁المعرض	-10494
▁النفاذ	-10495
▁بأنّنا	-10496
▁بطبيعة	-10497
▁تستهدف	-10498
▁سيارات	-10499
▁فلسطين	-10500
▁كلاهما	-10501
▁لتقييم	-10502
▁مكالمة	-10503
▁وخدمات	-10504
▁الأسماء	-10505
▁الأطباء	-10506
▁الإغاثة	-10507
▁التجارب	-10508
▁التشريع	-10509
▁التغذية	-10510
▁الخاضعة	-10511
▁العقلية	-10512
▁المختبر	-10513
▁بمناسبة	-10514
▁مستعدون	-10515
▁ميانمار	-10516
▁ووكالات	-10517
▁أستراليا	-10518
▁السابقين	-10519
▁المتبقية	-10520
▁المحافظة	-10521
▁المستشار	-10522
▁بالمقارنة	-10523
▁والتكنولوج	-10524
-5	-10525
NF	-10526
se	-10527
ard	-10528
ائح	-10529
برغ	-10530
جئة	-10531
جيء	-10532
جيس	-10533
ركم	-10534
ساي	-10535
غرب	-10536
فري	-10537
يجي	-10538
َّة	-10539
َّم	-10540
ِّم	-10541
ّمت	-10542
▁ch	-10543
▁ذه	-10544
▁طن	-10545
ارقة	-10546
دهور	-10547
زلنا	-10548
شرية	-10549
ضحية	-10550
كواد	-10551
لغاء	-10552
مائة	-10553
مادي	-10554
هرية	-10555
ُبَّ	-10556
▁00:	-10557
▁أيد	-10558
▁باد	-10559
▁برؤ	-10560
▁تشي	-10561
▁تمك	-10562
▁حجز	-10563
▁درس	-10564
▁زاد	-10565
▁سفر	-10566
▁شرب	-10567
▁شقة	-10568
▁صبا	-10569
▁فصل	-10570
▁مشغ	-10571
▁ممل	-10572
▁وأم	-10573
ساءلة	-10574
▁أسود	-10575
▁أشبه	-10576
▁أموت	-10577
▁إفتح	-10578
▁البص	-10579
▁التب	-10580
▁الفن	-10581
▁القل	-10582
▁القن	-10583
▁بانك	-10584
▁تحسن	-10585
▁تعكس	-10586
▁تهدد	-10587
▁حظيت	-10588
▁خسرت	-10589
▁سكوت	-10590
▁سهلة	-10591
▁شريط	-10592
▁شيلي	-10593
▁طاقة	-10594
▁طيبة	-10595
▁ظهرت	-10596
▁عاتق	-10597
▁عقود	-10598
▁قلبك	-10599
▁كالم	-10600
▁مادة	-10601
▁وآخر	-10602
▁ونقل	-10603
▁يكره	-10604
▁أبناء	-10605
▁أرقام	-10606
▁اخبار	-10607
▁اصبحت	-10608
▁الأسف	-10609
▁الأفغ	-10610
▁المقص	-10611
▁تدهور	-10612
▁تعليق	-10613
▁سأترك	-10614
▁طاولة	-10615
▁عامين	-10616
▁غالبا	-10617
▁مبالغ	-10618
▁محلية	-10619
▁مرافق	-10620
▁مشروب	-10621
▁ملحوظ	-10622
▁ممكنة	-10623
▁منطقي	-10624
▁وحدها	-10625
▁ولجنة	-10626
▁يستند	-10627
▁الأخضر	-10628
▁الأمان	-10629
▁الجمال	-10630
▁العلوي	-10631
▁الكحول	-10632
▁المؤمن	-10633
▁النادي	-10634
▁الهروب	-10635
▁بالسجن	-10636
▁دائمًا	-10637
▁سبتمبر	-10638
▁سعيداً	-10639
▁قطاعات	-10640
▁مراجعي	-10641
▁موظفين	-10642
▁وإنشاء	-10643
▁والذين	-10644
▁ولايات	-10645
▁الأسنان	-10646
▁البالغة	-10647
▁الحديثة	-10648
▁الخطيرة	-10649
▁العقبات	-10650
▁الكافية	-10651
▁الكفاءة	-10652
▁المحامي	-10653
▁المصادر	-10654
▁المعروف	-10655
▁المعيشة	-10656
▁معاهدات	-10657
▁والسلام	-10658
▁والقطاع	-10659
▁السعودية	-10660
▁الوطنيين	-10661
▁للولايات	-10662
▁الإصلاحات	-10663
▁البيولوجي	-10664
▁المساهمات	-10665
ST	-10666
ah	-10667
yp	-10668
أح	-10669
إد	-10670
دأ	-10671
/17	-10672
/18	-10673
ian	-10674
oun	-10675
أثر	-10676
جيش	-10677
ددت	-10678
ديس	-10679
ذري	-10680
سكع	-10681
سول	-10682
ضيه	-10683
غوط	-10684
لاة	-10685
هلة	-10686
ِّل	-10687
▁إغ	-10688
▁خا	-10689
▁طل	-10690
port	-10691
تناع	-10692
جعلك	-10693
جوني	-10694
دياد	-10695
ديرة	-10696
سرعة	-10697
ضائع	-10698
ضاعة	-10699
طائر	-10700
علّم	-10701
غذية	-10702
فريد	-10703
كلاّ	-10704
هجرة	-10705
واتي	-10706
ودية	-10707
وفرة	-10708
ينات	-10709
▁800	-10710
▁أهو	-10711
▁اعد	-10712
▁بتم	-10713
▁بخي	-10714
▁تام	-10715
▁جيس	-10716
▁خام	-10717
▁خوف	-10718
▁داف	-10719
▁سات	-10720
▁عكس	-10721
▁كيس	-10722
▁مصد	-10723
▁ممك	-10724
▁نور	-10725
▁وتص	-10726
▁يمت	-10727
روبرت	-10728
طفولة	-10729
ناتور	-10730
▁Comm	-10731
▁آسفه	-10732
▁أصدر	-10733
▁إتصل	-10734
▁الإص	-10735
▁الاز	-10736
▁جيمس	-10737
▁دورا	-10738
▁ذلكَ	-10739
▁رؤوس	-10740
▁شجرة	-10741
▁صريح	-10742
▁عروض	-10743
▁لشيء	-10744
▁للإن	-10745
▁مؤلم	-10746
▁واصل	-10747
▁يرحب	-10748
▁يقرب	-10749
▁يمنح	-10750
▁أخبري	-10751
▁أردتُ	-10752
▁أطلقت	-10753
▁إتصال	-10754
▁التقط	-10755
▁الخلا	-10756
▁السبل	-10757
▁العدو	-10758
▁الفائ	-10759
▁المنط	-10760
▁انتقل	-10761
▁ايتها	-10762
▁تابعة	-10763
▁تستطع	-10764
▁تقدما	-10765
▁دعوني	-10766
▁سنويا	-10767
▁غرفتي	-10768
▁متأسف	-10769
▁مخطئة	-10770
▁معالج	-10771
▁ملزمة	-10772
▁أميركا	-10773
▁اكتشفت	-10774
▁البحري	-10775
▁التكلم	-10776
▁التنبؤ	-10777
▁الجولة	-10778
▁الحضور	-10779
▁الزجاج	-10780
▁الشهود	-10781
▁الغربي	-10782
▁القارة	-10783
▁الكوكب	-10784
▁المسار	-10785
▁اليمين	-10786
▁تتعامل	-10787
▁تجارية	-10788
▁تمامًا	-10789
▁خيارات	-10790
▁علامات	-10791
▁لايوجد	-10792
▁للتحدث	-10793
▁للخارج	-10794
▁للداخل	-10795
▁مشكلتك	-10796
▁ياإلهي	-10797
▁إثيوبيا	-10798
▁التعريف	-10799
▁السريعة	-10800
▁الشبكات	-10801
▁المرافق	-10802
▁المستعم	-10803
▁الوفيات	-10804
▁بالكثير	-10805
▁تقديرات	-10806
▁والمرأة	-10807
▁وتوصيات	-10808
▁التشريعي	-10809
▁الخيارات	-10810
▁الكهرباء	-10811
▁المقاطعة	-10812
▁بالتحديد	-10813
▁واتفاقية	-10814
▁وبالنسبة	-10815
▁وحمايتها	-10816
▁الاتجاهات	-10817
▁الاستئناف	-10818
▁الاستقلال	-10819
▁العسكريين	-10820
26	-10821
``	-10822
آب	-10823
بث	-10824
ain	-10825
rom	-10826
أجر	-10827
ألا	-10828
برد	-10829
جاي	-10830
خيف	-10831
داك	-10832
ركت	-10833
زاخ	-10834
زاع	-10835
ساق	-10836
غية	-10837
فاح	-10838
نفذ	-10839
وكو	-10840
َكَ	-10841
َّن	-10842
▁74	-10843
▁87	-10844
▁he	-10845
▁شو	-10846
▁نك	-10847
uman	-10848
أخبر	-10849
الفة	-10850
بيّن	-10851
تصال	-10852
رائط	-10853
سبان	-10854
مرور	-10855
نتهي	-10856
وجدت	-10857
وعاً	-10858
وغاد	-10859
▁(3)	-10860
▁اخي	-10861
▁اضط	-10862
▁بحر	-10863
▁بهِ	-10864
▁جرح	-10865
▁حرف	-10866
▁حيز	-10867
▁سلا	-10868
▁سول	-10869
▁شاذ	-10870
▁نحب	-10871
▁هيه	-10872
▁وقر	-10873
▁يقف	-10874
▁يون	-10875
ights	-10876
أهلاً	-10877
قررات	-10878
لافات	-10879
▁أؤمن	-10880
▁أسما	-10881
▁أنتى	-10882
▁اسفة	-10883
▁بصدد	-10884
▁بصوت	-10885
▁تابع	-10886
▁تجنب	-10887
▁تطور	-10888
▁تنجح	-10889
▁توصل	-10890
▁خدعة	-10891
▁دعما	-10892
▁راقب	-10893
▁رفضت	-10894
▁رفعت	-10895
▁سقطت	-10896
▁صنعت	-10897
▁فورا	-10898
▁قيود	-10899
▁لدور	-10900
▁منسق	-10901
▁نداء	-10902
▁نصيب	-10903
▁هاما	-10904
▁وارت	-10905
▁وترى	-10906
▁وثيق	-10907
▁وجبة	-10908
▁ودعا	-10909
▁يحيط	-10910
▁يسبب	-10911
▁يكذب	-10912
▁00/10	-10913
▁أحلام	-10914
▁إثارة	-10915
▁إذهبي	-10916
▁الجدد	-10917
▁الجهد	-10918
▁الضعف	-10919
▁الماس	-10920
▁المشي	-10921
▁بالتع	-10922
▁تجديد	-10923
▁تعبئة	-10924
▁حسبما	-10925
▁خطورة	-10926
▁سأحصل	-10927
▁سعداء	-10928
▁شراكة	-10929
▁لحساب	-10930
▁لشراء	-10931
▁مؤقتة	-10932
▁مثالي	-10933
▁مخاطر	-10934
▁مراحل	-10935
▁ملائم	-10936
▁والحد	-10937
▁أساعدك	-10938
▁أُريدُ	-10939
▁البنات	-10940
▁الجملة	-10941
▁الخلفي	-10942
▁المرجح	-10943
▁المطعم	-10944
▁حياتهم	-10945
▁سيارتك	-10946
▁للنظام	-10947
▁مازالت	-10948
▁نيروبي	-10949
▁الأدوات	-10950
▁الاشخاص	-10951
▁الحمراء	-10952
▁المفتوح	-10953
▁المفقود	-10954
▁للتجارب	-10955
▁مباشرةً	-10956
▁أوكرانيا	-10957
▁الأربعاء	-10958
▁الاحترام	-10959
▁الانتباه	-10960
▁المتمثلة	-10961
▁المغادرة	-10962
▁الملايين	-10963
▁للبرنامج	-10964
▁الاستغلال	-10965
▁والمساواة	-10966
▁التكنولوجيات	-10967
ey	-10968
/19	-10969
ame	-10970
ang	-10971
أيك	-10972
بحر	-10973
برع	-10974
تعة	-10975
حني	-10976
خلق	-10977
ضاي	-10978
ظرك	-10979
ماح	-10980
مَا	-10981
وزي	-10982
ويك	-10983
ياج	-10984
َّه	-10985
ّتي	-10986
▁II	-10987
▁me	-10988
ائهم	-10989
ارتي	-10990
اناً	-10991
جديد	-10992
راقي	-10993
سيمة	-10994
عدوا	-10995
فعله	-10996
قاضي	-10997
كينا	-10998
لعنة	-10999
لهذا	-11000
ليلا	-11001
مقاء	-11002
ميزة	-11003
▁htm	-11004
▁أسل	-11005
▁اهد	-11006
▁اود	-11007
▁جال	-11008
▁خسر	-11009
▁رأت	-11010
▁شاح	-11011
▁صرب	-11012
▁عهد	-11013
▁متي	-11014
-2009	-11015
ادثات	-11016
جلترا	-11017
درالي	-11018
يادين	-11019
▁أخير	-11020
▁ألقي	-11021
▁انتى	-11022
▁بإسم	-11023
▁تخلص	-11024
▁خروج	-11025
▁فوضى	-11026
▁قياس	-11027
▁لأمر	-11028
▁لسوء	-11029
▁لولا	-11030
▁مخيم	-11031
▁والض	-11032
▁وسيم	-11033
▁ولذا	-11034
▁يشجع	-11035
FFFFFF	-11036
▁أتمكن	-11037
▁أحدكم	-11038
▁أقترح	-11039
▁إبقاء	-11040
▁إعمال	-11041
▁الإيك	-11042
▁الحاج	-11043
▁الشرف	-11044
▁بيجين	-11045
▁تحتفظ	-11046
▁تحتوي	-11047
▁تمتلك	-11048
▁ثنائي	-11049
▁دعمها	-11050
▁رسميا	-11051
▁ستبقى	-11052
▁متعلق	-11053
▁هائلة	-11054
▁هاتفي	-11055
▁والوط	-11056
▁وتدعو	-11057
▁وقامت	-11058
▁وليست	-11059
▁ويمثل	-11060
▁يمتلك	-11061
▁يناسب	-11062
▁(2006)	-11063
▁الدماغ	-11064
▁السائق	-11065
▁الشرطي	-11066
▁العادة	-11067
▁بعنوان	-11068
▁تتراوح	-11069
▁جميعًا	-11070
▁داخلية	-11071
▁سيداتي	-11072
▁ضمانات	-11073
▁لإنقاذ	-11074
▁لطيفاً	-11075
▁للحدود	-11076
▁لهؤلاء	-11077
▁منهجية	-11078
▁والدعم	-11079
▁أصدقائك	-11080
▁اتخاذها	-11081
▁الإفلات	-11082
▁التكامل	-11083
▁الجزائر	-11084
▁السباحة	-11085
▁العاصمة	-11086
▁العالية	-11087
▁الكابتن	-11088
▁المساعد	-11089
▁بالمادة	-11090
▁بالمنزل	-11091
▁للتجارة	-11092
▁الانتصاف	-11093
▁المستمرة	-11094
▁النسائية	-11095
▁بالطريقة	-11096
▁لاستخدام	-11097
▁والإقليمي	-11098
▁والحكومات	-11099
▁بالتزاماتها	-11100
(2	-11101
67	-11102
uc	-11103
ؤه	-11104
هز	-11105
ert	-11106
ult	-11107
ure	-11108
الخ	-11109
تيل	-11110
ثما	-11111
فرغ	-11112
كاي	-11113
لبس	-11114
نتج	-11115
وسل	-11116
يسة	-11117
ينج	-11118
ّية	-11119
▁سؤ	-11120
▁شق	-11121
ادلة	-11122
تمنى	-11123
جزاء	-11124
خفيض	-11125
شكرا	-11126
طلعت	-11127
فصلة	-11128
كررة	-11129
كسيك	-11130
وائي	-11131
▁أمت	-11132
▁انق	-11133
▁بلق	-11134
▁حذر	-11135
▁خائ	-11136
▁صون	-11137
▁غام	-11138
▁لير	-11139
▁متف	-11140
▁مسح	-11141
▁وأح	-11142
▁وإد	-11143
▁يبت	-11144
▁يكت	-11145
لاديش	-11146
▁2011	-11147
▁with	-11148
▁أحاط	-11149
▁أسفة	-11150
▁أسوء	-11151
▁أكذب	-11152
▁أنزل	-11153
▁أوصت	-11154
▁إننى	-11155
▁ابنة	-11156
▁الزب	-11157
▁انهض	-11158
▁باله	-11159
▁بحقّ	-11160
▁بعمر	-11161
▁بمنع	-11162
▁بنود	-11163
▁تخطط	-11164
▁تعنى	-11165
▁تلكَ	-11166
▁زفاف	-11167
▁صكوك	-11168
▁عامي	-11169
▁عذرا	-11170
▁لآخر	-11171
▁لهما	-11172
▁ماما	-11173
▁متوا	-11174
▁مصاص	-11175
▁هاري	-11176
▁والو	-11177
▁وباء	-11178
▁يسهم	-11179
▁(212)	-11180
▁أبلغت	-11181
▁أحياء	-11182
▁أعمار	-11183
▁أغراض	-11184
▁أنظمة	-11185
▁اعطني	-11186
▁الثلا	-11187
▁القصر	-11188
▁المنح	-11189
▁الهرب	-11190
▁بأسرع	-11191
▁بلادي	-11192
▁تهيئة	-11193
▁رابعا	-11194
▁ستأتي	-11195
▁سمعته	-11196
▁سيطرة	-11197
▁شهرين	-11198
▁صباحا	-11199
▁عينيك	-11200
▁كارثة	-11201
▁كاملا	-11202
▁مؤخرة	-11203
▁مذهلة	-11204
▁والتس	-11205
▁وبذلك	-11206
▁وتوصي	-11207
زاخستان	-11208
▁اخبرني	-11209
▁الخمسة	-11210
▁الذكرى	-11211
▁السباق	-11212
▁السيّد	-11213
▁الشراء	-11214
▁الطلاب	-11215
▁الطلاق	-11216
▁العنصر	-11217
▁الوقوف	-11218
▁بأحكام	-11219
▁تجعلني	-11220
▁تذهبين	-11221
▁تستعمل	-11222
▁تُريدُ	-11223
▁جماعات	-11224
▁ذاهبون	-11225
▁صعوبات	-11226
▁لتنظيم	-11227
▁مبكراً	-11228
▁والاعت	-11229
▁وجدتها	-11230
▁وصندوق	-11231
▁ولكنهم	-11232
▁الأحياء	-11233
▁الأمهات	-11234
▁الأنظمة	-11235
▁الإعاقة	-11236
▁الاطلاع	-11237
▁البوابة	-11238
▁البيضاء	-11239
▁الشجاعة	-11240
▁الشمالي	-11241
▁المشاعر	-11242
▁المعتاد	-11243
▁الملفات	-11244
▁للتنفيذ	-11245
▁للحكومة	-11246
▁والتزام	-11247
▁الائتمان	-11248
▁المباراة	-11249
▁انتقالية	-11250
▁والاتجار	-11251
▁والرعاية	-11252
▁2006-2007	-11253
▁نيوزيلندا	-11254
▁بالمعلومات	-11255
22	-11256
85	-11257
CE	-11258
ly	-11259
جى	-11260
فّ	-11261
قس	-11262
وذ	-11263
▁/	-11264
erv	-11265
ord	-11266
بوا	-11267
جوب	-11268
داب	-11269
دال	-11270
زية	-11271
سمي	-11272
شرف	-11273
صنع	-11274
عوا	-11275
كير	-11276
وّة	-11277
ينت	-11278
َني	-11279
ْني	-11280
▁(3	-11281
▁84	-11282
▁؟"	-11283
▁جث	-11284
▁رُ	-11285
▁شُ	-11286
▁ضح	-11287
▁كو	-11288
ارتك	-11289
بوبي	-11290
جزين	-11291
خراً	-11292
دهار	-11293
ذارة	-11294
ذاكر	-11295
سيكي	-11296
صادر	-11297
صباح	-11298
عليك	-11299
فعول	-11300
فيين	-11301
مثلة	-11302
ملها	-11303
هانة	-11304
يدات	-11305
ينما	-11306
ّيلة	-11307
▁أوز	-11308
▁امس	-11309
▁بحد	-11310
▁بمت	-11311
▁بوش	-11312
▁تسب	-11313
▁تهد	-11314
▁جول	-11315
▁حدد	-11316
▁سأح	-11317
▁صلب	-11318
▁عجب	-11319
▁عظي	-11320
▁لتع	-11321
▁مزر	-11322
▁مير	-11323
ارتها	-11324
ثيراً	-11325
داقية	-11326
ديفيد	-11327
ماعات	-11328
▁Corr	-11329
▁أحدا	-11330
▁أكدت	-11331
▁أنسى	-11332
▁أنكَ	-11333
▁الخر	-11334
▁الكا	-11335
▁بجان	-11336
▁ترسل	-11337
▁تشدد	-11338
▁تكتب	-11339
▁تنقل	-11340
▁جلبت	-11341
▁خبرة	-11342
▁دعنى	-11343
▁سأست	-11344
▁علبة	-11345
▁ممتع	-11346
▁نجعل	-11347
▁نيجي	-11348
▁هذهِ	-11349
▁ودول	-11350
▁يصدر	-11351
▁أحداث	-11352
▁أرادت	-11353
▁أرجاء	-11354
▁أُريد	-11355
▁اتعلم	-11356
▁اختفى	-11357
▁التزا	-11358
▁الخبز	-11359
▁الخطب	-11360
▁الخمر	-11361
▁العرب	-11362
▁الورق	-11363
▁بالمج	-11364
▁تأخرت	-11365
▁تتعرض	-11366
▁تتمثل	-11367
▁تساهم	-11368
▁تعلمت	-11369
▁تفتيش	-11370
▁تقاسم	-11371
▁تقترح	-11372
▁ديفيد	-11373
▁كيوتو	-11374
▁مارتن	-11375
▁ملكية	-11376
▁منظور	-11377
▁نووية	-11378
▁وأخبر	-11379
▁وقرار	-11380
▁يعجبك	-11381
▁يوافق	-11382
جتماعات	-11383
ُبَّمَا	-11384
▁اخبرتك	-11385
▁التطور	-11386
▁الرسول	-11387
▁الكرسي	-11388
▁المثير	-11389
▁المرتك	-11390
▁بتمويل	-11391
▁بمسألة	-11392
▁تعملين	-11393
▁جلستها	-11394
▁جماعية	-11395
▁سأعطيك	-11396
▁مهارات	-11397
▁والعنف	-11398
▁وستكون	-11399
▁يعلمون	-11400
▁استئناف	-11401
▁الأرواح	-11402
▁الأصوات	-11403
▁الأضرار	-11404
▁الإبادة	-11405
▁الترجمة	-11406
▁التفاهم	-11407
▁السليمة	-11408
▁الضعيفة	-11409
▁العناية	-11410
▁القراءة	-11411
▁المسافة	-11412
▁المعارف	-11413
▁تعديلات	-11414
▁للأنشطة	-11415
▁مجتمعات	-11416
▁أذربيجان	-11417
▁أَستطيعُ	-11418
▁اجتماعية	-11419
▁الثقافات	-11420
▁الصعوبات	-11421
▁المراجعة	-11422
▁المستحقة	-11423
▁بالتنمية	-11424
▁لايمكنني	-11425
▁لمساعدتك	-11426
▁والأفراد	-11427
▁وتنفيذها	-11428
▁الدستورية	-11429
13	-11430
==	-11431
SB	-11432
oh	-11433
دك	-11434
عُ	-11435
itt	-11436
أبي	-11437
انو	-11438
بما	-11439
تهى	-11440
ردد	-11441
ردن	-11442
شاه	-11443
صبة	-11444
كاس	-11445
لذا	-11446
لست	-11447
مّل	-11448
نائ	-11449
هاً	-11450
هدت	-11451
وده	-11452
وكِ	-11453
وّر	-11454
▁95	-11455
▁En	-11456
▁is	-11457
▁آم	-11458
▁إط	-11459
▁حف	-11460
▁كح	-11461
/58/	-11462
الما	-11463
باست	-11464
ثبات	-11465
ددًا	-11466
سامة	-11467
ظهار	-11468
عارض	-11469
قايا	-11470
قدرة	-11471
قدّر	-11472
قوله	-11473
هلية	-11474
يتون	-11475
▁أذك	-11476
▁تحض	-11477
▁تَت	-11478
▁جوا	-11479
▁دعه	-11480
▁رود	-11481
▁شبح	-11482
▁فرع	-11483
▁فهل	-11484
▁قصص	-11485
▁قفز	-11486
▁متش	-11487
▁نسخ	-11488
▁وتك	-11489
▁ومر	-11490
▁يبق	-11491
-2005	-11492
باتات	-11493
برياء	-11494
تريال	-11495
شفيات	-11496
يسبول	-11497
▁أبيض	-11498
▁أمزح	-11499
▁إهدأ	-11500
▁اقتر	-11501
▁بابا	-11502
▁بارك	-11503
▁بَعْ	-11504
▁تجرب	-11505
▁تسهم	-11506
▁تصرخ	-11507
▁تقرأ	-11508
▁جعلك	-11509
▁جهات	-11510
▁رأيي	-11511
▁ستجد	-11512
▁طفلة	-11513
▁عثرت	-11514
▁عمرك	-11515
▁عنده	-11516
▁قتلي	-11517
▁ليوم	-11518
▁مقعد	-11519
▁وتلك	-11520
▁ونزع	-11521
▁ويرى	-11522
▁يبقي	-11523
▁يدعم	-11524
▁يعكس	-11525
▁يورو	-11526
▁أراها	-11527
▁أمنية	-11528
▁أهناك	-11529
▁إرهاب	-11530
▁إستمر	-11531
▁اتذكر	-11532
▁الحرة	-11533
▁اللائ	-11534
▁المتن	-11535
▁المسب	-11536
▁بيساو	-11537
▁تختار	-11538
▁تصريح	-11539
▁تفضلي	-11540
▁تنطبق	-11541
▁تُريد	-11542
▁ثابتة	-11543
▁حاسمة	-11544
▁صناعة	-11545
▁عصابة	-11546
▁قائلة	-11547
▁لأجلك	-11548
▁لاشيء	-11549
▁مضمون	-11550
▁مقدمي	-11551
▁والتش	-11552
▁وبدون	-11553
▁وتبين	-11554
▁يأتون	-11555
▁أوغندا	-11556
▁إخباري	-11557
▁اكتشاف	-11558
▁الأزرق	-11559
▁التكيف	-11560
▁الحليب	-11561
▁الراحة	-11562
▁القريب	-11563
▁القسري	-11564
▁المتجر	-11565
▁المدرج	-11566
▁النمسا	-11567
▁بالمال	-11568
▁بطاقات	-11569
▁تبرعات	-11570
▁تتخذها	-11571
▁تنفيذا	-11572
▁خلالها	-11573
▁سينتهي	-11574
▁صديقتك	-11575
▁طبيعية	-11576
▁قضائية	-11577
▁للعشاء	-11578
▁مثالية	-11579
▁معقولة	-11580
▁ملابسك	-11581
▁مناهضة	-11582
▁وتطوير	-11583
▁يعانون	-11584
▁اقتصادي	-11585
▁الآخرون	-11586
▁الأفلام	-11587
▁البديلة	-11588
▁التفويض	-11589
▁التوعية	-11590
▁الحائزة	-11591
▁السوداء	-11592
▁الطارئة	-11593
▁المذكرة	-11594
▁المنخفض	-11595
▁اليومية	-11596
▁بالأسفل	-11597
▁تدريبية	-11598
▁تواجهها	-11599
▁نيجيريا	-11600
▁وبالنظر	-11601
▁اعتمدتها	-11602
▁المحليين	-11603
▁المستدام	-11604
▁المهارات	-11605
▁بالألغام	-11606
▁للمنظمات	-11607
▁المستفادة	-11608
▁والتدابير	-11609
▁تكنولوجيات	-11610
**	-11611
37	-11612
ik	-11613
na	-11614
ؤك	-11615
زه	-11616
طس	-11617
ِف	-11618
/54	-11619
ئين	-11620
اما	-11621
تيك	-11622
حظى	-11623
خدر	-11624
دور	-11625
رقم	-11626
شان	-11627
لند	-11628
نعة	-11629
واه	-11630
يلز	-11631
▁78	-11632
▁بز	-11633
▁صك	-11634
▁قن	-11635
أعلم	-11636
ادفة	-11637
ارته	-11638
بطال	-11639
ثيرا	-11640
سافر	-11641
سكوا	-11642
ضاعف	-11643
طباء	-11644
طفاء	-11645
كملة	-11646
كوني	-11647
ليين	-11648
ماكن	-11649
هاجم	-11650
▁آدم	-11651
▁آلي	-11652
▁إدخ	-11653
▁برج	-11654
▁جاي	-11655
▁جوي	-11656
▁حلف	-11657
▁دوم	-11658
▁دير	-11659
▁سلم	-11660
▁صال	-11661
▁عجز	-11662
▁عشي	-11663
▁غيب	-11664
▁مبد	-11665
▁منص	-11666
▁مُن	-11667
▁نمط	-11668
▁وبت	-11669
▁وبع	-11670
▁وحش	-11671
الفات	-11672
راسات	-11673
زامية	-11674
عرفين	-11675
عمَلُ	-11676
وظائف	-11677
▁أختك	-11678
▁أخري	-11679
▁أسهل	-11680
▁أصبت	-11681
▁إسمي	-11682
▁إفعل	-11683
▁اطلب	-11684
▁النّ	-11685
▁باقي	-11686
▁بالي	-11687
▁بيرو	-11688
▁تشرب	-11689
▁تشهد	-11690
▁تمهل	-11691
▁دافع	-11692
▁دينا	-11693
▁رسال	-11694
▁شهود	-11695
▁فصاع	-11696
▁قِبل	-11697
▁كونك	-11698
▁للان	-11699
▁للغا	-11700
▁مدار	-11701
▁مزحة	-11702
▁مغلق	-11703
▁ملاك	-11704
▁نرحب	-11705
▁وعدت	-11706
▁ونرى	-11707
▁يحقق	-11708
ساعدني	-11709
▁00/15	-11710
▁أخبره	-11711
▁أدركت	-11712
▁أعتبر	-11713
▁أعلنت	-11714
▁أفتقد	-11715
▁أوائل	-11716
▁إخراج	-11717
▁اسبوع	-11718
▁الأحد	-11719
▁الأخر	-11720
▁الأمد	-11721
▁انتبه	-11722
▁بأنفس	-11723
▁تبدوا	-11724
▁تعترض	-11725
▁تقييد	-11726
▁خسائر	-11727
▁درجات	-11728
▁صراحة	-11729
▁عادلة	-11730
▁عشرون	-11731
▁فضلكم	-11732
▁كلياً	-11733
▁لابأس	-11734
▁للعيش	-11735
▁مزيدا	-11736
▁مفاده	-11737
▁مفقود	-11738
▁ملاحظ	-11739
▁وجهها	-11740
▁وخصوص	-11741
▁وقتها	-11742
▁يقترح	-11743
▁يمارس	-11744
▁أفعلها	-11745
▁الأشهر	-11746
▁الحبوب	-11747
▁المؤكد	-11748
▁المبكر	-11749
▁المخاب	-11750
▁المعدل	-11751
▁النائب	-11752
▁الهدوء	-11753
▁قادمون	-11754
▁قيمتها	-11755
▁متأكّد	-11756
▁ملتزمة	-11757
▁واتخاذ	-11758
▁وغيرهم	-11759
بريطانيا	-11760
▁إنسانية	-11761
▁الأخلاق	-11762
▁الإضافي	-11763
▁الإعسار	-11764
▁الخبرات	-11765
▁الرؤساء	-11766
▁المبينة	-11767
▁المحافظ	-11768
▁المرسوم	-11769
▁الممكنة	-11770
▁النتيجة	-11771
▁النفسية	-11772
▁تفعلينه	-11773
▁لمناقشة	-11774
▁واحترام	-11775
▁وعمليات	-11776
▁الصادرات	-11777
▁الموظفون	-11778
▁بالأعمال	-11779
▁للمشاركة	-11780
▁والمبادئ	-11781
▁والمسائل	-11782
▁التقاعدية	-11783
▁المشاركون	-11784
▁الفيدرالية	-11785
▁بالإسبانية	-11786
24	-11787
ew	-11788
صح	-11789
ong	-11790
اتب	-11791
اهر	-11792
بيك	-11793
ثيو	-11794
جلي	-11795
خذت	-11796
سيت	-11797
طبخ	-11798
عاع	-11799
كته	-11800
كرا	-11801
مله	-11802
وزع	-11803
وطة	-11804
يرغ	-11805
ُكِ	-11806
ّذي	-11807
▁79	-11808
▁an	-11809
▁هز	-11810
ابيث	-11811
اربة	-11812
اليد	-11813
تومي	-11814
ثيرة	-11815
ردين	-11816
ريضة	-11817
سأله	-11818
شراف	-11819
عْمل	-11820
فلسط	-11821
ناهم	-11822
واتل	-11823
وافر	-11824
وهات	-11825
ّداً	-11826
▁أحس	-11827
▁أطف	-11828
▁إنْ	-11829
▁تشا	-11830
▁تضر	-11831
▁حوض	-11832
▁دقي	-11833
▁سوي	-11834
▁فيت	-11835
▁كره	-11836
▁لفت	-11837
▁لَر	-11838
▁هاى	-11839
▁وأت	-11840
▁وإي	-11841
▁وتض	-11842
▁يسر	-11843
إنّها	-11844
حسنًا	-11845
قاقير	-11846
لازمة	-11847
مائية	-11848
ميلية	-11849
واتير	-11850
▁أسرة	-11851
▁أسقط	-11852
▁أقرأ	-11853
▁إسمه	-11854
▁اراك	-11855
▁ارسل	-11856
▁ارفع	-11857
▁اسمح	-11858
▁الخا	-11859
▁المظ	-11860
▁الوص	-11861
▁امام	-11862
▁ايام	-11863
▁بربك	-11864
▁بلاغ	-11865
▁تعقب	-11866
▁رؤيت	-11867
▁ستان	-11868
▁سرير	-11869
▁صغار	-11870
▁فشلت	-11871
▁قائم	-11872
▁قدمي	-11873
▁لكنت	-11874
▁لهنا	-11875
▁مؤهل	-11876
▁نظري	-11877
▁نقاش	-11878
▁هربت	-11879
▁وتتم	-11880
▁وفود	-11881
▁يحكم	-11882
▁يعيد	-11883
▁يقدر	-11884
▁يولي	-11885
▁يَحْ	-11886
ission	-11887
▁أواخر	-11888
▁اعترف	-11889
▁البلا	-11890
▁القيم	-11891
▁الماد	-11892
▁تجاهل	-11893
▁تركيا	-11894
▁تغيرت	-11895
▁تفويض	-11896
▁توقّف	-11897
▁جعلني	-11898
▁جنسية	-11899
▁خسارة	-11900
▁عدداً	-11901
▁عددهم	-11902
▁قدماً	-11903
▁كَانت	-11904
▁لفريق	-11905
▁محتمل	-11906
▁مساحة	-11907
▁مسافة	-11908
▁منتدى	-11909
▁يدعون	-11910
ـــــــ	-11911
▁احتجاز	-11912
▁اذهبوا	-11913
▁ارتكبت	-11914
▁الأوان	-11915
▁التغلب	-11916
▁الجوار	-11917
▁الدواء	-11918
▁الشعبة	-11919
▁العلمي	-11920
▁الغالب	-11921
▁الفجوة	-11922
▁المحرك	-11923
▁النجدة	-11924
▁باستطا	-11925
▁بالذنب	-11926
▁بضرورة	-11927
▁خصوصاً	-11928
▁رجاءاً	-11929
▁لإعداد	-11930
▁للمواد	-11931
▁لموظفي	-11932
▁ملابسي	-11933
▁ممتازة	-11934
▁وتلاحظ	-11935
cHFFFFFF	-11936
▁الأبعاد	-11937
▁الأحزاب	-11938
▁الاثنان	-11939
▁التسليم	-11940
▁التعاقد	-11941
▁التفاعل	-11942
▁التوقيت	-11943
▁السجلات	-11944
▁الصحيحة	-11945
▁الصينية	-11946
▁الفكرية	-11947
▁الفيروس	-11948
▁اللّيلة	-11949
▁المصارف	-11950
▁المضيفة	-11951
▁المقابل	-11952
▁النيران	-11953
▁بأغلبية	-11954
▁للأشخاص	-11955
▁الاختبار	-11956
▁الاختيار	-11957
▁الاشتراك	-11958
▁الضريبية	-11959
▁المعيشية	-11960
▁الاحتياطي	-11961
▁التقييمات	-11962
▁المقاطعات	-11963
▁غواتيمالا	-11964
▁والمتوسطة	-11965
▁والمصالحة	-11966
▁اقتصاداتها	-11967
▁الاستخبارات	-11968
la	-11969
أب	-11970
شْ	-11971
ضج	-11972
كى	-11973
199	-11974
آنا	-11975
انج	-11976
بلا	-11977
بلى	-11978
حرك	-11979
خلة	-11980
ربح	-11981
شرت	-11982
شكر	-11983
فتي	-11984
قاة	-11985
قان	-11986
لبة	-11987
لوف	-11988
مها	-11989
ناز	-11990
ولت	-11991
يعة	-11992
َدْ	-11993
ّال	-11994
▁An	-11995
▁al	-11996
▁كب	-11997
أنها	-11998
بسون	-11999
جيكا	-12000
حدّث	-12001
دعوة	-12002
رائع	-12003
رخاء	-12004
رفين	-12005
زايا	-12006
ساهم	-12007
سلية	-12008
شورة	-12009
عمير	-12010
عْني	-12011
فاهم	-12012
فسير	-12013
فصال	-12014
فيون	-12015
قالة	-12016
ليست	-12017
مثلي	-12018
نادق	-12019
▁أكد	-12020
▁ألق	-12021
▁إهد	-12022
▁جرا	-12023
▁حذا	-12024
▁رهن	-12025
▁عار	-12026
▁غني	-12027
▁مضي	-12028
▁مكث	-12029
▁مكس	-12030
▁منق	-12031
▁وأخ	-12032
▁يدع	-12033
/2008	-12034
ement	-12035
إمكان	-12036
حتجاز	-12037
ختبار	-12038
راضات	-12039
رقابة	-12040
زانيا	-12041
قارير	-12042
كتابة	-12043
مثلين	-12044
وسيلة	-12045
▁963-	-12046
▁أسمح	-12047
▁إبقى	-12048
▁إجلس	-12049
▁اتبع	-12050
▁اسرع	-12051
▁تدفق	-12052
▁تمان	-12053
▁جنسي	-12054
▁جيري	-12055
▁حولك	-12056
▁حياً	-12057
▁خطوط	-12058
▁ذهاب	-12059
▁ردود	-12060
▁رفيق	-12061
▁سائر	-12062
▁طبعا	-12063
▁طفلي	-12064
▁غيره	-12065
▁فارغ	-12066
▁كريم	-12067
▁كعكة	-12068
▁لحسن	-12069
▁لذيذ	-12070
▁لسنة	-12071
▁لقتل	-12072
▁لوقف	-12073
▁متعا	-12074
▁مختل	-12075
▁مرةً	-12076
▁مصير	-12077
▁منّا	-12078
▁نطلب	-12079
▁وجزر	-12080
▁وزوج	-12081
▁وللم	-12082
▁يسأل	-12083
▁يسير	-12084
▁يصنع	-12085
▁أصابع	-12086
▁أعداد	-12087
▁أليست	-12088
▁إحداث	-12089
▁إشراك	-12090
▁اتحاد	-12091
▁البائ	-12092
▁الجثث	-12093
▁الرئا	-12094
▁السطح	-12095
▁الضفة	-12096
▁العاج	-12097
▁القضي	-12098
▁المرف	-12099
▁المعل	-12100
▁بجوار	-12101
▁تجميع	-12102
▁تحولت	-12103
▁تزداد	-12104
▁تعامل	-12105
▁جديدا	-12106
▁جيّدة	-12107
▁حياتى	-12108
▁خاصتي	-12109
▁سأبقى	-12110
▁سيدتى	-12111
▁سيذهب	-12112
▁شخصيا	-12113
▁قدرها	-12114
▁قوائم	-12115
▁للخلف	-12116
▁للسيد	-12117
▁لوحدك	-12118
▁مجهول	-12119
▁والتص	-12120
▁وتشجع	-12121
▁وتكون	-12122
▁يتولى	-12123
▁Report	-12124
▁United	-12125
▁أمامنا	-12126
▁إقليمي	-12127
▁البديل	-12128
▁البيرة	-12129
▁التنفس	-12130
▁الدوحة	-12131
▁الرياح	-12132
▁السبيل	-12133
▁العلوم	-12134
▁القاعة	-12135
▁المرات	-12136
▁امتثال	-12137
▁بأمكان	-12138
▁تناولت	-12139
▁جانباً	-12140
▁كَانتْ	-12141
▁لرؤيتك	-12142
▁للشؤون	-12143
▁لمسألة	-12144
▁مؤخرتك	-12145
▁مباراة	-12146
▁مخدرات	-12147
▁مستشفى	-12148
▁وتيسير	-12149
▁ومبادئ	-12150
▁وموظفي	-12151
▁إعلامية	-12152
▁الاطفال	-12153
▁البطالة	-12154
▁الحاسوب	-12155
▁الخزانة	-12156
▁المسكين	-12157
▁انتهينا	-12158
▁تقريراً	-12159
▁علاقتنا	-12160
▁للأطراف	-12161
▁لمجموعة	-12162
▁ماليزيا	-12163
▁وتدابير	-12164
▁يحاولون	-12165
▁التغيرات	-12166
▁المستفيد	-12167
▁المصالحة	-12168
▁المعروضة	-12169
▁الابتدائي	-12170
▁التشغيلية	-12171
▁الدبلوماسي	-12172
▁المواضيعية	-12173
IS	-12174
ib	-12175
ks	-12176
رغ	-12177
سح	-12178
شع	-12179
عق	-12180
نو	-12181
هض	-12182
ail	-12183
ome	-12184
جاس	-12185
خور	-12186
دود	-12187
ربع	-12188
طير	-12189
عتُ	-12190
فيا	-12191
كتة	-12192
كله	-12193
لكي	-12194
ليو	-12195
معي	-12196
ميد	-12197
يرل	-12198
يري	-12199
َّر	-12200
ّصل	-12201
ّكِ	-12202
ّنا	-12203
▁((	-12204
▁99	-12205
▁Wh	-12206
▁جذ	-12207
(195	-12208
المت	-12209
بدال	-12210
دمان	-12211
ديها	-12212
راري	-12213
رضها	-12214
روبن	-12215
شكرك	-12216
طارد	-12217
غولا	-12218
قبول	-12219
قولة	-12220
كايت	-12221
لاقي	-12222
نتان	-12223
هولي	-12224
هيرة	-12225
ولان	-12226
يبال	-12227
▁13-	-12228
▁15-	-12229
▁Add	-12230
▁امك	-12231
▁بدّ	-12232
▁بشئ	-12233
▁تعي	-12234
▁جور	-12235
▁عَم	-12236
▁قبض	-12237
▁قُد	-12238
▁لهن	-12239
▁ندع	-12240
▁نمت	-12241
▁يدل	-12242
ivers	-12243
ublic	-12244
بجميع	-12245
طارية	-12246
وجيهي	-12247
وظيفة	-12248
وقاية	-12249
▁ألعب	-12250
▁أودّ	-12251
▁ابدأ	-12252
▁اختي	-12253
▁اخرس	-12254
▁استر	-12255
▁اطلق	-12256
▁الدّ	-12257
▁بنقل	-12258
▁حمام	-12259
▁سأضع	-12260
▁سقوط	-12261
▁سنجد	-12262
▁سنرى	-12263
▁صفحة	-12264
▁ضربة	-12265
▁طبية	-12266
▁قلقه	-12267
▁قلوب	-12268
▁لطلب	-12269
▁لعقد	-12270
▁معقد	-12271
▁ياله	-12272
▁يحيل	-12273
▁يركز	-12274
▁يعزز	-12275
▁يقبل	-12276
وفيسور	-12277
▁أبريل	-12278
▁أحبها	-12279
▁أرواح	-12280
▁أفكّر	-12281
▁إصابة	-12282
▁احدهم	-12283
▁الأخذ	-12284
▁الانس	-12285
▁البيع	-12286
▁الخطط	-12287
▁السود	-12288
▁الشرب	-12289
▁الغرف	-12290
▁الغضب	-12291
▁القصص	-12292
▁المثل	-12293
▁المعي	-12294
▁بأفضل	-12295
▁بشكلٍ	-12296
▁بَعْض	-12297
▁تعلمي	-12298
▁تكرار	-12299
▁تنظيف	-12300
▁دستور	-12301
▁صحيحا	-12302
▁عسكري	-12303
▁قصارى	-12304
▁كينيا	-12305
▁لكنّه	-12306
▁مسلسل	-12307
▁مشهور	-12308
▁معركة	-12309
▁مواطن	-12310
▁نواجه	-12311
▁هاتفك	-12312
▁وجدوا	-12313
▁ويشكل	-12314
▁ويكون	-12315
▁يحبون	-12316
▁يراقب	-12317
▁استمتع	-12318
▁الآلهة	-12319
▁الأجور	-12320
▁البرية	-12321
▁التوسع	-12322
▁الرقيب	-12323
▁الصغار	-12324
▁الموتى	-12325
▁الورقة	-12326
▁تسمعني	-12327
▁جديداً	-12328
▁ضرورية	-12329
▁كافياً	-12330
▁لتقرير	-12331
▁لتلبية	-12332
▁وأنشطة	-12333
▁والانت	-12334
▁والفقر	-12335
▁وتبادل	-12336
▁وتحليل	-12337
▁الأديان	-12338
▁الأوزون	-12339
▁الإسهام	-12340
▁البضائع	-12341
▁الثابتة	-12342
▁الرائحة	-12343
▁الرياضة	-12344
▁المنازل	-12345
▁الواحدة	-12346
▁ريتشارد	-12347
▁للتعليم	-12348
▁للطفولة	-12349
▁والمواد	-12350
▁الانتهاء	-12351
▁التدريجي	-12352
▁المعوقين	-12353
▁تقاريرها	-12354
▁مونتريال	-12355
▁والمملكة	-12356
▁الإحصاءات	-12357
▁التقديرات	-12358
▁المخابرات	-12359
▁لبريطانيا	-12360
▁الإرهابيين	-12361
▁البريطانية	-12362
▁والاقتصادي	-12363
23	-12364
35	-12365
CR	-12366
EP	-12367
آة	-12368
"؟"	-12369
(2)	-12370
ear	-12371
ett	-12372
آبي	-12373
أمي	-12374
إلي	-12375
بكي	-12376
تاق	-12377
جزأ	-12378
دتُ	-12379
ركه	-12380
روم	-12381
زعة	-12382
شوة	-12383
طفة	-12384
عثر	-12385
غاز	-12386
فته	-12387
فور	-12388
كشف	-12389
وخى	-12390
َنا	-12391
▁97	-12392
▁pp	-12393
▁تذ	-12394
▁خض	-12395
▁شج	-12396
بطان	-12397
جيمي	-12398
ريحة	-12399
سابق	-12400
ساسة	-12401
شاهد	-12402
شرار	-12403
صحاب	-12404
ظيمي	-12405
عدين	-12406
علمي	-12407
فادت	-12408
فاقم	-12409
متهم	-12410
هانك	-12411
وأنا	-12412
وريس	-12413
يبدو	-12414
▁150	-12415
▁600	-12416
▁700	-12417
▁are	-12418
▁أبق	-12419
▁أجب	-12420
▁أفض	-12421
▁ألت	-12422
▁تطل	-12423
▁جاس	-12424
▁جبل	-12425
▁دمج	-12426
▁ريت	-12427
▁عاب	-12428
▁عاش	-12429
▁عوض	-12430
▁غنى	-12431
▁قوى	-12432
▁لحل	-12433
▁للض	-12434
▁مضح	-12435
▁نيو	-12436
▁هاك	-12437
▁هند	-12438
ember	-12439
ذكرات	-12440
شاهدة	-12441
▁أحسن	-12442
▁أعنى	-12443
▁إسمك	-12444
▁احبك	-12445
▁الأر	-12446
▁اهدأ	-12447
▁بالآ	-12448
▁بانه	-12449
▁بديل	-12450
▁بولا	-12451
▁تجلب	-12452
▁ترون	-12453
▁جسدي	-12454
▁جوان	-12455
▁خاتم	-12456
▁رخصة	-12457
▁ركوب	-12458
▁سأخذ	-12459
▁سليم	-12460
▁صفوف	-12461
▁طبقا	-12462
▁عرضت	-12463
▁فنية	-12464
▁لإست	-12465
▁مؤكد	-12466
▁متاح	-12467
▁مدخل	-12468
▁نشوب	-12469
▁ولما	-12470
▁يغطي	-12471
ection	-12472
اللعنة	-12473
جمالية	-12474
كوادور	-12475
لاحيات	-12476
▁أنهما	-12477
▁اعتما	-12478
▁الارض	-12479
▁التاب	-12480
▁التحت	-12481
▁الجري	-12482
▁الصار	-12483
▁الكعك	-12484
▁انضمت	-12485
▁بسرعه	-12486
▁بعضاً	-12487
▁تحققت	-12488
▁تقومي	-12489
▁توحيد	-12490
▁حوادث	-12491
▁رصاصة	-12492
▁ستأخذ	-12493
▁سهلاً	-12494
▁ضعيفة	-12495
▁طبقاً	-12496
▁طريقك	-12497
▁عليَّ	-12498
▁غرفتك	-12499
▁قرارا	-12500
▁قراره	-12501
▁كاليف	-12502
▁لأجله	-12503
▁لحظات	-12504
▁لسماع	-12505
▁للناس	-12506
▁لليون	-12507
▁مكتبه	-12508
▁نيابة	-12509
▁وأوصت	-12510
▁والبي	-12511
▁يتذكر	-12512
▁الأربع	-12513
▁البنية	-12514
▁التصحر	-12515
▁الخطرة	-12516
▁الزهور	-12517
▁الساحة	-12518
▁السفلي	-12519
▁الصليب	-12520
▁العربي	-12521
▁العملي	-12522
▁العموم	-12523
▁المتصل	-12524
▁المسجل	-12525
▁بالمست	-12526
▁ثنائية	-12527
▁جميعها	-12528
▁لأعمال	-12529
▁لتطوير	-12530
▁مجددًا	-12531
▁مرتكبي	-12532
▁مكانها	-12533
▁وتطبيق	-12534
▁إستخدام	-12535
▁اتصالات	-12536
▁استكمال	-12537
▁الأطلسي	-12538
▁الأوامر	-12539
▁البيتزا	-12540
▁التشديد	-12541
▁الجراحة	-12542
▁الرفيعة	-12543
▁الزراعي	-12544
▁الطفولة	-12545
▁الفردية	-12546
▁الفوائد	-12547
▁القمامة	-12548
▁المادية	-12549
▁المباحث	-12550
▁بالجهود	-12551
▁ستفعلين	-12552
▁وأخيراً	-12553
▁ولايتها	-12554
▁يحتاجون	-12555
▁يَكُونَ	-12556
▁يُمكننا	-12557
▁الإدارات	-12558
▁الرياضية	-12559
▁المتبادل	-12560
▁المرتكبة	-12561
▁المساءلة	-12562
▁المستخدم	-12563
▁2008-2009	-12564
▁الإنجازات	-12565
▁التهديدات	-12566
▁الدولارات	-12567
▁الاقتراحات	-12568
▁المستوطنات	-12569
36	-12570
cc	-12571
ci	-12572
pr	-12573
ug	-12574
أج	-12575
يي	-12576
أور	-12577
امى	-12578
حاً	-12579
خار	-12580
ركب	-12581
عضو	-12582
ُلب	-12583
▁3)	-12584
▁91	-12585
▁ar	-12586
▁as	-12587
▁آخ	-12588
▁تث	-12589
▁فس	-12590
/59/	-12591
بناء	-12592
بيتي	-12593
توني	-12594
رحلة	-12595
ركيز	-12596
سيتر	-12597
شراك	-12598
شعار	-12599
كريس	-12600
كييف	-12601
موية	-12602
نتدى	-12603
وسطن	-12604
ونيو	-12605
ويذة	-12606
يلين	-12607
▁-{\	-12608
▁14-	-12609
▁أبن	-12610
▁تقت	-12611
▁تلم	-12612
▁جرب	-12613
▁جوز	-12614
▁سرا	-12615
▁سلف	-12616
▁شفو	-12617
▁شقي	-12618
▁شمل	-12619
▁صرف	-12620
▁ضرر	-12621
▁طلي	-12622
▁قاس	-12623
▁مرّ	-12624
▁مفي	-12625
▁ويز	-12626
▁ياب	-12627
/2007	-12628
ائنات	-12629
المات	-12630
جعلها	-12631
ساهمة	-12632
سكينة	-12633
سيكية	-12634
شورات	-12635
عتقدُ	-12636
غاريا	-12637
▁أجمل	-12638
▁أحبه	-12639
▁أظنّ	-12640
▁أكمل	-12641
▁ألدي	-12642
▁أهذه	-12643
▁أولى	-12644
▁الدب	-12645
▁اولا	-12646
▁بأيّ	-12647
▁بدفع	-12648
▁بدقة	-12649
▁بلاد	-12650
▁بمست	-12651
▁بيوت	-12652
▁تدين	-12653
▁ترجع	-12654
▁تصور	-12655
▁تنوي	-12656
▁ثابت	-12657
▁جادة	-12658
▁جونز	-12659
▁حافظ	-12660
▁حققت	-12661
▁حلوى	-12662
▁رايت	-12663
▁زادت	-12664
▁زجاج	-12665
▁شرير	-12666
▁صادق	-12667
▁طاقم	-12668
▁طالب	-12669
▁فقال	-12670
▁فكره	-12671
▁قادة	-12672
▁قبرص	-12673
▁قلبه	-12674
▁قُتل	-12675
▁لأرى	-12676
▁لجمع	-12677
▁للمر	-12678
▁مالم	-12679
▁مزعج	-12680
▁معني	-12681
▁نلعب	-12682
▁واذا	-12683
▁وتنص	-12684
▁ولدى	-12685
▁يزعج	-12686
▁يوصي	-12687
▁يومك	-12688
برازيل	-12689
قاتلين	-12690
ولويات	-12691
ونكتاد	-12692
▁2002)	-12693
▁أرأيت	-12694
▁أصدرت	-12695
▁أظنني	-12696
▁أعطيك	-12697
▁أوضاع	-12698
▁إستمع	-12699
▁إنّهم	-12700
▁الإذا	-12701
▁الباق	-12702
▁الحمض	-12703
▁العسل	-12704
▁العقل	-12705
▁المبت	-12706
▁الوزن	-12707
▁بمعنى	-12708
▁تجارب	-12709
▁تختلف	-12710
▁تعاطي	-12711
▁تعالج	-12712
▁تعنين	-12713
▁توطيد	-12714
▁جدًّا	-12715
▁حرمان	-12716
▁سأخرج	-12717
▁سنأخذ	-12718
▁سنبدأ	-12719
▁شعورك	-12720
▁صعباً	-12721
▁طفلاً	-12722
▁عادةً	-12723
▁لابدّ	-12724
▁لكنكِ	-12725
▁للشعب	-12726
▁للعنف	-12727
▁مختبر	-12728
▁مرتاح	-12729
▁معنية	-12730
▁مليار	-12731
▁مناقش	-12732
▁نفسكِ	-12733
▁نهائي	-12734
▁هاتين	-12735
▁والتن	-12736
▁ويعمل	-12737
▁يزداد	-12738
▁يستمع	-12739
▁يعنيه	-12740
▁أساساً	-12741
▁اشتراك	-12742
▁الآباء	-12743
▁الأمني	-12744
▁التنقل	-12745
▁الجبال	-12746
▁الدجاج	-12747
▁الربيع	-12748
▁الزعيم	-12749
▁الطيور	-12750
▁القوية	-12751
▁اللطيف	-12752
▁المجيء	-12753
▁المحطة	-12754
▁المشفى	-12755
▁المشهد	-12756
▁الموسم	-12757
▁تتحدّث	-12758
▁تخبرنا	-12759
▁قانونا	-12760
▁للرئيس	-12761
▁للعالم	-12762
▁مطالبة	-12763
▁منزلنا	-12764
▁واليوم	-12765
▁أسبوعين	-12766
▁البلدية	-12767
▁التثقيف	-12768
▁التحتية	-12769
▁الجمارك	-12770
▁الحسبان	-12771
▁الخارجة	-12772
▁الزاوية	-12773
▁السجناء	-12774
▁الشرعية	-12775
▁الصناعي	-12776
▁الفلبين	-12777
▁المتحدث	-12778
▁المستحق	-12779
▁تحاولين	-12780
▁تقديرها	-12781
▁ساعدوني	-12782
▁للتصويت	-12783
▁مساهمات	-12784
▁التوجيهي	-12785
▁المحدودة	-12786
▁المستهلك	-12787
▁المعالجة	-12788
▁المعنيين	-12789
▁بالحقيقة	-12790
▁والسلطات	-12791
▁والهيئات	-12792
▁التدريبية	-12793
")	-12794
45	-12795
88	-12796
AW	-12797
دب	-12798
دق	-12799
دْ	-12800
رن	-12801
طع	-12802
قَ	-12803
هك	-12804
ast	-12805
oll	-12806
ئكة	-12807
بيث	-12808
ثين	-12809
خلع	-12810
درس	-12811
دلة	-12812
رجل	-12813
سلي	-12814
سيح	-12815
طلة	-12816
فلت	-12817
ليّ	-12818
ماق	-12819
هاض	-12820
ويق	-12821
ياع	-12822
ّمة	-12823
▁82	-12824
▁83	-12825
▁94	-12826
▁خش	-12827
▁زر	-12828
▁يه	-12829
ated	-12830
ئزاز	-12831
اكيد	-12832
بلوغ	-12833
جاين	-12834
حادي	-12835
رياء	-12836
صيلة	-12837
كارل	-12838
ماتي	-12839
مكنك	-12840
ميمة	-12841
هانا	-12842
يرين	-12843
▁12-	-12844
▁إقت	-12845
▁بلي	-12846
▁جهو	-12847
▁ديك	-12848
▁رحل	-12849
▁رين	-12850
▁سلي	-12851
▁سمح	-12852
▁فاز	-12853
▁لمع	-12854
▁مهد	-12855
▁وإس	-12856
▁وسا	-12857
▁ومل	-12858
▁ويح	-12859
بوديا	-12860
سوزان	-12861
قابلك	-12862
وقعات	-12863
▁أجرى	-12864
▁أصيب	-12865
▁أعطا	-12866
▁أفتح	-12867
▁أمرك	-12868
▁إضاف	-12869
▁باخت	-12870
▁بالظ	-12871
▁بيلي	-12872
▁تشاد	-12873
▁تنسي	-12874
▁تهرب	-12875
▁توني	-12876
▁جاري	-12877
▁جدوى	-12878
▁جولي	-12879
▁شهدت	-12880
▁ضباط	-12881
▁عقده	-12882
▁عمري	-12883
▁غيرت	-12884
▁فلدي	-12885
▁قبلة	-12886
▁قلتُ	-12887
▁كانَ	-12888
▁كريس	-12889
▁لكما	-12890
▁متعم	-12891
▁مراق	-12892
▁مزاج	-12893
▁نبات	-12894
▁هذان	-12895
▁ومضى	-12896
▁وهما	-12897
▁يرجع	-12898
▁يسرق	-12899
براطور	-12900
حصاءات	-12901
كتوريا	-12902
▁أساعد	-12903
▁أستمر	-12904
▁أفلام	-12905
▁إياها	-12906
▁اختار	-12907
▁اعتبر	-12908
▁الإيط	-12909
▁الدان	-12910
▁الستة	-12911
▁الفاس	-12912
▁القرف	-12913
▁الممل	-12914
▁بوسعك	-12915
▁تزايد	-12916
▁تصنيف	-12917
▁تنتمي	-12918
▁توماس	-12919
▁حاسوب	-12920
▁خاطئة	-12921
▁خريطة	-12922
▁دورية	-12923
▁ذهبوا	-12924
▁رأسها	-12925
▁زرقاء	-12926
▁سيأخذ	-12927
▁سيحصل	-12928
▁عبقري	-12929
▁عواقب	-12930
▁فعلتِ	-12931
▁قاسية	-12932
▁للرجل	-12933
▁للنوم	-12934
▁مدارس	-12935
▁نيبال	-12936
▁وأوضح	-12937
▁والحق	-12938
▁وتعمل	-12939
▁ومجلس	-12940
▁ياسيد	-12941
▁يالها	-12942
▁يقوله	-12943
باكستان	-12944
▁أستخدم	-12945
▁اضطلعت	-12946
▁الأيدي	-12947
▁البغاء	-12948
▁التعرض	-12949
▁التلوث	-12950
▁الحائط	-12951
▁الساحل	-12952
▁الصواب	-12953
▁العذاب	-12954
▁المبيع	-12955
▁المصعد	-12956
▁الوجود	-12957
▁الوزير	-12958
▁بإطلاق	-12959
▁باتجاه	-12960
▁بالذكر	-12961
▁بتحقيق	-12962
▁تتعاون	-12963
▁تفعلها	-12964
▁تفهمين	-12965
▁تقومين	-12966
▁سأتولى	-12967
▁شخصياً	-12968
▁طريقها	-12969
▁عموماً	-12970
▁غريباً	-12971
▁لإصلاح	-12972
▁لتيسير	-12973
▁لدقيقة	-12974
▁مشغولة	-12975
▁منخفضة	-12976
▁والهند	-12977
▁وتوزيع	-12978
▁وضعتها	-12979
▁يبحثون	-12980
▁الأخطاء	-12981
▁الأمامي	-12982
▁الإثنان	-12983
▁التوظيف	-12984
▁الحقيقه	-12985
▁الصناعة	-12986
▁المباني	-12987
▁بالقضاء	-12988
▁بانتظام	-12989
▁بمكافحة	-12990
▁بموافقة	-12991
▁بيلاروس	-12992
▁فرانسيس	-12993
▁للاجئين	-12994
▁متزايدة	-12995
▁متكاملة	-12996
▁واعتمدت	-12997
▁وبالمثل	-12998
▁الآسيوية	-12999
▁الدستوري	-13000
▁السكانية	-13001
▁المحلفين	-13002
▁المقيمين	-13003
▁قراراتها	-13004
▁2004-2005	-13005
▁بالاشتراك	-13006
▁لَرُبَّمَا	-13007
''	-13008
77	-13009
ES	-13010
آل	-13011
ّس	-13012
ave	-13013
ich	-13014
أمر	-13015
ئبق	-13016
ئيل	-13017
دوء	-13018
رجت	-13019
رجم	-13020
سفي	-13021
شخص	-13022
طرح	-13023
لور	-13024
نار	-13025
نور	-13026
نيس	-13027
نَا	-13028
نّا	-13029
ومر	-13030
ونت	-13031
وهة	-13032
▁فإ	-13033
▁هذ	-13034
▁وذ	-13035
/55/	-13036
أثير	-13037
انيه	-13038
بارت	-13039
بْدو	-13040
جيال	-13041
جيني	-13042
حمام	-13043
خلاص	-13044
دروس	-13045
درين	-13046
دونا	-13047
رمون	-13048
زيمة	-13049
غيّر	-13050
فورد	-13051
كاسب	-13052
كيني	-13053
لتزم	-13054
لمين	-13055
وارت	-13056
ولية	-13057
يعاب	-13058
▁120	-13059
▁16-	-13060
▁Law	-13061
▁أبت	-13062
▁أهن	-13063
▁أوض	-13064
▁إله	-13065
▁إنش	-13066
▁بدل	-13067
▁بوج	-13068
▁تمس	-13069
▁جائ	-13070
▁حرق	-13071
▁خصي	-13072
▁روك	-13073
▁ضده	-13074
▁غرا	-13075
▁كفى	-13076
▁لحق	-13077
▁وبح	-13078
▁وفع	-13079
▁ويف	-13080
▁يتع	-13081
أرجوك	-13082
اهرات	-13083
حتفال	-13084
زاعات	-13085
هيرية	-13086
يادات	-13087
▁أجمع	-13088
▁أريك	-13089
▁أكان	-13090
▁أمره	-13091
▁أنام	-13092
▁أنهُ	-13093
▁أوبا	-13094
▁اتضح	-13095
▁بصرف	-13096
▁بطلب	-13097
▁تأكد	-13098
▁تدعي	-13099
▁تصنع	-13100
▁تضرب	-13101
▁تعصب	-13102
▁تولى	-13103
▁حبوب	-13104
▁رسوم	-13105
▁شعرك	-13106
▁طابت	-13107
▁عديم	-13108
▁فهذه	-13109
▁قرية	-13110
▁كاتب	-13111
▁كاذب	-13112
▁كونغ	-13113
▁لخطر	-13114
▁للعب	-13115
▁مقتل	-13116
▁مَنْ	-13117
▁وذات	-13118
▁ولأن	-13119
▁يغير	-13120
▁يقصد	-13121
بكستان	-13122
عاهدات	-13123
▁أمامك	-13124
▁الاكت	-13125
▁الجرح	-13126
▁الجلد	-13127
▁السجل	-13128
▁الصحف	-13129
▁الصمت	-13130
▁العرق	-13131
▁برتبة	-13132
▁تأخير	-13133
▁تجارة	-13134
▁تحترم	-13135
▁تعتزم	-13136
▁توليد	-13137
▁زعماء	-13138
▁زمنية	-13139
▁سبباً	-13140
▁سيعود	-13141
▁صدقني	-13142
▁عقدها	-13143
▁فعلتُ	-13144
▁قبالة	-13145
▁قدمته	-13146
▁لكنّك	-13147
▁للمرة	-13148
▁منزله	-13149
▁نصيحة	-13150
▁وأكدت	-13151
▁وكأنك	-13152
▁ولكنى	-13153
▁يتحمل	-13154
▁يحتفظ	-13155
▁يريده	-13156
▁يعترف	-13157
جمهورية	-13158
يزانيات	-13159
▁(2005)	-13160
▁أنجلوس	-13161
▁الاولى	-13162
▁الجفاف	-13163
▁الجودة	-13164
▁الشجرة	-13165
▁المدين	-13166
▁المغرب	-13167
▁بالمنا	-13168
▁بروكسل	-13169
▁بينهما	-13170
▁تفعلون	-13171
▁دانيال	-13172
▁ساعتين	-13173
▁كلاكما	-13174
▁كُنْتَ	-13175
▁لتغطية	-13176
▁للبقاء	-13177
▁للغايه	-13178
▁متنوعة	-13179
▁مرتبطة	-13180
▁واليون	-13181
▁وبموجب	-13182
▁وقواعد	-13183
▁ياعزيز	-13184
▁يكونون	-13185
▁اعتبارا	-13186
▁الأعوام	-13187
▁الأكادي	-13188
▁الألعاب	-13189
▁الأميرة	-13190
▁الأوغاد	-13191
▁الإرادة	-13192
▁الإعداد	-13193
▁الإعراب	-13194
▁التحرير	-13195
▁التحويل	-13196
▁التشاور	-13197
▁التواصل	-13198
▁التوزيع	-13199
▁الثقافي	-13200
▁الحديقة	-13201
▁الحوادث	-13202
▁السيادة	-13203
▁العاصفة	-13204
▁المؤسسي	-13205
▁المئوية	-13206
▁المفهوم	-13207
▁المقصود	-13208
▁النارية	-13209
▁النواتج	-13210
▁اليونان	-13211
▁بالواقع	-13212
▁تحديداً	-13213
▁2000-200	-13214
▁الاحتفال	-13215
▁المادتين	-13216
▁المحاولة	-13217
▁بالضرورة	-13218
▁بالموارد	-13219
▁والتجارة	-13220
▁التلفزيون	-13221
▁المتكلمين	-13222
▁المسؤوليات	-13223
▁كاليفورنيا	-13224
غز	-13225
/27	-13226
CCC	-13227
ood	-13228
آني	-13229
ؤهم	-13230
اتى	-13231
ادع	-13232
ادن	-13233
جرى	-13234
جوي	-13235
خسر	-13236
داه	-13237
رقت	-13238
رود	-13239
شيح	-13240
ضدة	-13241
قيه	-13242
كتك	-13243
ندس	-13244
هلا	-13245
هيز	-13246
وتش	-13247
ووس	-13248
يمن	-13249
َين	-13250
▁(5	-13251
▁آت	-13252
▁إر	-13253
istr	-13254
بيكا	-13255
تحار	-13256
خبين	-13257
داقة	-13258
ديدا	-13259
شفقة	-13260
فلون	-13261
فينس	-13262
قتان	-13263
قصاء	-13264
كلوي	-13265
لقية	-13266
وجين	-13267
وفيا	-13268
يدون	-13269
يراد	-13270
▁ارس	-13271
▁تبق	-13272
▁جني	-13273
▁داع	-13274
▁دفا	-13275
▁رون	-13276
▁ضعي	-13277
▁طائ	-13278
▁عذر	-13279
▁عرب	-13280
▁فول	-13281
▁قذر	-13282
▁لعم	-13283
▁مقص	-13284
▁ممر	-13285
▁مُح	-13286
▁نجم	-13287
▁وبط	-13288
اريكا	-13289
توماس	-13290
جازات	-13291
ذاكرة	-13292
راعاة	-13293
سيطرة	-13294
مهوري	-13295
يازات	-13296
▁1540	-13297
▁1989	-13298
▁أجبر	-13299
▁إبرا	-13300
▁اعتُ	-13301
▁البت	-13302
▁الجس	-13303
▁الخض	-13304
▁الصك	-13305
▁الطّ	-13306
▁الغي	-13307
▁بالز	-13308
▁بحكم	-13309
▁براد	-13310
▁بروح	-13311
▁برين	-13312
▁بطرق	-13313
▁تتاح	-13314
▁تطبق	-13315
▁تكرر	-13316
▁حتما	-13317
▁خذها	-13318
▁خطبك	-13319
▁شخصٌ	-13320
▁شيءٌ	-13321
▁شيكا	-13322
▁صدرت	-13323
▁صدقت	-13324
▁صوتي	-13325
▁عجلة	-13326
▁عقاب	-13327
▁غرار	-13328
▁قومي	-13329
▁كرسي	-13330
▁لانه	-13331
▁لجان	-13332
▁لعبت	-13333
▁مؤسف	-13334
▁مضطر	-13335
▁نعيد	-13336
▁وخطة	-13337
▁وسيت	-13338
▁وللا	-13339
▁يخطط	-13340
▁يشرف	-13341
تهاكات	-13342
دانيال	-13343
سيترال	-13344
غلاديش	-13345
فرادية	-13346
وفينيا	-13347
▁أسرار	-13348
▁أمثلة	-13349
▁إبرام	-13350
▁إحضار	-13351
▁استنف	-13352
▁الأسم	-13353
▁الانش	-13354
▁البعد	-13355
▁الراق	-13356
▁الشاح	-13357
▁الشقة	-13358
▁الفني	-13359
▁القرص	-13360
▁المتف	-13361
▁المزع	-13362
▁بتهمة	-13363
▁بدوره	-13364
▁تتزوج	-13365
▁تتغير	-13366
▁تعبير	-13367
▁تعنيه	-13368
▁تفادي	-13369
▁تواجد	-13370
▁ثواني	-13371
▁جلسته	-13372
▁حزينة	-13373
▁رأيتُ	-13374
▁رائعه	-13375
▁ستموت	-13376
▁سمعتك	-13377
▁شواغل	-13378
▁عضوية	-13379
▁فهناك	-13380
▁قتلها	-13381
▁قتلوا	-13382
▁كونها	-13383
▁لازال	-13384
▁مجالي	-13385
▁مستقل	-13386
▁هادئة	-13387
▁والإس	-13388
▁وترحب	-13389
▁وتشكل	-13390
▁وتمثل	-13391
▁وقررت	-13392
▁ويقول	-13393
▁يتجزأ	-13394
▁يتحول	-13395
▁(2003)	-13396
▁أخبرها	-13397
▁أساسيا	-13398
▁اتخذها	-13399
▁اعتراف	-13400
▁الجواب	-13401
▁الحمقى	-13402
▁العملة	-13403
▁الغناء	-13404
▁القروض	-13405
▁المتنا	-13406
▁المخيم	-13407
▁المرّة	-13408
▁المفتش	-13409
▁الموجه	-13410
▁بزيادة	-13411
▁بمشروع	-13412
▁بولاية	-13413
▁بولندا	-13414
▁تحتاجه	-13415
▁تنفيذه	-13416
▁سنوياً	-13417
▁غالباً	-13418
▁لإعلان	-13419
▁لتغيير	-13420
▁للتأكد	-13421
▁للدفاع	-13422
▁مسرورة	-13423
▁مفاتيح	-13424
▁مقبولة	-13425
▁منفصلة	-13426
▁مواطني	-13427
▁والرجل	-13428
▁وحيداً	-13429
▁يخبرني	-13430
▁يموتون	-13431
iversity	-13432
براطورية	-13433
▁Nations	-13434
▁الأضواء	-13435
▁البحيرة	-13436
▁الجنوبي	-13437
▁الخنزير	-13438
▁الزيارة	-13439
▁المائية	-13440
▁المثيرة	-13441
▁المدافع	-13442
▁الواقعة	-13443
▁حيوانات	-13444
▁للوكالة	-13445
▁مونتيري	-13446
▁والشعوب	-13447
▁الانحياز	-13448
▁الجانبين	-13449
▁الجغرافي	-13450
▁القرارين	-13451
▁المصابين	-13452
▁المصرفية	-13453
▁الوزارات	-13454
▁للمشاريع	-13455
▁واستغلال	-13456
▁والتقنية	-13457
▁الحكوميين	-13458
▁الأونسيترال	-13459
3`	-13460
66	-13461
AT	-13462
ED	-13463
up	-13464
لْ	-13465
/20	-13466
/24	-13467
ack	-13468
enc	-13469
fnA	-13470
أود	-13471
تيد	-13472
جيك	-13473
درا	-13474
ريخ	-13475
ساع	-13476
عبا	-13477
غاس	-13478
فوظ	-13479
لون	-13480
موس	-13481
واط	-13482
وحا	-13483
وغو	-13484
ولم	-13485
ومن	-13486
يّة	-13487
ّاس	-13488
ّهم	-13489
▁(4	-13490
▁4/	-13491
▁93	-13492
▁Or	-13493
▁et	-13494
▁la	-13495
▁we	-13496
▁حث	-13497
▁دب	-13498
▁دُ	-13499
▁غا	-13500
▁فب	-13501
إلين	-13502
اريف	-13503
بعوث	-13504
تهاك	-13505
تينا	-13506
جايك	-13507
ديين	-13508
ذبين	-13509
ربعة	-13510
رصدة	-13511
فاعل	-13512
فتيش	-13513
فيان	-13514
لتين	-13515
ليان	-13516
مرحب	-13517
مونا	-13518
هجوم	-13519
واحد	-13520
والى	-13521
واية	-13522
ينهم	-13523
▁'1`	-13524
▁20-	-13525
▁was	-13526
▁ارك	-13527
▁بمو	-13528
▁بيض	-13529
▁تحل	-13530
▁تضي	-13531
▁تور	-13532
▁توص	-13533
▁حجر	-13534
▁حرك	-13535
▁رعا	-13536
▁رمي	-13537
▁سلب	-13538
▁شون	-13539
▁ضيف	-13540
▁لوي	-13541
▁مجن	-13542
▁مرف	-13543
▁ينب	-13544
اليين	-13545
رابات	-13546
عدلات	-13547
مكنني	-13548
نتجات	-13549
نزانة	-13550
يائية	-13551
▁1988	-13552
▁أشرب	-13553
▁أصعب	-13554
▁أعذر	-13555
▁إنَّ	-13556
▁اتيت	-13557
▁الاع	-13558
▁الجذ	-13559
▁السك	-13560
▁انكِ	-13561
▁تتوق	-13562
▁تومي	-13563
▁حادة	-13564
▁حصان	-13565
▁حوله	-13566
▁حيوي	-13567
▁خلفك	-13568
▁ذراع	-13569
▁ذكرى	-13570
▁رحمة	-13571
▁سآتي	-13572
▁سأنت	-13573
▁سويا	-13574
▁سيصل	-13575
▁شعوب	-13576
▁صراع	-13577
▁ظهري	-13578
▁عرضة	-13579
▁عنّي	-13580
▁فليس	-13581
▁فيجب	-13582
▁كأنك	-13583
▁كوفي	-13584
▁كونه	-13585
▁كوين	-13586
▁للتس	-13587
▁للتن	-13588
▁متعة	-13589
▁مثيل	-13590
▁محقق	-13591
▁مخرج	-13592
▁مشوش	-13593
▁مولد	-13594
▁نظمت	-13595
▁نفهم	-13596
▁وجوه	-13597
▁وحدك	-13598
▁ومنا	-13599
▁يجلب	-13600
▁يحظى	-13601
▁يخاف	-13602
▁يصعب	-13603
▁يضرب	-13604
▁يعقد	-13605
▁يقال	-13606
شريعات	-13607
عادتها	-13608
قابلتك	-13609
▁أردنا	-13610
▁أرضاً	-13611
▁أستاذ	-13612
▁أستمع	-13613
▁أظهرت	-13614
▁إشراف	-13615
▁اطفال	-13616
▁اقترب	-13617
▁الأكل	-13618
▁الإبت	-13619
▁الإله	-13620
▁الاقل	-13621
▁التوت	-13622
▁الدرج	-13623
▁الرحب	-13624
▁القطع	-13625
▁المحل	-13626
▁المخط	-13627
▁الموق	-13628
▁بحاجه	-13629
▁بهدوء	-13630
▁تتألف	-13631
▁تتوفر	-13632
▁تشتري	-13633
▁تكثيف	-13634
▁جزئيا	-13635
▁خصوصا	-13636
▁رئيسا	-13637
▁زراعة	-13638
▁سوداء	-13639
▁سيموت	-13640
▁شاركت	-13641
▁عفواً	-13642
▁غازات	-13643
▁كافيا	-13644
▁لأنّه	-13645
▁مرتفع	-13646
▁مسئول	-13647
▁ممتعة	-13648
▁مهتمة	-13649
▁نافذة	-13650
▁نتمكن	-13651
▁نتوقع	-13652
▁نسبيا	-13653
▁نغادر	-13654
▁ننتهي	-13655
▁والمه	-13656
▁وبغية	-13657
▁ويقوم	-13658
▁يحتوي	-13659
▁(2000)	-13660
▁Rights	-13661
▁اختلاف	-13662
▁الآونة	-13663
▁التماس	-13664
▁الخطوط	-13665
▁الرجوع	-13666
▁الرغبة	-13667
▁الساعه	-13668
▁السجون	-13669
▁الكبار	-13670
▁المجتم	-13671
▁المختل	-13672
▁المصنع	-13673
▁المعين	-13674
▁بعبارة	-13675
▁تحديدا	-13676
▁سأحتاج	-13677
▁سأفعله	-13678
▁شراكات	-13679
▁صغيراً	-13680
▁للأعلى	-13681
▁للتحقق	-13682
▁للوفاء	-13683
▁مستقرة	-13684
▁وأعضاء	-13685
▁وإعداد	-13686
▁واضحاً	-13687
▁وبلدان	-13688
▁وهيئات	-13689
▁الأشجار	-13690
▁الأمثلة	-13691
▁الادعاء	-13692
▁التغطية	-13693
▁الجائزة	-13694
▁الحيوان	-13695
▁السائدة	-13696
▁السرطان	-13697
▁الليبية	-13698
▁المديرة	-13699
▁المعقدة	-13700
▁المواقف	-13701
▁النرويج	-13702
▁الوزارة	-13703
▁انتظروا	-13704
▁بالنساء	-13705
▁تراجعوا	-13706
▁تغييرات	-13707
▁تهانينا	-13708
▁كاميرات	-13709
▁لمنظومة	-13710
▁والسيدة	-13711
▁والنظام	-13712
▁الارتياح	-13713
▁القطاعين	-13714
▁المؤشرات	-13715
▁المعاناة	-13716
▁المنهجية	-13717
▁بالأنشطة	-13718
▁بالتشاور	-13719
▁للاهتمام	-13720
▁وإجراءات	-13721
▁والمعدات	-13722
▁والمناطق	-13723
▁الإنجابية	-13724
▁الكمبيوتر	-13725
▁للإجراءات	-13726
▁الاعتبارات	-13727
▁التنفيذيين	-13728
lm	-13729
آي	-13730
نّ	-13731
يْ	-13732
-15	-13733
abl	-13734
one	-13735
أتى	-13736
إنت	-13737
اسم	-13738
اعد	-13739
حنة	-13740
خطى	-13741
دفة	-13742
ذون	-13743
رتُ	-13744
سقة	-13745
ضعف	-13746
ظرا	-13747
فيق	-13748
فيك	-13749
لتَ	-13750
لفة	-13751
ممة	-13752
مود	-13753
هيئ	-13754
ياك	-13755
يوخ	-13756
ُنا	-13757
ِّد	-13758
▁89	-13759
▁do	-13760
▁شغ	-13761
▁كس	-13762
▁هج	-13763
CONF	-13764
إيلي	-13765
بحوث	-13766
جيلا	-13767
دتنا	-13768
دوات	-13769
راكم	-13770
راكِ	-13771
ريّة	-13772
ستمع	-13773
سيقى	-13774
عطيه	-13775
فتاح	-13776
فتها	-13777
هاما	-13778
وثات	-13779
وعين	-13780
▁أسب	-13781
▁إتّ	-13782
▁إمت	-13783
▁اسط	-13784
▁امم	-13785
▁بقد	-13786
▁تحا	-13787
▁تحط	-13788
▁تفع	-13789
▁تكر	-13790
▁ثبت	-13791
▁جلد	-13792
▁حام	-13793
▁حظا	-13794
▁خان	-13795
▁دعت	-13796
▁دمر	-13797
▁رام	-13798
▁روي	-13799
▁ساع	-13800
▁سمك	-13801
▁شرح	-13802
▁ضيق	-13803
▁طيّ	-13804
▁عصر	-13805
▁غرض	-13806
▁غضب	-13807
▁قطر	-13808
▁كثب	-13809
▁كفر	-13810
▁واج	-13811
▁وتر	-13812
▁وكم	-13813
▁ومي	-13814
ارعين	-13815
ستطاع	-13816
مهلاً	-13817
ناريو	-13818
ولندا	-13819
ويبات	-13820
ينيين	-13821
▁أجله	-13822
▁أنشئ	-13823
▁اقتل	-13824
▁الجي	-13825
▁بأحد	-13826
▁بأية	-13827
▁بحثت	-13828
▁بحقك	-13829
▁بوبي	-13830
▁بيدي	-13831
▁تاما	-13832
▁تتفق	-13833
▁تتنا	-13834
▁تخاف	-13835
▁تشاء	-13836
▁تمسك	-13837
▁حزين	-13838
▁دعوى	-13839
▁رغبت	-13840
▁رفيع	-13841
▁فاسو	-13842
▁قاسي	-13843
▁كلتا	-13844
▁لدول	-13845
▁لرجل	-13846
▁للأن	-13847
▁للتك	-13848
▁مؤشر	-13849
▁ماضي	-13850
▁متفق	-13851
▁مجلة	-13852
▁نبقى	-13853
▁نترك	-13854
▁نسمع	-13855
▁وأين	-13856
▁وضعه	-13857
▁وعدد	-13858
▁وقرر	-13859
▁يدين	-13860
▁يرفض	-13861
▁يفتح	-13862
▁يفسر	-13863
▁يفقد	-13864
▁يكفى	-13865
امتثال	-13866
كاثرين	-13867
مجموعة	-13868
▁أترين	-13869
▁أرتدي	-13870
▁أسرهم	-13871
▁أصلاً	-13872
▁أغادر	-13873
▁أنكما	-13874
▁أنّنا	-13875
▁إساءة	-13876
▁إنتهت	-13877
▁الباح	-13878
▁البطل	-13879
▁التهم	-13880
▁الشيك	-13881
▁القبو	-13882
▁الكول	-13883
▁المحب	-13884
▁المكر	-13885
▁المور	-13886
▁النقص	-13887
▁بالإج	-13888
▁بالان	-13889
▁بكلمة	-13890
▁بمزيد	-13891
▁تراعي	-13892
▁تساوي	-13893
▁تفجير	-13894
▁تنشيط	-13895
▁ذراعي	-13896
▁سيبدو	-13897
▁عشرين	-13898
▁فارغة	-13899
▁فعلوا	-13900
▁فلوري	-13901
▁كأنها	-13902
▁لأجلي	-13903
▁لشركة	-13904
▁للأمن	-13905
▁لنبدأ	-13906
▁ليلتك	-13907
▁مثلها	-13908
▁مجرّد	-13909
▁محاكم	-13910
▁معجبة	-13911
▁معقدة	-13912
▁موحدة	-13913
▁ناجحة	-13914
▁وأريد	-13915
▁واضحا	-13916
▁وسائر	-13917
▁وضعته	-13918
▁يتحقق	-13919
▁يحتمل	-13920
▁يُريد	-13921
▁(2002)	-13922
▁أكتوبر	-13923
▁اختطاف	-13924
▁الحارس	-13925
▁الشرعي	-13926
▁الشروع	-13927
▁الشيوخ	-13928
▁العابر	-13929
▁اللاعب	-13930
▁المتعة	-13931
▁المعلم	-13932
▁الموظف	-13933
▁المُست	-13934
▁الوثيق	-13935
▁بالدور	-13936
▁بتعيين	-13937
▁بتوافق	-13938
▁بزيارة	-13939
▁بقضايا	-13940
▁بنهاية	-13941
▁تحدثنا	-13942
▁تكونوا	-13943
▁خارجاً	-13944
▁سأقتلك	-13945
▁عائلته	-13946
▁كيانات	-13947
▁لاتخاذ	-13948
▁لتنمية	-13949
▁للجلسة	-13950
▁مسابقة	-13951
▁وتنسيق	-13952
▁وعندها	-13953
▁وكأنها	-13954
▁ولايته	-13955
▁الأشكال	-13956
▁الإثنين	-13957
▁التخفيف	-13958
▁التزاما	-13959
▁التشجيع	-13960
▁الثماني	-13961
▁الجلالة	-13962
▁الخاصين	-13963
▁الدقيقة	-13964
▁الرصاصة	-13965
▁السياحة	-13966
▁العراقي	-13967
▁العملاء	-13968
▁العميلة	-13969
▁القنبلة	-13970
▁المسئول	-13971
▁المعتمد	-13972
▁المكتبة	-13973
▁الملائم	-13974
▁النوافذ	-13975
▁بإمكانه	-13976
▁بالحاجة	-13977
▁بالذهاب	-13978
▁تقديمها	-13979
▁لأمريكا	-13980
▁للتدريب	-13981
▁للتمييز	-13982
▁لمتابعة	-13983
▁مداولات	-13984
▁والقرار	-13985
▁إمكانيات	-13986
▁الأسابيع	-13987
▁التحفظات	-13988
▁التزامها	-13989
▁المستثمر	-13990
▁المفتوحة	-13991
▁الوقائية	-13992
▁بالتجارة	-13993
▁بالتنسيق	-13994
▁بريطانيا	-13995
▁عِنْدَهُ	-13996
▁للمؤسسات	-13997
▁المحاكمات	-13998
▁والمشاركة	-13999
▁والديمقراطية	-14000
إذ	-14001
تد	-14002
رَ	-14003
صْ	-14004
يئ	-14005
▁e	-14006
ork	-14007
أوا	-14008
إيف	-14009
الآ	-14010
جوش	-14011
حبك	-14012
خنة	-14013
دوب	-14014
زاك	-14015
صعد	-14016
غاف	-14017
غري	-14018
فلح	-14019
قاي	-14020
هيك	-14021
يزي	-14022
َنْ	-14023
ُكر	-14024
ّقة	-14025
▁sh	-14026
▁رت	-14027
▁شن	-14028
▁لز	-14029
eral	-14030
إيما	-14031
اااا	-14032
المر	-14033
بتين	-14034
بيني	-14035
تحاق	-14036
دوجة	-14037
رائح	-14038
راهن	-14039
سرقة	-14040
سسية	-14041
سيطة	-14042
ضامن	-14043
ضلات	-14044
عاطى	-14045
عيّن	-14046
غرات	-14047
قرية	-14048
ليسا	-14049
موري	-14050
ويلي	-14051
▁'2`	-14052
▁17-	-14053
▁`1`	-14054
▁rlm	-14055
▁أجر	-14056
▁أقم	-14057
▁أمه	-14058
▁اجد	-14059
▁انة	-14060
▁اية	-14061
▁بدت	-14062
▁بعث	-14063
▁بنس	-14064
▁تيد	-14065
▁حرة	-14066
▁حية	-14067
▁خاد	-14068
▁ريك	-14069
▁سائ	-14070
▁سيح	-14071
▁عنى	-14072
▁غار	-14073
▁غزو	-14074
▁كمن	-14075
▁لأس	-14076
▁لمس	-14077
▁مصل	-14078
▁موز	-14079
▁موع	-14080
▁يقر	-14081
▁يول	-14082
▁يُح	-14083
▁يُع	-14084
بعثات	-14085
ديسون	-14086
سمحوا	-14087
قُولُ	-14088
واتية	-14089
يابان	-14090
▁2015	-14091
▁آسفُ	-14092
▁أتود	-14093
▁أحكا	-14094
▁أحمر	-14095
▁أدفع	-14096
▁أقضي	-14097
▁إلهى	-14098
▁استُ	-14099
▁الذه	-14100
▁امسك	-14101
▁ببطء	-14102
▁بريت	-14103
▁بعود	-14104
▁بيوم	-14105
▁تجرؤ	-14106
▁ترحل	-14107
▁ترفض	-14108
▁تمتع	-14109
▁ثروة	-14110
▁ثمان	-14111
▁جبان	-14112
▁جنود	-14113
▁حاله	-14114
▁دعوت	-14115
▁سكين	-14116
▁شابه	-14117
▁طبيع	-14118
▁عربة	-14119
▁قتلك	-14120
▁محاص	-14121
▁محرج	-14122
▁مستر	-14123
▁مشاه	-14124
▁مُجد	-14125
▁هلاّ	-14126
▁وأنش	-14127
▁وحدي	-14128
▁ومثل	-14129
▁يرتك	-14130
▁يرمي	-14131
▁يضمن	-14132
▁يفضل	-14133
رسالها	-14134
▁أخذها	-14135
▁أغلقت	-14136
▁أمامي	-14137
▁أنماط	-14138
▁ابنتك	-14139
▁احتجت	-14140
▁الأري	-14141
▁الجسد	-14142
▁الرعب	-14143
▁الغام	-14144
▁القذر	-14145
▁الكشف	-14146
▁اللام	-14147
▁المسح	-14148
▁بالأح	-14149
▁بالمل	-14150
▁بتحسن	-14151
▁بصفته	-14152
▁بمكتب	-14153
▁تأجيل	-14154
▁تأهيل	-14155
▁تزوجت	-14156
▁تفاهم	-14157
▁تكافؤ	-14158
▁حذراً	-14159
▁حولها	-14160
▁سحقاً	-14161
▁سخيفة	-14162
▁طلبها	-14163
▁قتلته	-14164
▁كريست	-14165
▁لأنكِ	-14166
▁لتصبح	-14167
▁لديكَ	-14168
▁للإست	-14169
▁ليصبح	-14170
▁ماعدا	-14171
▁مساهم	-14172
▁مصابة	-14173
▁ميتاً	-14174
▁نعرفه	-14175
▁هياكل	-14176
▁وبشكل	-14177
▁وتؤكد	-14178
▁وتحدث	-14179
▁وجدتُ	-14180
▁وفيات	-14181
▁يختار	-14182
▁يقترب	-14183
▁أريدكِ	-14184
▁أريدها	-14185
▁اختتام	-14186
▁اعتقال	-14187
▁الحريق	-14188
▁الحقيق	-14189
▁الحلوى	-14190
▁الحملة	-14191
▁الخاطئ	-14192
▁الدفعة	-14193
▁القرآن	-14194
▁القناة	-14195
▁اللوحة	-14196
▁باللغة	-14197
▁بنفسها	-14198
▁ثلاثين	-14199
▁جميلاً	-14200
▁سيساعد	-14201
▁كاميرا	-14202
▁لبلدان	-14203
▁لخدمات	-14204
▁للحياة	-14205
▁للمكتب	-14206
▁مؤخرتي	-14207
▁مشروعة	-14208
▁مفقودة	-14209
▁مقررات	-14210
▁مواعيد	-14211
▁موسيقى	-14212
▁وكفالة	-14213
▁ومشروع	-14214
▁ووفقاً	-14215
▁يستهدف	-14216
▁يقدمها	-14217
▁إعتقدتُ	-14218
▁الأبحاث	-14219
▁الأسعار	-14220
▁الأهلية	-14221
▁الإبقاء	-14222
▁الإشراف	-14223
▁التأهيل	-14224
▁الترتيب	-14225
▁التفاوت	-14226
▁الثانوي	-14227
▁الراديو	-14228
▁القاسية	-14229
▁اللاحقة	-14230
▁المعترف	-14231
▁الممثلة	-14232
▁الواجبة	-14233
▁الواسعة	-14234
▁بالنسبه	-14235
▁بممارسة	-14236
▁تحسينات	-14237
▁تطبيقها	-14238
▁دقيقتين	-14239
▁قدراتها	-14240
▁للأعمال	-14241
▁للمدرسة	-14242
▁مؤتمرات	-14243
▁مستقبلا	-14244
▁استناداً	-14245
▁الأبرياء	-14246
▁الفعالية	-14247
▁الفقرتان	-14248
▁الكراهية	-14249
▁المتضررة	-14250
▁والإبلاغ	-14251
▁الاشتراكات	-14252
▁البيولوجية	-14253
▁المستشفيات	-14254
ــــــــــــــــ	-14255
إل	-14256
ئى	-14257
بَ	-14258
عج	-14259
لأ	-14260
لس	-14261
هِ	-14262
ُج	-14263
/22	-14264
/30	-14265
con	-14266
أيّ	-14267
ئهم	-14268
ابا	-14269
اصد	-14270
خبة	-14271
ذهل	-14272
رخي	-14273
ركض	-14274
سأت	-14275
طون	-14276
فاي	-14277
متُ	-14278
مست	-14279
وهو	-14280
يما	-14281
ّان	-14282
▁ex	-14283
▁kn	-14284
▁هه	-14285
/56/	-14286
ادها	-14287
المع	-14288
بدون	-14289
رجان	-14290
صرّف	-14291
قتال	-14292
مّام	-14293
نتقل	-14294
ولاي	-14295
يتار	-14296
يدية	-14297
▁19-	-14298
▁24-	-14299
▁أقف	-14300
▁أَن	-14301
▁إيف	-14302
▁إيم	-14303
▁ابى	-14304
▁اتّ	-14305
▁اند	-14306
▁بوك	-14307
▁تسع	-14308
▁تشك	-14309
▁جذا	-14310
▁زاي	-14311
▁سبي	-14312
▁كاي	-14313
▁كوم	-14314
▁لعل	-14315
▁موك	-14316
▁نات	-14317
▁نطا	-14318
▁نفع	-14319
▁وام	-14320
▁يبر	-14321
▁يقت	-14322
التين	-14323
باحية	-14324
زونات	-14325
لاحية	-14326
مينيا	-14327
هياكل	-14328
يرغيز	-14329
▁أجرة	-14330
▁أخذه	-14331
▁أرجع	-14332
▁أيّة	-14333
▁إلاّ	-14334
▁ابنه	-14335
▁الإب	-14336
▁الشت	-14337
▁انسى	-14338
▁اوقف	-14339
▁بعقد	-14340
▁بفتح	-14341
▁بقول	-14342
▁بيتك	-14343
▁بينك	-14344
▁تخصص	-14345
▁تسلي	-14346
▁تسمى	-14347
▁تسمي	-14348
▁تضحك	-14349
▁تغلق	-14350
▁تنضم	-14351
▁تونس	-14352
▁حاسم	-14353
▁حريق	-14354
▁حزام	-14355
▁خلفي	-14356
▁رغبة	-14357
▁زمني	-14358
▁سجلت	-14359
▁سنست	-14360
▁شابة	-14361
▁عاطف	-14362
▁غرين	-14363
▁غطاء	-14364
▁فالم	-14365
▁فعلي	-14366
▁قطار	-14367
▁كالت	-14368
▁هلّا	-14369
▁وبدأ	-14370
▁وحفظ	-14371
▁ونظر	-14372
▁يبين	-14373
▁يجلس	-14374
▁يدعي	-14375
▁00/13	-14376
▁أحوال	-14377
▁أغسطس	-14378
▁ألعاب	-14379
▁أنّكَ	-14380
▁أنّهم	-14381
▁إتصلت	-14382
▁إيصال	-14383
▁الأسط	-14384
▁الإذن	-14385
▁البري	-14386
▁الجمع	-14387
▁الشيئ	-14388
▁الطال	-14389
▁العار	-14390
▁العصر	-14391
▁القائ	-14392
▁اللوح	-14393
▁المُت	-14394
▁الوال	-14395
▁بالتن	-14396
▁بالخط	-14397
▁بالشر	-14398
▁بمركز	-14399
▁تتحول	-14400
▁تجاري	-14401
▁تجهيز	-14402
▁تذكري	-14403
▁تذكّر	-14404
▁تقليل	-14405
▁جراحة	-14406
▁جنرال	-14407
▁حقّاً	-14408
▁دورها	-14409
▁رؤيتي	-14410
▁سرطان	-14411
▁سريعا	-14412
▁سليمة	-14413
▁سيجري	-14414
▁صحيفة	-14415
▁ظاهرة	-14416
▁لجهود	-14417
▁للأمر	-14418
▁للوقت	-14419
▁محدود	-14420
▁مرتبط	-14421
▁مصائد	-14422
▁مطلوب	-14423
▁منازل	-14424
▁مهماً	-14425
▁والأس	-14426
▁والبر	-14427
▁والمد	-14428
▁وتعرب	-14429
▁وجنوب	-14430
▁أرجوكم	-14431
▁إخبارك	-14432
▁إيجابي	-14433
▁افعلها	-14434
▁الأقصى	-14435
▁التقيد	-14436
▁الحياه	-14437
▁الذكور	-14438
▁الرتبة	-14439
▁الضخمة	-14440
▁اللورد	-14441
▁المبين	-14442
▁المحفل	-14443
▁المخطط	-14444
▁المدخل	-14445
▁المزمع	-14446
▁انتقلت	-14447
▁بأنّها	-14448
▁بالبشر	-14449
▁بالدول	-14450
▁برعاية	-14451
▁بصفتها	-14452
▁بلجيكا	-14453
▁بندقية	-14454
▁تتركني	-14455
▁تستفيد	-14456
▁تفكرين	-14457
▁تقديمه	-14458
▁تقريري	-14459
▁سأحاول	-14460
▁كثيرًا	-14461
▁لتبادل	-14462
▁لتسوية	-14463
▁لحالات	-14464
▁لربّما	-14465
▁للأسفل	-14466
▁للجنوب	-14467
▁للنهوض	-14468
▁متكامل	-14469
▁معروضا	-14470
▁وأصبحت	-14471
▁ويعتبر	-14472
الولايات	-14473
وستاريكا	-14474
▁إسبانيا	-14475
▁استكشاف	-14476
▁الأخطار	-14477
▁الأفرقة	-14478
▁الالكتر	-14479
▁التحضير	-14480
▁الدوائر	-14481
▁الذخائر	-14482
▁الروسية	-14483
▁العامين	-14484
▁العظيمة	-14485
▁الغريبة	-14486
▁القذائف	-14487
▁المفروض	-14488
▁الهندية	-14489
▁الوظيفي	-14490
▁بالبيئة	-14491
▁بالحياة	-14492
▁تساعدني	-14493
▁سيكونون	-14494
▁كرواتيا	-14495
▁للأمانة	-14496
▁والثاني	-14497
▁والمجلس	-14498
▁اقتراحات	-14499
▁الأغلبية	-14500
▁الانخفاض	-14501
▁المثالية	-14502
▁المحيطات	-14503
▁المعارضة	-14504
▁المقاومة	-14505
▁بالاتصال	-14506
▁بالمسائل	-14507
▁استثنائية	-14508
▁الألمانية	-14509
▁الإجرائية	-14510
▁الإجمالية	-14511
▁الإعلانات	-14512
▁التنافسية	-14513
▁اللبنانية	-14514
▁المتفجرات	-14515
▁اليابانية	-14516
▁والموظفين	-14517
▁University	-14518
▁الاقتصادات	-14519
▁الاستقصائية	-14520
)ـ	-14521
="	-14522
sl	-14523
او	-14524
بُ	-14525
شه	-14526
طْ	-14527
كف	-14528
-10	-14529
HRC	-14530
ide	-14531
ond	-14532
rou	-14533
آدم	-14534
أظن	-14535
أنف	-14536
ائى	-14537
تلر	-14538
جدر	-14539
جيت	-14540
رجو	-14541
رمة	-14542
عان	-14543
غور	-14544
ـُـ	-14545
قصة	-14546
قله	-14547
كلت	-14548
كّن	-14549
منذ	-14550
نود	-14551
وبه	-14552
وسف	-14553
وصى	-14554
ونز	-14555
يكو	-14556
ُكَ	-14557
ِنا	-14558
ِّن	-14559
ّلة	-14560
▁1:	-14561
▁86	-14562
▁بض	-14563
▁لذ	-14564
evel	-14565
http	-14566
orld	-14567
ابري	-14568
اصلة	-14569
المن	-14570
انتي	-14571
براد	-14572
جيءُ	-14573
دائي	-14574
دتين	-14575
دران	-14576
ديني	-14577
رائي	-14578
رافة	-14579
شترك	-14580
ظلمة	-14581
ظيعة	-14582
فتقد	-14583
فيلة	-14584
قتهم	-14585
كاوى	-14586
لتهم	-14587
لتون	-14588
لندن	-14589
لوسي	-14590
مجرد	-14591
مينا	-14592
وانه	-14593
وسون	-14594
وفية	-14595
ولها	-14596
يزال	-14597
ّارة	-14598
▁أشت	-14599
▁أكت	-14600
▁اري	-14601
▁بدع	-14602
▁بطي	-14603
▁تخد	-14604
▁خبز	-14605
▁راج	-14606
▁ربع	-14607
▁رقص	-14608
▁زفا	-14609
▁سلط	-14610
▁سنن	-14611
▁عدو	-14612
▁فرج	-14613
▁قطّ	-14614
▁كاه	-14615
▁كوك	-14616
▁متم	-14617
▁مدم	-14618
▁هال	-14619
▁وسب	-14620
▁وكر	-14621
▁يحل	-14622
بانيا	-14623
تهديد	-14624
رايان	-14625
سيكون	-14626
شردين	-14627
ضطراب	-14628
عاقبة	-14629
عددية	-14630
علومة	-14631
عمالة	-14632
غوليا	-14633
نازير	-14634
وفيتش	-14635
▁ألاّ	-14636
▁أمني	-14637
▁اعطي	-14638
▁اغلق	-14639
▁الأث	-14640
▁الشق	-14641
▁بورت	-14642
▁بوصف	-14643
▁تبني	-14644
▁تربط	-14645
▁تضيع	-14646
▁تكبد	-14647
▁جلست	-14648
▁جوني	-14649
▁جينا	-14650
▁جيني	-14651
▁حارس	-14652
▁راحة	-14653
▁رجلٌ	-14654
▁سداد	-14655
▁سلبي	-14656
▁سميث	-14657
▁سَنَ	-14658
▁شعري	-14659
▁شكوى	-14660
▁صدور	-14661
▁صيغة	-14662
▁ظريف	-14663
▁عظام	-14664
▁عودي	-14665
▁فالت	-14666
▁فلقد	-14667
▁قاضي	-14668
▁قناة	-14669
▁كايل	-14670
▁كيلي	-14671
▁لأقل	-14672
▁لانت	-14673
▁لاني	-14674
▁لغات	-14675
▁لكنى	-14676
▁للدي	-14677
▁لنزع	-14678
▁ليزا	-14679
▁ليسَ	-14680
▁مبار	-14681
▁مجتم	-14682
▁مخصص	-14683
▁مصنع	-14684
▁موجه	-14685
▁نسمة	-14686
▁نفكر	-14687
▁وقتي	-14688
▁ولكي	-14689
▁يحول	-14690
▁يشتر	-14691
▁يصرخ	-14692
▁يفيد	-14693
▁يقلق	-14694
▁يهرب	-14695
درالية	-14696
موسيقى	-14697
نزويلا	-14698
هاجرين	-14699
وكايين	-14700
▁أبتعد	-14701
▁أشتري	-14702
▁أقتله	-14703
▁أنقذت	-14704
▁إسهام	-14705
▁إنذار	-14706
▁الأجر	-14707
▁التذك	-14708
▁الجسر	-14709
▁الريف	-14710
▁السبع	-14711
▁السوء	-14712
▁العفو	-14713
▁الفهم	-14714
▁الفين	-14715
▁اللوم	-14716
▁المحق	-14717
▁المصن	-14718
▁الملح	-14719
▁الملي	-14720
▁الّذي	-14721
▁بأسره	-14722
▁بتغير	-14723
▁بحيرة	-14724
▁براين	-14725
▁تحبني	-14726
▁تحذير	-14727
▁تنقيح	-14728
▁توعية	-14729
▁تُخبر	-14730
▁حالته	-14731
▁حاولي	-14732
▁حرارة	-14733
▁سأجعل	-14734
▁سأرسل	-14735
▁ساعدت	-14736
▁سروري	-14737
▁سنعود	-14738
▁سيجعل	-14739
▁سيمون	-14740
▁شفويا	-14741
▁طلبته	-14742
▁عزيزى	-14743
▁علمنا	-14744
▁كارتر	-14745
▁لرئيس	-14746
▁لعينة	-14747
▁لوحده	-14748
▁متوقع	-14749
▁مسبقا	-14750
▁معجزة	-14751
▁مفصلة	-14752
▁مكتبك	-14753
▁نظرية	-14754
▁وأنتم	-14755
▁والأم	-14756
▁والدا	-14757
▁ومكاف	-14758
▁أغلبية	-14759
▁ابتداء	-14760
▁الآلاف	-14761
▁الايام	-14762
▁التجمع	-14763
▁التضخم	-14764
▁الجاري	-14765
▁الجبهة	-14766
▁الخطاب	-14767
▁الصعبة	-14768
▁العربة	-14769
▁الفائز	-14770
▁القادة	-14771
▁القبول	-14772
▁الكمية	-14773
▁المفيد	-14774
▁المنطق	-14775
▁اليورو	-14776
▁بالسوء	-14777
▁بتطبيق	-14778
▁جعلتني	-14779
▁جنسياً	-14780
▁حبيبتى	-14781
▁رسمياً	-14782
▁سؤالاً	-14783
▁ستفعله	-14784
▁شيكاغو	-14785
▁عليهما	-14786
▁فيكتور	-14787
▁كاملاً	-14788
▁لإنهاء	-14789
▁لتدريب	-14790
▁لصندوق	-14791
▁لضحايا	-14792
▁للشعوب	-14793
▁لمنطقة	-14794
▁مراراً	-14795
▁مستيقظ	-14796
▁نظامها	-14797
▁نوفمبر	-14798
▁وأعمال	-14799
▁واستنا	-14800
▁والثال	-14801
▁والحكم	-14802
▁وعملية	-14803
▁ولدينا	-14804
▁ولكنّي	-14805
▁ويتضمن	-14806
▁يفعلوا	-14807
▁يُفترض	-14808
▁البطاقة	-14809
▁التأخير	-14810
▁الجسيمة	-14811
▁الخريطة	-14812
▁الشفوية	-14813
▁العلماء	-14814
▁القابلة	-14815
▁القنابل	-14816
▁المظالم	-14817
▁المهتمة	-14818
▁اهتماما	-14819
▁بالجوار	-14820
▁ببرنامج	-14821
▁رومانيا	-14822
▁فصاعداً	-14823
▁لأوروبا	-14824
▁للتحقيق	-14825
▁متأكداً	-14826
▁مطالبات	-14827
▁واعتماد	-14828
▁والشباب	-14829
▁الافتقار	-14830
▁الانترنت	-14831
▁العاملات	-14832
▁العلامات	-14833
▁المتعاقد	-14834
▁المتمتعة	-14835
▁بالتاكيد	-14836
▁بالموضوع	-14837
▁للمراقبة	-14838
▁والآليات	-14839
▁والأهداف	-14840
▁والعشرون	-14841
▁والقواعد	-14842
▁يستخدمون	-14843
▁استنتاجات	-14844
▁الأفغانية	-14845
▁التسعينات	-14846
▁الكاريبية	-14847
▁المتبادلة	-14848
▁المتمردين	-14849
▁والاستثمار	-14850
▁بالالتزامات	-14851
)}	-14852
55	-14853
ge	-14854
صه	-14855
ass	-14856
ind	-14857
ددة	-14858
زلج	-14859
سنة	-14860
صاح	-14861
ضيت	-14862
طام	-14863
ظرة	-14864
عكة	-14865
ناف	-14866
وجا	-14867
يال	-14868
▁92	-14869
▁uh	-14870
▁أؤ	-14871
▁جئ	-14872
▁دف	-14873
▁غط	-14874
▁فَ	-14875
ical	-14876
ould	-14877
آرثر	-14878
تباً	-14879
تشاك	-14880
تعال	-14881
جربة	-14882
حتهم	-14883
ريعة	-14884
زويد	-14885
سلام	-14886
شكال	-14887
ظارك	-14888
عاود	-14889
عطاء	-14890
علّق	-14891
لهول	-14892
ماغي	-14893
نياء	-14894
نياً	-14895
هودي	-14896
وائف	-14897
وارق	-14898
وجبه	-14899
وردن	-14900
▁25-	-14901
▁Mar	-14902
▁أسن	-14903
▁أمم	-14904
▁أَت	-14905
▁إثر	-14906
▁بائ	-14907
▁تاك	-14908
▁تبع	-14909
▁تتب	-14910
▁تجل	-14911
▁تكل	-14912
▁تلا	-14913
▁ثقب	-14914
▁ثمل	-14915
▁جنب	-14916
▁حذف	-14917
▁حشد	-14918
▁سيؤ	-14919
▁سيم	-14920
▁شاي	-14921
▁شرا	-14922
▁عنف	-14923
▁كدت	-14924
▁لتر	-14925
▁لسل	-14926
▁لقط	-14927
▁لمّ	-14928
▁مؤل	-14929
▁محط	-14930
▁نثق	-14931
▁وأب	-14932
▁وبا	-14933
▁وثي	-14934
▁وصي	-14935
▁وند	-14936
▁وود	-14937
▁ووض	-14938
▁يقم	-14939
/1999	-14940
ارتنا	-14941
بابوي	-14942
تكلمت	-14943
تمنّى	-14944
علينا	-14945
ليلاً	-14946
ليمون	-14947
ماثلة	-14948
مارات	-14949
مكننا	-14950
وماذا	-14951
▁أثار	-14952
▁أحمل	-14953
▁أدين	-14954
▁أرحل	-14955
▁أظنه	-14956
▁أعطى	-14957
▁أقود	-14958
▁أكلت	-14959
▁أمرٌ	-14960
▁إلين	-14961
▁اخذت	-14962
▁ادفع	-14963
▁اقسم	-14964
▁السخ	-14965
▁النق	-14966
▁الول	-14967
▁بازل	-14968
▁تسقط	-14969
▁تعبر	-14970
▁تفحص	-14971
▁تقني	-14972
▁تلقت	-14973
▁تمنع	-14974
▁تهمة	-14975
▁جعله	-14976
▁جوهر	-14977
▁حددت	-14978
▁روحي	-14979
▁شخصٍ	-14980
▁صدمة	-14981
▁طبقة	-14982
▁فتاه	-14983
▁فكري	-14984
▁فيني	-14985
▁قتال	-14986
▁قطعت	-14987
▁للحق	-14988
▁مذنب	-14989
▁مشهد	-14990
▁ندعو	-14991
▁نشعر	-14992
▁وأخذ	-14993
▁وبأن	-14994
▁ودور	-14995
▁وذهب	-14996
▁وعرض	-14997
▁وعقد	-14998
▁وكره	-14999
▁يبعد	-15000
▁يسقط	-15001
▁يشهد	-15002
▁يهدف	-15003
غرافية	-15004
▁2000)	-15005
▁2006)	-15006
▁Press	-15007
▁أتأكد	-15008
▁أتخيل	-15009
▁أخذوا	-15010
▁أنهيت	-15011
▁إبنتي	-15012
▁إدراك	-15013
▁إنهما	-15014
▁اخترت	-15015
▁افتقد	-15016
▁افعله	-15017
▁الآمن	-15018
▁الألب	-15019
▁الإير	-15020
▁الاخر	-15021
▁الخشب	-15022
▁السلف	-15023
▁الصدر	-15024
▁الكاف	-15025
▁اللحظ	-15026
▁الوصف	-15027
▁ايجاد	-15028
▁باردة	-15029
▁بالأس	-15030
▁برمته	-15031
▁بلدنا	-15032
▁بمرور	-15033
▁تريدي	-15034
▁توازن	-15035
▁توقعت	-15036
▁جانبا	-15037
▁جانبي	-15038
▁جديده	-15039
▁جميله	-15040
▁جيران	-15041
▁خاصتك	-15042
▁دوائر	-15043
▁رأيتِ	-15044
▁رجالي	-15045
▁زاوية	-15046
▁طرائق	-15047
▁عاجلة	-15048
▁فخامة	-15049
▁فرادى	-15050
▁فربما	-15051
▁فرعية	-15052
▁كأنني	-15053
▁كلامي	-15054
▁لانني	-15055
▁لبعثة	-15056
▁للبيع	-15057
▁للشخص	-15058
▁لنفعل	-15059
▁محترف	-15060
▁مفرطة	-15061
▁مكانٍ	-15062
▁هجمات	-15063
▁وأيضا	-15064
▁وتقول	-15065
▁وتوجد	-15066
▁وفريق	-15067
▁وكندا	-15068
▁ويوجد	-15069
▁يستطع	-15070
▁يشاهد	-15071
▁يوميا	-15072
▁يُرام	-15073
▁أخبرنا	-15074
▁أستيقظ	-15075
▁إنتباه	-15076
▁الأردن	-15077
▁الأمية	-15078
▁البكاء	-15079
▁التوتر	-15080
▁الجليد	-15081
▁الحصان	-15082
▁الحلول	-15083
▁الرائد	-15084
▁الرجاء	-15085
▁السرقة	-15086
▁السلمي	-15087
▁السوري	-15088
▁الصالح	-15089
▁العاشر	-15090
▁المتاح	-15091
▁المضحك	-15092
▁المقدس	-15093
▁المنشأ	-15094
▁النداء	-15095
▁بالبحث	-15096
▁برؤيتك	-15097
▁تطورات	-15098
▁تقتلني	-15099
▁جاهزون	-15100
▁حاولوا	-15101
▁حكومتي	-15102
▁ستحتاج	-15103
▁سنفعله	-15104
▁عليكما	-15105
▁للدخول	-15106
▁لَكنَّ	-15107
▁متخصصة	-15108
▁مخالفة	-15109
▁مقاومة	-15110
▁ممثلين	-15111
▁مواضيع	-15112
▁واعتمد	-15113
▁واقترح	-15114
▁والدها	-15115
▁وتشغيل	-15116
▁وتعتبر	-15117
▁وتنمية	-15118
▁يملكون	-15119
فغانستان	-15120
▁أخبرتها	-15121
▁أرمينيا	-15122
▁إرهابية	-15123
▁استقلال	-15124
▁الأبواب	-15125
▁الأطوار	-15126
▁الأنواع	-15127
▁الإسلام	-15128
▁الإنذار	-15129
▁الباردة	-15130
▁التسوية	-15131
▁الحلقات	-15132
▁الزبائن	-15133
▁الزمنية	-15134
▁العديدة	-15135
▁العواقب	-15136
▁القومية	-15137
▁الكتابة	-15138
▁المرونة	-15139
▁المضطلع	-15140
▁المعمول	-15141
▁المنشآت	-15142
▁النظيفة	-15143
▁للاطلاع	-15144
▁مستعداً	-15145
▁واحتلال	-15146
▁وسياسات	-15147
▁يتحدثون	-15148
يرغيزستان	-15149
▁الاعتقال	-15150
▁الدانمرك	-15151
▁العراقية	-15152
▁العقاقير	-15153
▁المتكررة	-15154
▁المحامين	-15155
▁المختلطة	-15156
▁اليونسكو	-15157
▁بالغابات	-15158
▁للإهتمام	-15159
▁والحكومة	-15160
▁واليابان	-15161
▁بالمساعدة	-15162
▁الكهربائية	-15163
cl	-15164
ثن	-15165
فَ	-15166
كْ	-15167
ّج	-15168
▁ْ	-15169
/28	-15170
/29	-15171
age	-15172
ern	-15173
vir	-15174
أست	-15175
ثول	-15176
ثيا	-15177
جام	-15178
جرب	-15179
جوا	-15180
حبه	-15181
خرا	-15182
ديء	-15183
ديز	-15184
سلل	-15185
شعة	-15186
فتر	-15187
كسر	-15188
لاو	-15189
مسا	-15190
موه	-15191
وتة	-15192
يرس	-15193
يله	-15194
ّري	-15195
ّكَ	-15196
ّلت	-15197
▁("	-15198
▁جى	-15199
▁ده	-15200
▁رم	-15201
▁ره	-15202
▁صب	-15203
▁طع	-15204
▁فج	-15205
▁نض	-15206
▁نل	-15207
/57/	-15208
____	-15209
ever	-15210
form	-15211
اكهة	-15212
اهية	-15213
بشأن	-15214
تحان	-15215
تحمل	-15216
ثارة	-15217
جبات	-15218
حالة	-15219
حتكم	-15220
خبره	-15221
رتنا	-15222
زيين	-15223
سادة	-15224
سبين	-15225
عتاد	-15226
قيود	-15227
كمان	-15228
كيلي	-15229
لابس	-15230
نسون	-15231
وائز	-15232
وبرا	-15233
وهذا	-15234
يادي	-15235
يرها	-15236
ّالة	-15237
▁21-	-15238
▁تان	-15239
▁تشع	-15240
▁تمه	-15241
▁جيك	-15242
▁حاف	-15243
▁حقل	-15244
▁حقّ	-15245
▁دوغ	-15246
▁ريو	-15247
▁شين	-15248
▁صيغ	-15249
▁ضئي	-15250
▁ضعه	-15251
▁طعم	-15252
▁فكل	-15253
▁قدّ	-15254
▁قلم	-15255
▁لأح	-15256
▁مجل	-15257
▁مرج	-15258
▁مطب	-15259
▁مهل	-15260
▁ميش	-15261
▁مُج	-15262
▁نشط	-15263
▁نقط	-15264
▁نية	-15265
▁هوا	-15266
▁وأث	-15267
▁وسم	-15268
▁وور	-15269
▁يان	-15270
▁يجر	-15271
viron	-15272
اريخي	-15273
تيمور	-15274
جاهات	-15275
صديقي	-15276
طارات	-15277
كارتر	-15278
لاثون	-15279
لالات	-15280
ميتها	-15281
وسكار	-15282
▁55/2	-15283
▁from	-15284
▁أتفق	-15285
▁أجلب	-15286
▁أخيك	-15287
▁أشيا	-15288
▁أنصت	-15289
▁أنوي	-15290
▁أوّل	-15291
▁انضم	-15292
▁بأخذ	-15293
▁باهر	-15294
▁بمثل	-15295
▁تأتى	-15296
▁تحبه	-15297
▁تخسر	-15298
▁تعلق	-15299
▁تقيم	-15300
▁توضح	-15301
▁تيري	-15302
▁جناح	-15303
▁حماس	-15304
▁خاصا	-15305
▁دواء	-15306
▁دونا	-15307
▁شملت	-15308
▁شيءَ	-15309
▁صحية	-15310
▁صوتا	-15311
▁طراز	-15312
▁عليا	-15313
▁كبرت	-15314
▁كبرى	-15315
▁كيلو	-15316
▁لحما	-15317
▁لغرض	-15318
▁لقول	-15319
▁لوال	-15320
▁محرك	-15321
▁محلي	-15322
▁مريح	-15323
▁نأكل	-15324
▁نؤمن	-15325
▁نائم	-15326
▁نشأت	-15327
▁هائل	-15328
▁هولي	-15329
▁وارد	-15330
▁واقف	-15331
▁وشدد	-15332
▁يسلم	-15333
▁ينفع	-15334
▁يوقف	-15335
دارتها	-15336
شيخوخة	-15337
فيكتور	-15338
قترحات	-15339
▁آنذاك	-15340
▁أخيرة	-15341
▁أردتِ	-15342
▁أعنيه	-15343
▁أليكس	-15344
▁أوساط	-15345
▁إحالة	-15346
▁إضفاء	-15347
▁اطلاق	-15348
▁الأعم	-15349
▁البنت	-15350
▁الحلم	-15351
▁الشحن	-15352
▁الشىء	-15353
▁العشر	-15354
▁الفحص	-15355
▁اللاإ	-15356
▁المقط	-15357
▁النور	-15358
▁بصفتي	-15359
▁بقيمة	-15360
▁بنظام	-15361
▁تأسيس	-15362
▁تكلمت	-15363
▁توظيف	-15364
▁ثالثة	-15365
▁حيازة	-15366
▁خلاله	-15367
▁زجاجة	-15368
▁سمعتُ	-15369
▁سنحصل	-15370
▁صغيره	-15371
▁ضريبة	-15372
▁عددها	-15373
▁عملاء	-15374
▁عنصرا	-15375
▁فعلتي	-15376
▁قراري	-15377
▁قلتها	-15378
▁للاعت	-15379
▁لوجود	-15380
▁مخلوق	-15381
▁مدتها	-15382
▁مساءً	-15383
▁مشكله	-15384
▁مصطلح	-15385
▁مقربة	-15386
▁مكتبة	-15387
▁ملفات	-15388
▁ملموس	-15389
▁مناصب	-15390
▁منفصل	-15391
▁وأفضل	-15392
▁ونرحب	-15393
▁يترتب	-15394
▁يرتبط	-15395
▁يظنون	-15396
▁يعالج	-15397
منشورات	-15398
▁أنشطته	-15399
▁إرهابي	-15400
▁ارتداء	-15401
▁اشتريت	-15402
▁الاخير	-15403
▁التخرج	-15404
▁التخلي	-15405
▁الدعوى	-15406
▁الدينا	-15407
▁الردود	-15408
▁السليم	-15409
▁الشبكي	-15410
▁الصيغة	-15411
▁الطاقم	-15412
▁العادل	-15413
▁العبور	-15414
▁العيون	-15415
▁الفطور	-15416
▁اللائي	-15417
▁المدقع	-15418
▁المضيف	-15419
▁المطلق	-15420
▁المنسق	-15421
▁الوداع	-15422
▁بإدراج	-15423
▁بالأمم	-15424
▁بالاعت	-15425
▁بدورها	-15426
▁بعناية	-15427
▁بقيادة	-15428
▁بمقدار	-15429
▁تايلور	-15430
▁تدفقات	-15431
▁تعالوا	-15432
▁حساسية	-15433
▁حقيقيا	-15434
▁سيارته	-15435
▁قادرين	-15436
▁لاتقلق	-15437
▁لاحقًا	-15438
▁للحفاظ	-15439
▁للزواج	-15440
▁للسلطة	-15441
▁للشفقة	-15442
▁متوترة	-15443
▁محادثة	-15444
▁مركبات	-15445
▁مزيداً	-15446
▁مسؤولة	-15447
▁مشروعي	-15448
▁والبنك	-15449
▁والنمو	-15450
▁وتقرير	-15451
▁وتمكين	-15452
▁وخصوصا	-15453
▁وسلامة	-15454
▁وظيفتي	-15455
▁يذهبون	-15456
▁يسعدني	-15457
▁أعطيتني	-15458
▁إعلانات	-15459
▁إكوادور	-15460
▁استهلاك	-15461
▁الأحذية	-15462
▁الإسكان	-15463
▁الإفراج	-15464
▁البدنية	-15465
▁الحاشية	-15466
▁السارية	-15467
▁الظهيرة	-15468
▁القذارة	-15469
▁القصيرة	-15470
▁المتكلم	-15471
▁المفوضة	-15472
▁المكتسب	-15473
▁بالإيدز	-15474
▁بالنظام	-15475
▁بمشاركة	-15476
▁تستطيعي	-15477
▁تقليدية	-15478
▁تقييمات	-15479
▁لاعتماد	-15480
▁لايمكنك	-15481
▁للتعامل	-15482
▁لمواصلة	-15483
▁متطلبات	-15484
▁مساعدته	-15485
▁والجهات	-15486
▁الاختفاء	-15487
▁الاغتصاب	-15488
▁الانتقام	-15489
▁البحيرات	-15490
▁البلاغات	-15491
▁الحضارات	-15492
▁الدائمين	-15493
▁الملائكة	-15494
▁باستعراض	-15495
▁بنغلاديش	-15496
▁تَستطيعُ	-15497
▁للحكومات	-15498
▁للمخدرات	-15499
▁للمعايير	-15500
▁2000-2001	-15501
▁التعليمات	-15502
▁السياسيين	-15503
▁الكونغولي	-15504
▁المنشورات	-15505
▁لاحتياجات	-15506
▁للاتصالات	-15507
▁والبيانات	-15508
▁وبروتوكول	-15509
▁الأكاديمية	-15510
▁للاحتياجات	-15511
▁الإيكولوجية	-15512
(3	-15513
..	-15514
80	-15515
II	-15516
eb	-15517
تة	-15518
تت	-15519
زد	-15520
فد	-15521
قظ	-15522
نم	-15523
ُص	-15524
Sub	-15525
ens	-15526
ild	-15527
اين	-15528
تشي	-15529
درك	-15530
رأس	-15531
رقي	-15532
زنة	-15533
شيئ	-15534
صان	-15535
ضير	-15536
طاد	-15537
طفي	-15538
غني	-15539
فقه	-15540
قوا	-15541
كاب	-15542
كفل	-15543
لكة	-15544
ناي	-15545
هري	-15546
وزا	-15547
ويس	-15548
يفه	-15549
▁76	-15550
▁رش	-15551
▁رف	-15552
▁غب	-15553
inal	-15554
اجيك	-15555
باعة	-15556
برون	-15557
بطين	-15558
جاهل	-15559
حتفل	-15560
خافي	-15561
خيصة	-15562
ذكاء	-15563
رافا	-15564
ريان	-15565
زداد	-15566
ساور	-15567
سرية	-15568
شكيل	-15569
شيوس	-15570
ضباط	-15571
كولن	-15572
لائل	-15573
لاري	-15574
ميني	-15575
نتصف	-15576
نسان	-15577
هدفة	-15578
وحية	-15579
وسيا	-15580
وضاء	-15581
وكيو	-15582
يجار	-15583
▁33-	-15584
▁39-	-15585
▁ألى	-15586
▁اجت	-15587
▁ركز	-15588
▁سال	-15589
▁ستس	-15590
▁سحر	-15591
▁سنه	-15592
▁طمو	-15593
▁قلة	-15594
▁قنا	-15595
▁كاد	-15596
▁كاس	-15597
▁لتص	-15598
▁لقب	-15599
▁للز	-15600
▁لور	-15601
▁مدع	-15602
▁مسؤ	-15603
▁مها	-15604
▁وغد	-15605
▁وكي	-15606
▁	-15607
ا	-15608
ل	-15609
ي	-15610
ن	-15611
م	-15612
ت	-15613
و	-15614
ر	-15615
ع	-15616
ب	-15617
د	-15618
أ	-15619
ة	-15620
ه	-15621
ك	-15622
س	-15623
ف	-15624
ق	-15625
ح	-15626
ج	-15627
.	-15628
ذ	-15629
إ	-15630
ش	-15631
ى	-15632
،	-15633
ط	-15634
ص	-15635
خ	-15636
ض	-15637
ز	-15638
ث	-15639
-	-15640
؟	-15641
ئ	-15642
ً	-15643
غ	-15644
(	-15645
ء	-15646
)	-15647
ظ	-15648
ّ	-15649
0	-15650
ـ	-15651
"	-15652
,	-15653
1	-15654
ُ	-15655
2	-15656
َ	-15657
آ	-15658
ِ	-15659
ؤ	-15660
/	-15661
!	-15662
9	-15663
3	-15664
e	-15665
5	-15666
4	-15667
a	-15668
o	-15669
n	-15670
6	-15671
i	-15672
t	-15673
7	-15674
8	-15675
r	-15676
s	-15677
:	-15678
ْ	-15679
l	-15680
؛	-15681
d	-15682
c	-15683
h	-15684
A	-15685
u	-15686
m	-15687
C	-15688
p	-15689
f	-15690
g	-15691
ٌ	-15692
S	-15693
ٍ	-15694
y	-15695
b	-15696
w	-15697
I	-15698
'	-15699
”	-15700
“	-15701
*	-15702
\	-15703
F	-15704
»	-15705
«	-15706
v	-15707
E	-15708
R	-15709
P	-15710
N	-15711
T	-15712
♪	-15713
H	-15714
L	-15715
M	-15716
]	-15717
}	-15718
‫	-15719
D	-15720
{	-15721
[	-15722
k	-15723
B	-15724
`	-15725
O	-15726
?	-15727
_	-15728
#	-15729
G	-15730
W	-15731
•	-15732
U	-15733
=	-15734
%	-15735
x	-15736
J	-15737
K	-15738
V	-15739
