<pad>	0
<s>	0
</s>	0
<unk>	0
<0x00>	0
<0x01>	0
<0x02>	0
<0x03>	0
<0x04>	0
<0x05>	0
<0x06>	0
<0x07>	0
<0x08>	0
<0x09>	0
<0x0A>	0
<0x0B>	0
<0x0C>	0
<0x0D>	0
<0x0E>	0
<0x0F>	0
<0x10>	0
<0x11>	0
<0x12>	0
<0x13>	0
<0x14>	0
<0x15>	0
<0x16>	0
<0x17>	0
<0x18>	0
<0x19>	0
<0x1A>	0
<0x1B>	0
<0x1C>	0
<0x1D>	0
<0x1E>	0
<0x1F>	0
<0x20>	0
<0x21>	0
<0x22>	0
<0x23>	0
<0x24>	0
<0x25>	0
<0x26>	0
<0x27>	0
<0x28>	0
<0x29>	0
<0x2A>	0
<0x2B>	0
<0x2C>	0
<0x2D>	0
<0x2E>	0
<0x2F>	0
<0x30>	0
<0x31>	0
<0x32>	0
<0x33>	0
<0x34>	0
<0x35>	0
<0x36>	0
<0x37>	0
<0x38>	0
<0x39>	0
<0x3A>	0
<0x3B>	0
<0x3C>	0
<0x3D>	0
<0x3E>	0
<0x3F>	0
<0x40>	0
<0x41>	0
<0x42>	0
<0x43>	0
<0x44>	0
<0x45>	0
<0x46>	0
<0x47>	0
<0x48>	0
<0x49>	0
<0x4A>	0
<0x4B>	0
<0x4C>	0
<0x4D>	0
<0x4E>	0
<0x4F>	0
<0x50>	0
<0x51>	0
<0x52>	0
<0x53>	0
<0x54>	0
<0x55>	0
<0x56>	0
<0x57>	0
<0x58>	0
<0x59>	0
<0x5A>	0
<0x5B>	0
<0x5C>	0
<0x5D>	0
<0x5E>	0
<0x5F>	0
<0x60>	0
<0x61>	0
<0x62>	0
<0x63>	0
<0x64>	0
<0x65>	0
<0x66>	0
<0x67>	0
<0x68>	0
<0x69>	0
<0x6A>	0
<0x6B>	0
<0x6C>	0
<0x6D>	0
<0x6E>	0
<0x6F>	0
<0x70>	0
<0x71>	0
<0x72>	0
<0x73>	0
<0x74>	0
<0x75>	0
<0x76>	0
<0x77>	0
<0x78>	0
<0x79>	0
<0x7A>	0
<0x7B>	0
<0x7C>	0
<0x7D>	0
<0x7E>	0
<0x7F>	0
<0x80>	0
<0x81>	0
<0x82>	0
<0x83>	0
<0x84>	0
<0x85>	0
<0x86>	0
<0x87>	0
<0x88>	0
<0x89>	0
<0x8A>	0
<0x8B>	0
<0x8C>	0
<0x8D>	0
<0x8E>	0
<0x8F>	0
<0x90>	0
<0x91>	0
<0x92>	0
<0x93>	0
<0x94>	0
<0x95>	0
<0x96>	0
<0x97>	0
<0x98>	0
<0x99>	0
<0x9A>	0
<0x9B>	0
<0x9C>	0
<0x9D>	0
<0x9E>	0
<0x9F>	0
<0xA0>	0
<0xA1>	0
<0xA2>	0
<0xA3>	0
<0xA4>	0
<0xA5>	0
<0xA6>	0
<0xA7>	0
<0xA8>	0
<0xA9>	0
<0xAA>	0
<0xAB>	0
<0xAC>	0
<0xAD>	0
<0xAE>	0
<0xAF>	0
<0xB0>	0
<0xB1>	0
<0xB2>	0
<0xB3>	0
<0xB4>	0
<0xB5>	0
<0xB6>	0
<0xB7>	0
<0xB8>	0
<0xB9>	0
<0xBA>	0
<0xBB>	0
<0xBC>	0
<0xBD>	0
<0xBE>	0
<0xBF>	0
<0xC0>	0
<0xC1>	0
<0xC2>	0
<0xC3>	0
<0xC4>	0
<0xC5>	0
<0xC6>	0
<0xC7>	0
<0xC8>	0
<0xC9>	0
<0xCA>	0
<0xCB>	0
<0xCC>	0
<0xCD>	0
<0xCE>	0
<0xCF>	0
<0xD0>	0
<0xD1>	0
<0xD2>	0
<0xD3>	0
<0xD4>	0
<0xD5>	0
<0xD6>	0
<0xD7>	0
<0xD8>	0
<0xD9>	0
<0xDA>	0
<0xDB>	0
<0xDC>	0
<0xDD>	0
<0xDE>	0
<0xDF>	0
<0xE0>	0
<0xE1>	0
<0xE2>	0
<0xE3>	0
<0xE4>	0
<0xE5>	0
<0xE6>	0
<0xE7>	0
<0xE8>	0
<0xE9>	0
<0xEA>	0
<0xEB>	0
<0xEC>	0
<0xED>	0
<0xEE>	0
<0xEF>	0
<0xF0>	0
<0xF1>	0
<0xF2>	0
<0xF3>	0
<0xF4>	0
<0xF5>	0
<0xF6>	0
<0xF7>	0
<0xF8>	0
<0xF9>	0
<0xFA>	0
<0xFB>	0
<0xFC>	0
<0xFD>	0
<0xFE>	0
<0xFF>	0
▁t	-0
▁.	-1
▁a	-2
he	-3
▁i	-4
on	-5
re	-6
▁the	-7
▁s	-8
▁w	-9
ou	-10
▁,	-11
in	-12
at	-13
▁c	-14
▁o	-15
er	-16
▁m	-17
en	-18
▁b	-19
▁y	-20
▁d	-21
▁p	-22
an	-23
▁f	-24
or	-25
ing	-26
▁to	-27
▁you	-28
es	-29
▁an	-30
▁th	-31
▁of	-32
ed	-33
it	-34
▁h	-35
ion	-36
al	-37
▁in	-38
▁g	-39
▁n	-40
is	-41
▁l	-42
ar	-43
▁and	-44
om	-45
ll	-46
▁re	-47
ic	-48
▁?	-49
ve	-50
as	-51
ent	-52
▁it	-53
▁he	-54
▁e	-55
le	-56
ot	-57
▁be	-58
ation	-59
ow	-60
▁that	-61
st	-62
▁u	-63
▁we	-64
et	-65
▁on	-66
▁wh	-67
ri	-68
ro	-69
ct	-70
▁for	-71
ay	-72
id	-73
▁is	-74
ld	-75
▁me	-76
ly	-77
gh	-78
▁st	-79
ut	-80
se	-81
ce	-82
▁ha	-83
▁k	-84
ver	-85
ra	-86
ment	-87
▁j	-88
▁con	-89
▁go	-90
ght	-91
▁com	-92
▁de	-93
▁se	-94
im	-95
▁!	-96
▁do	-97
▁as	-98
out	-99
ke	-100
ith	-101
▁this	-102
ir	-103
▁with	-104
ur	-105
ch	-106
ad	-107
▁not	-108
op	-109
ter	-110
▁what	-111
▁un	-112
▁pro	-113
ol	-114
▁was	-115
ust	-116
il	-117
▁are	-118
am	-119
▁su	-120
ould	-121
▁ne	-122
ill	-123
▁have	-124
ck	-125
▁li	-126
ant	-127
her	-128
▁sh	-129
oun	-130
ort	-131
▁no	-132
pp	-133
ate	-134
▁2	-135
▁so	-136
▁my	-137
▁your	-138
od	-139
▁all	-140
▁1	-141
▁at	-142
ess	-143
ul	-144
un	-145
▁kn	-146
res	-147
▁can	-148
▁don	-149
▁ch	-150
art	-151
est	-152
ive	-153
▁know	-154
▁ex	-155
▁ri	-156
ea	-157
▁or	-158
▁lo	-159
ab	-160
our	-161
ity	-162
end	-163
and	-164
00	-165
▁but	-166
ies	-167
▁just	-168
ations	-169
ain	-170
ist	-171
ge	-172
ect	-173
▁by	-174
▁v	-175
▁right	-176
rom	-177
▁ab	-178
ers	-179
▁wor	-180
ie	-181
▁al	-182
qu	-183
um	-184
▁there	-185
ci	-186
ore	-187
ff	-188
▁som	-189
▁r	-190
▁out	-191
▁they	-192
us	-193
▁whe	-194
ry	-195
ig	-196
▁get	-197
th	-198
▁comm	-199
mp	-200
▁res	-201
os	-202
▁up	-203
all	-204
ake	-205
ren	-206
▁she	-207
iv	-208
ok	-209
▁here	-210
ee	-211
▁like	-212
▁from	-213
▁ag	-214
▁ad	-215
ard	-216
▁did	-217
▁sp	-218
▁if	-219
▁le	-220
▁rep	-221
ally	-222
itt	-223
ud	-224
▁co	-225
▁will	-226
▁about	-227
ions	-228
▁200	-229
ink	-230
mb	-231
one	-232
▁part	-233
der	-234
▁te	-235
▁coun	-236
▁who	-237
iz	-238
red	-239
▁en	-240
ack	-241
▁one	-242
▁sec	-243
▁want	-244
▁her	-245
▁pl	-246
ice	-247
▁him	-248
ational	-249
▁how	-250
very	-251
▁ar	-252
▁any	-253
▁well	-254
vel	-255
ary	-256
▁got	-257
▁see	-258
▁man	-259
▁imp	-260
▁inter	-261
▁now	-262
▁would	-263
ak	-264
▁cont	-265
ight	-266
ance	-267
ind	-268
▁us	-269
na	-270
▁some	-271
▁int	-272
▁think	-273
ap	-274
▁been	-275
ther	-276
▁has	-277
ure	-278
ast	-279
▁sa	-280
cc	-281
▁off	-282
▁work	-283
if	-284
ong	-285
▁tim	-286
▁his	-287
▁act	-288
▁need	-289
▁had	-290
ited	-291
▁look	-292
▁:	-293
ated	-294
▁were	-295
▁its	-296
au	-297
▁gu	-298
▁am	-299
rou	-300
▁oh	-301
iss	-302
hing	-303
ous	-304
lo	-305
ase	-306
ine	-307
ich	-308
▁inc	-309
▁than	-310
ag	-311
▁good	-312
▁come	-313
eah	-314
▁should	-315
▁yeah	-316
ound	-317
me	-318
▁dis	-319
ame	-320
▁ok	-321
ru	-322
▁exp	-323
▁fa	-324
▁let	-325
ide	-326
▁time	-327
ven	-328
▁rec	-329
▁gen	-330
velop	-331
▁their	-332
cial	-333
▁develop	-334
eral	-335
ans	-336
▁comp	-337
▁when	-338
▁app	-339
▁pre	-340
ip	-341
▁reg	-342
ates	-343
ia	-344
▁under	-345
▁per	-346
▁intern	-347
ress	-348
fe	-349
ear	-350
▁united	-351
▁them	-352
ble	-353
▁mo	-354
▁ro	-355
▁could	-356
▁;	-357
▁pr	-358
orm	-359
▁back	-360
▁other	-361
em	-362
reat	-363
▁which	-364
▁gon	-365
▁say	-366
able	-367
▁our	-368
lic	-369
▁gonna	-370
▁why	-371
▁okay	-372
▁may	-373
▁where	-374
▁count	-375
el	-376
▁ass	-377
ult	-378
▁di	-379
▁af	-380
ments	-381
▁more	-382
▁every	-383
▁take	-384
▁report	-385
▁3	-386
▁cl	-387
ose	-388
▁over	-389
▁bo	-390
▁pe	-391
ree	-392
age	-393
▁international	-394
▁fo	-395
ities	-396
▁tra	-397
▁qu	-398
ical	-399
ord	-400
▁acc	-401
▁nations	-402
alk	-403
pt	-404
own	-405
▁cons	-406
ence	-407
▁going	-408
▁tr	-409
▁general	-410
ick	-411
ution	-412
▁5	-413
▁tell	-414
ild	-415
▁peop	-416
way	-417
▁dec	-418
▁committ	-419
so	-420
ause	-421
form	-422
▁bet	-423
ces	-424
▁hum	-425
▁bec	-426
▁supp	-427
▁prov	-428
ret	-429
▁po	-430
ons	-431
mber	-432
▁pol	-433
▁new	-434
vern	-435
▁tw	-436
ue	-437
▁year	-438
vent	-439
▁somet	-440
ome	-441
▁fu	-442
▁way	-443
▁call	-444
cil	-445
other	-446
▁also	-447
▁ser	-448
ub	-449
▁then	-450
▁thing	-451
▁hey	-452
are	-453
▁ind	-454
gra	-455
▁19	-456
ac	-457
▁people	-458
ty	-459
ning	-460
▁ra	-461
▁mar	-462
▁human	-463
▁again	-464
▁govern	-465
ep	-466
▁sub	-467
▁la	-468
ving	-469
ign	-470
▁committee	-471
▁wom	-472
▁make	-473
du	-474
▁eff	-475
ft	-476
mm	-477
▁didn	-478
thing	-479
ish	-480
ition	-481
▁meet	-482
▁mad	-483
▁spe	-484
▁these	-485
▁states	-486
ang	-487
ial	-488
▁op	-489
▁does	-490
ber	-491
▁jo	-492
▁something	-493
gan	-494
▁only	-495
▁development	-496
ian	-497
lf	-498
▁down	-499
min	-500
▁pres	-501
▁mr	-502
▁sc	-503
▁talk	-504
ction	-505
▁fin	-506
lud	-507
▁rel	-508
▁par	-509
▁into	-510
get	-511
▁fun	-512
▁ter	-513
▁4	-514
▁those	-515
▁hel	-516
▁rights	-517
▁really	-518
ries	-519
▁two	-520
og	-521
ond	-522
lement	-523
▁br	-524
ys	-525
▁happ	-526
▁fir	-527
ace	-528
▁resp	-529
▁thank	-530
ission	-531
▁too	-532
ory	-533
▁add	-534
▁day	-535
ms	-536
▁secret	-537
▁min	-538
ody	-539
▁resol	-540
▁hi	-541
▁car	-542
▁help	-543
▁yes	-544
▁because	-545
be	-546
we	-547
eration	-548
▁bel	-549
ass	-550
ative	-551
▁bu	-552
▁gr	-553
fore	-554
▁progra	-555
urity	-556
▁state	-557
ach	-558
▁organ	-559
▁never	-560
ved	-561
▁ple	-562
▁said	-563
int	-564
ens	-565
▁conc	-566
▁first	-567
▁council	-568
▁sor	-569
ile	-570
▁security	-571
▁even	-572
▁inv	-573
▁ob	-574
rent	-575
ite	-576
▁includ	-577
ire	-578
▁sorry	-579
▁requ	-580
▁made	-581
▁sy	-582
hed	-583
▁mean	-584
▁ho	-585
▁inform	-586
▁mon	-587
▁organiz	-588
ject	-589
ors	-590
ious	-591
ittle	-592
▁partic	-593
▁pers	-594
▁little	-595
ating	-596
▁very	-597
▁wa	-598
ting	-599
▁countries	-600
rough	-601
cess	-602
▁such	-603
▁mu	-604
les	-605
act	-606
▁kill	-607
▁women	-608
▁through	-609
▁law	-610
ced	-611
ric	-612
▁child	-613
▁world	-614
▁att	-615
▁ec	-616
▁give	-617
ise	-618
wn	-619
▁thou	-620
▁please	-621
▁support	-622
▁6	-623
▁government	-624
▁fe	-625
▁find	-626
▁inst	-627
▁must	-628
ert	-629
ady	-630
▁implement	-631
ures	-632
▁dra	-633
▁tak	-634
▁national	-635
day	-636
ph	-637
ession	-638
cy	-639
▁mat	-640
iew	-641
▁great	-642
self	-643
▁after	-644
▁before	-645
rib	-646
ublic	-647
ision	-648
▁meeting	-649
ib	-650
▁pri	-651
▁pos	-652
onom	-653
▁prot	-654
▁ma	-655
▁resolution	-656
oc	-657
xt	-658
▁god	-659
▁cent	-660
urn	-661
▁wait	-662
▁id	-663
ular	-664
▁much	-665
▁still	-666
▁bl	-667
ident	-668
▁love	-669
riend	-670
uc	-671
▁cour	-672
ual	-673
▁'	-674
▁el	-675
rop	-676
▁years	-677
▁fuck	-678
▁uh	-679
llow	-680
su	-681
▁sure	-682
man	-683
▁wr	-684
ible	-685
▁last	-686
▁doing	-687
eel	-688
roup	-689
▁ph	-690
▁trans	-691
▁long	-692
▁econom	-693
▁leg	-694
▁life	-695
▁group	-696
▁est	-697
ful	-698
▁ask	-699
▁art	-700
▁put	-701
vention	-702
▁plan	-703
▁pea	-704
▁str	-705
ility	-706
ange	-707
▁prop	-708
ieve	-709
▁gir	-710
ves	-711
▁lea	-712
▁special	-713
ute	-714
stem	-715
ather	-716
▁information	-717
eep	-718
▁contin	-719
▁feel	-720
rence	-721
▁peace	-722
▁ent	-723
ices	-724
▁che	-725
▁commun	-726
de	-727
▁bas	-728
omm	-729
▁maybe	-730
▁hand	-731
▁try	-732
▁disc	-733
▁system	-734
▁won	-735
ily	-736
▁199	-737
▁prom	-738
▁des	-739
▁being	-740
▁keep	-741
▁inte	-742
▁follow	-743
cu	-744
▁end	-745
▁sit	-746
lear	-747
▁list	-748
air	-749
uth	-750
▁stop	-751
▁conf	-752
ne	-753
ract	-754
▁vi	-755
▁wat	-756
▁import	-757
ict	-758
▁program	-759
▁use	-760
▁cap	-761
ail	-762
▁hell	-763
body	-764
▁happen	-765
ough	-766
▁anything	-767
semb	-768
▁dep	-769
▁thought	-770
oney	-771
▁serv	-772
▁sm	-773
▁assemb	-774
▁7	-775
ever	-776
▁rev	-777
▁girl	-778
▁head	-779
ince	-780
▁night	-781
▁assembly	-782
li	-783
▁friend	-784
ern	-785
▁rem	-786
ted	-787
▁against	-788
▁commission	-789
▁session	-790
abl	-791
▁place	-792
▁care	-793
resent	-794
ives	-795
ank	-796
ath	-797
▁represent	-798
▁secretary	-799
ective	-800
▁better	-801
▁num	-802
▁nothing	-803
▁programme	-804
▁set	-805
▁activ	-806
ctor	-807
ween	-808
▁diff	-809
▁fam	-810
▁between	-811
▁mom	-812
osed	-813
▁three	-814
▁ins	-815
▁fund	-816
▁real	-817
▁dr	-818
▁ref	-819
▁working	-820
▁region	-821
oth	-822
ouse	-823
▁high	-824
vers	-825
▁including	-826
uring	-827
▁quest	-828
▁start	-829
ount	-830
▁kid	-831
hip	-832
▁most	-833
▁det	-834
ner	-835
▁implementation	-836
ference	-837
▁terr	-838
▁economic	-839
▁home	-840
ix	-841
▁ed	-842
▁own	-843
▁coop	-844
▁told	-845
utions	-846
▁show	-847
▁country	-848
▁char	-849
▁sign	-850
▁cri	-851
▁person	-852
stand	-853
▁name	-854
▁cr	-855
▁same	-856
ific	-857
olog	-858
▁play	-859
▁artic	-860
▁many	-861
ork	-862
als	-863
▁old	-864
▁second	-865
ways	-866
ards	-867
▁establ	-868
▁10	-869
▁adop	-870
▁convention	-871
▁consid	-872
▁draft	-873
▁tech	-874
▁finan	-875
▁recomm	-876
▁level	-877
▁recommend	-878
▁believe	-879
▁guys	-880
▁9	-881
te	-882
▁social	-883
▁protect	-884
▁sur	-885
▁kind	-886
▁particular	-887
▁8	-888
ried	-889
▁away	-890
▁found	-891
▁always	-892
▁assist	-893
▁big	-894
▁adv	-895
▁mak	-896
▁techn	-897
▁since	-898
▁process	-899
rest	-900
▁meas	-901
▁proble	-902
▁children	-903
ters	-904
ple	-905
up	-906
▁doesn	-907
▁provid	-908
▁around	-909
arm	-910
uss	-911
▁cor	-912
▁miss	-913
▁ele	-914
▁party	-915
▁dad	-916
▁guy	-917
ism	-918
▁ac	-919
▁sch	-920
▁stand	-921
▁fl	-922
▁things	-923
▁everything	-924
▁effort	-925
▁while	-926
uation	-927
▁pa	-928
ied	-929
▁stay	-930
▁sir	-931
▁president	-932
▁activities	-933
ized	-934
▁dem	-935
▁fr	-936
gg	-937
ss	-938
ually	-939
▁might	-940
▁ever	-941
▁ev	-942
cept	-943
▁emp	-944
▁mill	-945
▁number	-946
▁done	-947
uck	-948
▁def	-949
▁aff	-950
▁house	-951
hen	-952
▁hear	-953
▁bus	-954
▁non	-955
▁full	-956
▁resour	-957
▁money	-958
▁issu	-959
▁another	-960
▁parties	-961
▁understand	-962
▁cooperation	-963
▁conference	-964
▁both	-965
itical	-966
▁article	-967
▁open	-968
▁afric	-969
▁move	-970
ention	-971
▁office	-972
ural	-973
▁poss	-974
▁run	-975
▁polic	-976
▁request	-977
▁leave	-978
▁concern	-979
▁public	-980
▁pur	-981
ings	-982
▁z	-983
▁20	-984
▁case	-985
▁mor	-986
▁ke	-987
led	-988
ished	-989
▁without	-990
row	-991
▁ext	-992
▁appro	-993
▁action	-994
agra	-995
▁fur	-996
▁viol	-997
ool	-998
ari	-999
▁form	-1000
land	-1001
▁incre	-1002
▁hop	-1003
ird	-1004
▁ens	-1005
ower	-1006
▁war	-1007
▁address	-1008
▁auth	-1009
▁cur	-1010
▁met	-1011
agraph	-1012
ah	-1013
▁used	-1014
▁lot	-1015
mbers	-1016
its	-1017
hes	-1018
▁bad	-1019
▁offic	-1020
ote	-1021
gr	-1022
ency	-1023
▁shall	-1024
▁listen	-1025
▁further	-1026
▁members	-1027
▁order	-1028
▁someone	-1029
▁equ	-1030
▁family	-1031
▁important	-1032
▁aw	-1033
▁measures	-1034
ize	-1035
▁best	-1036
▁turn	-1037
▁school	-1038
▁today	-1039
▁treat	-1040
▁author	-1041
aff	-1042
▁fore	-1043
▁hu	-1044
▁wrong	-1045
▁father	-1046
av	-1047
▁wanted	-1048
ek	-1049
ateg	-1050
▁bud	-1051
gin	-1052
▁paragraph	-1053
cing	-1054
▁eu	-1055
▁lead	-1056
▁next	-1057
▁accord	-1058
▁hold	-1059
▁diffe	-1060
▁sw	-1061
▁mother	-1062
duct	-1063
▁rele	-1064
▁regard	-1065
ared	-1066
▁reme	-1067
▁efforts	-1068
▁point	-1069
enn	-1070
▁coll	-1071
▁main	-1072
alth	-1073
▁dead	-1074
ho	-1075
ts	-1076
▁fine	-1077
▁during	-1078
▁rest	-1079
▁prep	-1080
▁bre	-1081
ained	-1082
▁coming	-1083
▁const	-1084
ges	-1085
▁bab	-1086
ef	-1087
▁present	-1088
▁resources	-1089
▁oper	-1090
▁instit	-1091
ister	-1092
▁room	-1093
▁mil	-1094
▁organizations	-1095
▁left	-1096
▁course	-1097
▁boy	-1098
▁talking	-1099
▁ap	-1100
ta	-1101
▁four	-1102
▁glo	-1103
▁lat	-1104
▁dire	-1105
▁docu	-1106
▁contrib	-1107
eric	-1108
▁train	-1109
▁job	-1110
▁00	-1111
eak	-1112
bal	-1113
ina	-1114
▁ret	-1115
▁respons	-1116
go	-1117
▁pay	-1118
▁review	-1119
▁fact	-1120
gether	-1121
pe	-1122
▁isn	-1123
▁result	-1124
▁sl	-1125
▁remember	-1126
▁nice	-1127
til	-1128
▁cra	-1129
▁each	-1130
▁agree	-1131
▁particip	-1132
▁med	-1133
▁financial	-1134
iness	-1135
▁dele	-1136
▁political	-1137
work	-1138
ization	-1139
▁mind	-1140
▁enough	-1141
ready	-1142
itor	-1143
▁build	-1144
▁invest	-1145
▁together	-1146
ired	-1147
▁civ	-1148
▁member	-1149
▁gra	-1150
▁tru	-1151
▁clear	-1152
▁already	-1153
▁came	-1154
▁15	-1155
▁month	-1156
▁trying	-1157
ient	-1158
▁av	-1159
▁educ	-1160
less	-1161
▁week	-1162
▁happened	-1163
ying	-1164
▁regional	-1165
▁situation	-1166
erg	-1167
▁son	-1168
▁project	-1169
enda	-1170
iod	-1171
▁em	-1172
ew	-1173
ness	-1174
▁deal	-1175
▁bit	-1176
ium	-1177
▁civil	-1178
lc	-1179
▁getting	-1180
▁issues	-1181
▁called	-1182
▁ear	-1183
▁hard	-1184
anna	-1185
agement	-1186
atic	-1187
▁else	-1188
▁question	-1189
isions	-1190
▁agenda	-1191
▁12	-1192
▁health	-1193
amp	-1194
▁cas	-1195
▁bring	-1196
▁terror	-1197
▁blo	-1198
▁men	-1199
▁six	-1200
pport	-1201
▁looking	-1202
▁decision	-1203
▁giv	-1204
▁global	-1205
▁ben	-1206
▁bro	-1207
▁police	-1208
▁yet	-1209
▁respect	-1210
▁welc	-1211
▁period	-1212
gress	-1213
ale	-1214
reed	-1215
▁within	-1216
cif	-1217
▁pop	-1218
▁prin	-1219
▁services	-1220
▁took	-1221
▁contro	-1222
▁es	-1223
▁arm	-1224
▁sim	-1225
▁assistance	-1226
▁env	-1227
▁item	-1228
▁pret	-1229
▁stat	-1230
ull	-1231
loy	-1232
▁word	-1233
▁deleg	-1234
▁interest	-1235
ark	-1236
ised	-1237
▁hur	-1238
▁comple	-1239
▁community	-1240
▁organization	-1241
▁republic	-1242
ety	-1243
▁pract	-1244
▁provide	-1245
ger	-1246
▁continu	-1247
▁fucking	-1248
ants	-1249
▁thanks	-1250
ave	-1251
▁taken	-1252
▁whole	-1253
ines	-1254
reng	-1255
▁americ	-1256
▁loc	-1257
▁streng	-1258
▁taking	-1259
▁saw	-1260
ably	-1261
pect	-1262
▁view	-1263
▁shit	-1264
▁cre	-1265
aught	-1266
▁weap	-1267
tern	-1268
▁jud	-1269
▁maj	-1270
▁speak	-1271
▁strateg	-1272
▁subm	-1273
▁dam	-1274
▁2002	-1275
here	-1276
▁wasn	-1277
ality	-1278
▁dist	-1279
▁mark	-1280
ield	-1281
▁until	-1282
▁eas	-1283
▁problem	-1284
▁beh	-1285
▁needs	-1286
▁ensure	-1287
▁few	-1288
▁effective	-1289
iti	-1290
▁ton	-1291
▁stud	-1292
ination	-1293
rope	-1294
▁pal	-1295
▁addition	-1296
▁fra	-1297
▁2001	-1298
▁hour	-1299
▁bar	-1300
ability	-1301
▁ann	-1302
istr	-1303
▁eng	-1304
ral	-1305
▁baby	-1306
▁went	-1307
▁actually	-1308
▁cost	-1309
▁business	-1310
▁management	-1311
▁europe	-1312
▁developing	-1313
▁2005	-1314
alf	-1315
outh	-1316
▁sho	-1317
▁expl	-1318
ison	-1319
▁clo	-1320
▁brother	-1321
▁cla	-1322
▁means	-1323
▁different	-1324
▁guess	-1325
ason	-1326
pl	-1327
▁cop	-1328
mental	-1329
▁2004	-1330
▁account	-1331
▁having	-1332
▁bra	-1333
▁programm	-1334
▁following	-1335
▁pat	-1336
▁tom	-1337
▁once	-1338
▁wanna	-1339
ec	-1340
▁ur	-1341
ruct	-1342
▁five	-1343
▁yourself	-1344
▁based	-1345
▁ce	-1346
dy	-1347
▁change	-1348
▁dri	-1349
▁impro	-1350
▁mission	-1351
▁sk	-1352
cific	-1353
▁woman	-1354
by	-1355
▁sex	-1356
▁2000	-1357
▁adopted	-1358
▁consider	-1359
▁free	-1360
sh	-1361
▁bri	-1362
▁seen	-1363
▁vict	-1364
az	-1365
▁held	-1366
▁rece	-1367
▁among	-1368
▁check	-1369
▁control	-1370
▁express	-1371
ets	-1372
atives	-1373
iron	-1374
▁heard	-1375
▁water	-1376
▁days	-1377
▁conflic	-1378
▁2006	-1379
▁killed	-1380
▁however	-1381
per	-1382
ital	-1383
▁trust	-1384
▁serious	-1385
▁tri	-1386
mination	-1387
ense	-1388
▁occ	-1389
▁power	-1390
▁continue	-1391
▁inf	-1392
ither	-1393
▁environ	-1394
▁ru	-1395
▁fight	-1396
▁princi	-1397
▁30	-1398
▁far	-1399
▁ey	-1400
▁legal	-1401
▁break	-1402
▁staff	-1403
▁step	-1404
▁access	-1405
▁million	-1406
▁education	-1407
ife	-1408
▁protection	-1409
▁relev	-1410
ten	-1411
▁2003	-1412
▁budget	-1413
▁current	-1414
▁strengt	-1415
▁trade	-1416
▁watch	-1417
▁matter	-1418
▁enc	-1419
▁huh	-1420
▁face	-1421
▁possible	-1422
▁idea	-1423
▁admin	-1424
▁11	-1425
ariat	-1426
▁decl	-1427
▁walk	-1428
ny	-1429
▁secretariat	-1430
▁ach	-1431
▁discuss	-1432
▁hun	-1433
▁gotta	-1434
utes	-1435
ibility	-1436
ately	-1437
ged	-1438
▁ago	-1439
▁hope	-1440
▁nuc	-1441
▁val	-1442
▁read	-1443
▁invol	-1444
ross	-1445
▁sol	-1446
▁gl	-1447
▁major	-1448
ream	-1449
▁000	-1450
▁policy	-1451
▁jun	-1452
▁coord	-1453
▁live	-1454
▁death	-1455
▁light	-1456
▁pretty	-1457
ners	-1458
▁land	-1459
▁capac	-1460
▁nuclear	-1461
▁tot	-1462
▁cond	-1463
▁sust	-1464
ered	-1465
oura	-1466
▁record	-1467
▁ready	-1468
▁making	-1469
cus	-1470
tain	-1471
▁air	-1472
▁nat	-1473
▁post	-1474
▁object	-1475
ics	-1476
▁dece	-1477
▁13	-1478
▁representative	-1479
ined	-1480
▁wouldn	-1481
pr	-1482
▁least	-1483
▁increas	-1484
▁close	-1485
▁remain	-1486
▁morning	-1487
▁court	-1488
aration	-1489
ulation	-1490
airs	-1491
ars	-1492
ogn	-1493
▁reports	-1494
▁programmes	-1495
ane	-1496
▁sound	-1497
▁necess	-1498
▁related	-1499
▁document	-1500
▁soon	-1501
ctions	-1502
▁fut	-1503
▁body	-1504
eri	-1505
ims	-1506
▁recogn	-1507
▁relevant	-1508
▁um	-1509
▁grow	-1510
duction	-1511
▁bank	-1512
▁cert	-1513
▁priv	-1514
▁exist	-1515
▁provided	-1516
▁friends	-1517
▁knew	-1518
▁sle	-1519
ption	-1520
▁haven	-1521
▁training	-1522
got	-1523
▁areas	-1524
▁expert	-1525
arch	-1526
idence	-1527
▁board	-1528
orth	-1529
ling	-1530
▁role	-1531
▁hon	-1532
▁soci	-1533
▁progress	-1534
▁chang	-1535
mo	-1536
▁small	-1537
ug	-1538
▁uni	-1539
▁summ	-1540
▁col	-1541
ender	-1542
orrow	-1543
▁prob	-1544
▁facil	-1545
ding	-1546
▁hello	-1547
ier	-1548
▁cat	-1549
▁mod	-1550
▁ident	-1551
▁anne	-1552
▁pass	-1553
▁future	-1554
ont	-1555
ected	-1556
▁building	-1557
▁december	-1558
uff	-1559
▁bi	-1560
▁everyone	-1561
ief	-1562
sel	-1563
▁ill	-1564
▁sent	-1565
▁dat	-1566
▁consult	-1567
▁third	-1568
▁team	-1569
▁established	-1570
ove	-1571
▁cho	-1572
ward	-1573
ator	-1574
▁deb	-1575
aring	-1576
▁decid	-1577
itary	-1578
ology	-1579
▁chair	-1580
▁mess	-1581
▁fif	-1582
▁prior	-1583
▁africa	-1584
▁administr	-1585
itions	-1586
▁14	-1587
ages	-1588
ules	-1589
▁ca	-1590
▁happy	-1591
▁heart	-1592
artment	-1593
▁specific	-1594
▁ii	-1595
▁initi	-1596
▁saying	-1597
▁ris	-1598
▁commit	-1599
erv	-1600
▁ste	-1601
▁hot	-1602
▁mand	-1603
▁gone	-1604
▁prof	-1605
▁force	-1606
▁integr	-1607
▁alone	-1608
▁youn	-1609
ified	-1610
▁partners	-1611
▁18	-1612
▁persons	-1613
ification	-1614
▁service	-1615
▁field	-1616
▁applic	-1617
▁ju	-1618
▁anyone	-1619
▁exact	-1620
▁tonight	-1621
▁indic	-1622
▁imm	-1623
▁proced	-1624
▁2007	-1625
▁given	-1626
ents	-1627
ances	-1628
▁capacity	-1629
cies	-1630
▁lar	-1631
▁promot	-1632
▁looks	-1633
▁less	-1634
▁probably	-1635
▁bur	-1636
▁wife	-1637
▁annex	-1638
▁frame	-1639
where	-1640
▁note	-1641
▁recommendations	-1642
▁die	-1643
▁exec	-1644
▁avail	-1645
▁effect	-1646
zy	-1647
▁door	-1648
▁later	-1649
▁dest	-1650
▁sustain	-1651
▁whatever	-1652
▁obs	-1653
▁myself	-1654
sue	-1655
ential	-1656
ned	-1657
▁test	-1658
rug	-1659
▁food	-1660
▁violence	-1661
▁able	-1662
▁south	-1663
▁assess	-1664
iter	-1665
arian	-1666
▁wants	-1667
▁require	-1668
▁conflict	-1669
▁necessary	-1670
▁17	-1671
▁palest	-1672
lus	-1673
▁cult	-1674
▁true	-1675
▁couldn	-1676
▁weapons	-1677
▁lim	-1678
▁vis	-1679
▁wish	-1680
▁recent	-1681
itted	-1682
▁safe	-1683
▁drink	-1684
▁discri	-1685
▁reason	-1686
▁swe	-1687
cause	-1688
▁strong	-1689
▁establish	-1690
▁fig	-1691
▁mur	-1692
▁lost	-1693
▁16	-1694
▁allow	-1695
▁har	-1696
▁ge	-1697
▁mid	-1698
aster	-1699
▁crimin	-1700
ov	-1701
ived	-1702
ivid	-1703
▁gun	-1704
ering	-1705
isl	-1706
▁cut	-1707
▁exam	-1708
ured	-1709
▁thinking	-1710
allen	-1711
▁past	-1712
▁tea	-1713
vious	-1714
▁military	-1715
▁technical	-1716
▁chr	-1717
ropri	-1718
▁young	-1719
▁sal	-1720
▁drug	-1721
▁months	-1722
ax	-1723
aut	-1724
▁king	-1725
▁focus	-1726
▁communic	-1727
▁2008	-1728
▁jack	-1729
orn	-1730
▁dan	-1731
▁official	-1732
▁tomorrow	-1733
▁cal	-1734
▁hands	-1735
▁sleep	-1736
▁legisl	-1737
▁tow	-1738
▁cann	-1739
▁shut	-1740
ump	-1741
cuse	-1742
oss	-1743
▁hit	-1744
▁area	-1745
▁sing	-1746
▁girls	-1747
▁either	-1748
▁encoura	-1749
ton	-1750
▁certain	-1751
▁accordance	-1752
▁excuse	-1753
lig	-1754
▁cou	-1755
▁pap	-1756
▁democ	-1757
▁justice	-1758
ime	-1759
▁fire	-1760
▁cases	-1761
tle	-1762
more	-1763
▁stuff	-1764
▁exactly	-1765
▁cle	-1766
▁gender	-1767
ash	-1768
▁terrorism	-1769
▁institutions	-1770
▁gave	-1771
▁compan	-1772
ocol	-1773
▁comb	-1774
▁framework	-1775
app	-1776
▁win	-1777
▁risk	-1778
▁half	-1779
▁pick	-1780
▁experi	-1781
rael	-1782
ock	-1783
▁er	-1784
lect	-1785
▁upon	-1786
▁rules	-1787
▁ir	-1788
▁und	-1789
▁says	-1790
ended	-1791
sw	-1792
▁makes	-1793
▁inside	-1794
tion	-1795
▁net	-1796
▁vol	-1797
▁provision	-1798
chan	-1799
▁lear	-1800
▁crime	-1801
▁concerned	-1802
▁monitor	-1803
rew	-1804
▁data	-1805
rought	-1806
▁israel	-1807
▁return	-1808
▁mult	-1809
▁local	-1810
▁issue	-1811
▁propos	-1812
▁bill	-1813
▁consideration	-1814
▁lab	-1815
▁line	-1816
▁phone	-1817
▁constit	-1818
▁oblig	-1819
▁african	-1820
▁im	-1821
▁times	-1822
▁attack	-1823
▁available	-1824
son	-1825
▁eat	-1826
▁succ	-1827
ending	-1828
▁criminal	-1829
▁questions	-1830
▁late	-1831
pportun	-1832
▁opportun	-1833
▁relations	-1834
▁beaut	-1835
▁aid	-1836
io	-1837
oy	-1838
▁div	-1839
▁employ	-1840
▁21	-1841
▁unc	-1842
▁attention	-1843
oint	-1844
▁joh	-1845
fer	-1846
▁ah	-1847
▁kids	-1848
▁princip	-1849
▁delegation	-1850
nel	-1851
▁appropri	-1852
▁asked	-1853
▁supposed	-1854
▁shot	-1855
rab	-1856
▁mag	-1857
▁june	-1858
ennium	-1859
▁become	-1860
▁hours	-1861
itarian	-1862
▁mechan	-1863
▁individ	-1864
unch	-1865
▁ty	-1866
side	-1867
▁rule	-1868
▁grand	-1869
▁private	-1870
▁benef	-1871
▁direct	-1872
▁blood	-1873
atory	-1874
▁chance	-1875
ude	-1876
▁book	-1877
▁conn	-1878
▁subst	-1879
▁worry	-1880
itation	-1881
▁fed	-1882
▁contract	-1883
cially	-1884
▁subject	-1885
▁dom	-1886
▁minutes	-1887
▁meetings	-1888
▁25	-1889
▁challen	-1890
▁everybody	-1891
to	-1892
▁tar	-1893
▁easy	-1894
▁agreement	-1895
▁cred	-1896
▁european	-1897
▁discrimination	-1898
▁date	-1899
▁side	-1900
▁union	-1901
most	-1902
pped	-1903
ament	-1904
▁intro	-1905
▁cannot	-1906
▁sector	-1907
▁threat	-1908
ched	-1909
aughter	-1910
▁include	-1911
▁individual	-1912
▁humanitarian	-1913
ood	-1914
▁luck	-1915
▁sustainable	-1916
igh	-1917
▁knows	-1918
▁provisions	-1919
▁welcome	-1920
ceed	-1921
▁mal	-1922
▁success	-1923
▁abs	-1924
▁crazy	-1925
▁wonder	-1926
▁problems	-1927
▁city	-1928
▁class	-1929
▁proper	-1930
▁univers	-1931
▁particularly	-1932
▁department	-1933
dle	-1934
▁suff	-1935
▁bod	-1936
ection	-1937
▁key	-1938
▁purp	-1939
ilat	-1940
▁pan	-1941
verty	-1942
▁foreign	-1943
▁poverty	-1944
▁whether	-1945
▁importance	-1946
med	-1947
▁answ	-1948
▁though	-1949
ists	-1950
▁sci	-1951
abil	-1952
▁cir	-1953
▁fav	-1954
ically	-1955
▁conduct	-1956
▁protocol	-1957
ster	-1958
▁execut	-1959
ulations	-1960
▁palestin	-1961
ins	-1962
▁town	-1963
▁status	-1964
▁society	-1965
▁proposed	-1966
▁developed	-1967
for	-1968
▁sn	-1969
▁damn	-1970
▁norm	-1971
▁needed	-1972
▁brought	-1973
oci	-1974
osp	-1975
▁pet	-1976
encies	-1977
▁dev	-1978
▁perman	-1979
▁governments	-1980
▁forget	-1981
▁investig	-1982
ade	-1983
port	-1984
▁sam	-1985
ences	-1986
▁truth	-1987
▁disarm	-1988
▁dou	-1989
▁treaty	-1990
▁permanent	-1991
▁tou	-1992
▁story	-1993
▁appre	-1994
▁basis	-1995
ask	-1996
▁deli	-1997
▁pain	-1998
▁refu	-1999
idered	-2000
▁improve	-2001
▁appropriate	-2002
oke	-2003
▁ori	-2004
▁john	-2005
▁shoot	-2006
ify	-2007
▁conte	-2008
ians	-2009
▁espe	-2010
▁sour	-2011
▁advis	-2012
▁deter	-2013
▁christ	-2014
▁groups	-2015
▁mine	-2016
▁space	-2017
▁living	-2018
bo	-2019
ban	-2020
▁prevent	-2021
▁especially	-2022
ames	-2023
▁sus	-2024
▁short	-2025
▁considered	-2026
aw	-2027
imes	-2028
anger	-2029
itive	-2030
▁press	-2031
▁mi	-2032
ilateral	-2033
▁decided	-2034
▁ain	-2035
▁enh	-2036
▁oct	-2037
▁red	-2038
▁event	-2039
▁statement	-2040
▁environment	-2041
▁news	-2042
▁perform	-2043
▁operations	-2044
▁begin	-2045
▁sweet	-2046
▁disarmament	-2047
▁hurt	-2048
▁elect	-2049
ruction	-2050
▁central	-2051
▁therefore	-2052
cks	-2053
▁je	-2054
▁pot	-2055
istan	-2056
▁eyes	-2057
▁parent	-2058
ler	-2059
▁gre	-2060
imate	-2061
▁anal	-2062
▁east	-2063
▁somebody	-2064
▁declaration	-2065
▁ve	-2066
head	-2067
iting	-2068
ones	-2069
▁var	-2070
▁fall	-2071
▁save	-2072
▁accept	-2073
▁complete	-2074
ai	-2075
▁cod	-2076
▁rese	-2077
▁table	-2078
▁agreed	-2079
▁minute	-2080
▁population	-2081
▁ms	-2082
▁moment	-2083
▁policies	-2084
sequ	-2085
▁del	-2086
▁aren	-2087
▁associ	-2088
▁bodies	-2089
gu	-2090
▁appreci	-2091
▁towards	-2092
pa	-2093
aps	-2094
iet	-2095
epend	-2096
▁daughter	-2097
▁according	-2098
eur	-2099
▁sever	-2100
▁almost	-2101
arth	-2102
▁arab	-2103
▁july	-2104
sec	-2105
ober	-2106
▁hus	-2107
▁camp	-2108
selves	-2109
▁22	-2110
▁fail	-2111
▁pull	-2112
▁noted	-2113
▁target	-2114
▁beautif	-2115
▁continued	-2116
ze	-2117
▁cam	-2118
▁above	-2119
▁october	-2120
▁0	-2121
▁bed	-2122
▁emerg	-2123
erc	-2124
keep	-2125
▁ira	-2126
▁trib	-2127
goti	-2128
▁aud	-2129
icult	-2130
▁self	-2131
▁sept	-2132
▁approach	-2133
▁x	-2134
▁50	-2135
▁lie	-2136
▁received	-2137
hens	-2138
ising	-2139
▁impact	-2140
▁others	-2141
▁additional	-2142
▁resolutions	-2143
▁age	-2144
▁term	-2145
▁negoti	-2146
▁circ	-2147
▁iraq	-2148
▁total	-2149
ember	-2150
▁beautiful	-2151
▁submitted	-2152
band	-2153
▁game	-2154
▁increase	-2155
▁september	-2156
unt	-2157
▁pursu	-2158
▁cover	-2159
▁dog	-2160
▁para	-2161
▁early	-2162
▁super	-2163
omes	-2164
▁ver	-2165
▁several	-2166
▁required	-2167
▁wit	-2168
co	-2169
ik	-2170
of	-2171
▁tur	-2172
▁tried	-2173
▁affairs	-2174
▁signific	-2175
▁din	-2176
▁lau	-2177
▁march	-2178
▁common	-2179
▁compet	-2180
▁design	-2181
▁bull	-2182
▁sugg	-2183
▁letter	-2184
▁achieve	-2185
▁representatives	-2186
ley	-2187
▁doctor	-2188
▁suggest	-2189
▁difficult	-2190
ev	-2191
ees	-2192
▁23	-2193
▁arr	-2194
▁mus	-2195
▁started	-2196
▁minister	-2197
raid	-2198
▁hang	-2199
▁strengthen	-2200
▁perf	-2201
▁ground	-2202
▁levels	-2203
▁refuge	-2204
▁mention	-2205
▁promote	-2206
aged	-2207
▁top	-2208
▁lord	-2209
▁poor	-2210
▁occup	-2211
▁monitoring	-2212
eg	-2213
▁deep	-2214
▁afraid	-2215
▁reform	-2216
▁rom	-2217
▁lives	-2218
▁telling	-2219
▁rat	-2220
▁research	-2221
▁executive	-2222
▁cool	-2223
▁disp	-2224
▁traff	-2225
▁outside	-2226
sy	-2227
igr	-2228
used	-2229
izing	-2230
▁armed	-2231
▁freed	-2232
▁instru	-2233
▁husband	-2234
▁authorities	-2235
▁wind	-2236
▁dream	-2237
▁behind	-2238
▁couple	-2239
▁flo	-2240
▁tre	-2241
itting	-2242
rehens	-2243
▁black	-2244
▁nobody	-2245
▁1999	-2246
▁quick	-2247
▁anyway	-2248
▁hmm	-2249
▁front	-2250
▁fil	-2251
▁pen	-2252
▁section	-2253
▁peacekeep	-2254
▁fre	-2255
▁russ	-2256
▁guide	-2257
▁systems	-2258
▁comprehens	-2259
▁bye	-2260
▁energ	-2261
▁various	-2262
▁america	-2263
▁independ	-2264
▁requests	-2265
▁technology	-2266
▁ten	-2267
▁stre	-2268
▁gener	-2269
▁comes	-2270
▁palestinian	-2271
ush	-2272
▁24	-2273
▁island	-2274
▁mandate	-2275
ior	-2276
▁text	-2277
▁final	-2278
▁context	-2279
▁contained	-2280
▁comprehensive	-2281
ril	-2282
▁died	-2283
▁hist	-2284
▁eight	-2285
▁sun	-2286
ators	-2287
▁gets	-2288
▁send	-2289
▁answer	-2290
▁sometimes	-2291
▁principles	-2292
▁road	-2293
▁except	-2294
▁anymore	-2295
▁democr	-2296
▁finally	-2297
▁american	-2298
▁due	-2299
▁mrs	-2300
▁nove	-2301
▁adoption	-2302
▁november	-2303
▁31	-2304
▁hosp	-2305
▁quite	-2306
▁freedom	-2307
▁responsibility	-2308
ama	-2309
▁arms	-2310
▁claim	-2311
▁rapport	-2312
ides	-2313
▁ant	-2314
▁exc	-2315
▁dial	-2316
▁fair	-2317
▁clean	-2318
▁honey	-2319
▁regular	-2320
▁joint	-2321
omb	-2322
ises	-2323
▁peacekeeping	-2324
▁jan	-2325
▁york	-2326
▁amount	-2327
▁expect	-2328
▁middle	-2329
▁facilit	-2330
▁rapporteur	-2331
ought	-2332
▁meth	-2333
icking	-2334
▁results	-2335
▁waiting	-2336
ury	-2337
cher	-2338
bit	-2339
▁wow	-2340
▁yours	-2341
▁prison	-2342
▁significant	-2343
▁governmental	-2344
emp	-2345
erial	-2346
▁elim	-2347
▁bat	-2348
▁unit	-2349
▁earth	-2350
▁perfect	-2351
▁addressed	-2352
duce	-2353
erning	-2354
▁along	-2355
▁married	-2356
den	-2357
▁clos	-2358
icient	-2359
▁large	-2360
▁strategy	-2361
▁concerning	-2362
▁san	-2363
estic	-2364
▁ball	-2365
▁near	-2366
▁energy	-2367
▁evidence	-2368
▁conditions	-2369
▁legislation	-2370
▁vo	-2371
▁market	-2372
▁sister	-2373
mes	-2374
▁april	-2375
▁entire	-2376
▁company	-2377
▁planning	-2378
edi	-2379
▁agencies	-2380
▁requested	-2381
▁prevention	-2382
▁participation	-2383
por	-2384
▁26	-2385
▁198	-2386
▁bal	-2387
▁trou	-2388
▁danger	-2389
▁projects	-2390
equ	-2391
lling	-2392
▁using	-2393
▁coordin	-2394
▁reported	-2395
▁pun	-2396
▁unf	-2397
▁buy	-2398
▁eth	-2399
▁hor	-2400
▁frank	-2401
▁white	-2402
▁reporting	-2403
▁coordination	-2404
▁dar	-2405
▁hig	-2406
▁sat	-2407
duced	-2408
ps	-2409
▁alive	-2410
men	-2411
istry	-2412
▁china	-2413
▁words	-2414
▁product	-2415
▁partnership	-2416
▁doll	-2417
▁goes	-2418
▁lang	-2419
ishing	-2420
▁matters	-2421
gn	-2422
▁parents	-2423
▁running	-2424
▁democratic	-2425
vin	-2426
▁enj	-2427
▁indig	-2428
▁seems	-2429
▁touch	-2430
▁leaders	-2431
▁expressed	-2432
ma	-2433
upid	-2434
▁201	-2435
▁emb	-2436
▁defin	-2437
cri	-2438
has	-2439
ached	-2440
oming	-2441
▁bitch	-2442
▁recall	-2443
▁forward	-2444
▁reflect	-2445
▁increased	-2446
line	-2447
▁decisions	-2448
▁entit	-2449
▁tribun	-2450
▁domestic	-2451
eed	-2452
▁fully	-2453
▁origin	-2454
▁proceed	-2455
ese	-2456
▁lady	-2457
▁seek	-2458
▁takes	-2459
▁stupid	-2460
hold	-2461
irth	-2462
onst	-2463
▁den	-2464
enous	-2465
▁eval	-2466
▁cross	-2467
onse	-2468
▁disapp	-2469
▁victims	-2470
▁involved	-2471
ased	-2472
▁administrative	-2473
▁rad	-2474
▁undert	-2475
▁advisory	-2476
▁indigenous	-2477
ging	-2478
▁low	-2479
▁code	-2480
▁geor	-2481
▁lose	-2482
▁rather	-2483
▁previous	-2484
▁host	-2485
▁response	-2486
▁responsible	-2487
ony	-2488
▁fel	-2489
▁relating	-2490
▁ren	-2491
▁cust	-2492
▁director	-2493
▁transfer	-2494
▁regarding	-2495
▁cy	-2496
▁base	-2497
▁chap	-2498
▁surpr	-2499
▁agency	-2500
▁forces	-2501
▁commitment	-2502
▁ger	-2503
▁ahead	-2504
▁belie	-2505
▁costs	-2506
▁terms	-2507
▁appoint	-2508
▁existing	-2509
ogra	-2510
▁aim	-2511
▁park	-2512
▁prosec	-2513
▁position	-2514
though	-2515
▁emphas	-2516
▁promise	-2517
▁personnel	-2518
bs	-2519
▁bor	-2520
▁sick	-2521
▁task	-2522
hening	-2523
▁sense	-2524
▁figure	-2525
▁although	-2526
ney	-2527
ming	-2528
▁vote	-2529
▁choice	-2530
▁material	-2531
▁relationship	-2532
▁lik	-2533
▁mist	-2534
▁arrest	-2535
▁strengthening	-2536
che	-2537
▁hate	-2538
▁extra	-2539
▁dinner	-2540
▁fourth	-2541
▁arrange	-2542
▁practice	-2543
▁carry	-2544
▁asking	-2545
▁feeling	-2546
ene	-2547
▁adm	-2548
▁nor	-2549
▁stra	-2550
▁drive	-2551
▁obser	-2552
▁method	-2553
▁cultural	-2554
dom	-2555
cked	-2556
▁ess	-2557
▁birth	-2558
▁example	-2559
▁establishment	-2560
br	-2561
anda	-2562
▁mot	-2563
▁pie	-2564
▁rob	-2565
▁sen	-2566
▁lack	-2567
▁prim	-2568
▁rich	-2569
▁financing	-2570
eal	-2571
▁mm	-2572
▁stri	-2573
▁mer	-2574
ently	-2575
▁broad	-2576
▁entitled	-2577
▁hospital	-2578
▁requirements	-2579
lly	-2580
▁27	-2581
▁da	-2582
▁famil	-2583
▁langu	-2584
▁dialog	-2585
▁chairman	-2586
▁prepared	-2587
lex	-2588
▁28	-2589
▁60	-2590
ully	-2591
▁lad	-2592
rench	-2593
▁fifty	-2594
▁detail	-2595
▁authority	-2596
bi	-2597
aced	-2598
▁jap	-2599
▁foot	-2600
▁pict	-2601
▁seem	-2602
▁anybody	-2603
▁explain	-2604
▁obligations	-2605
ape	-2606
ension	-2607
ume	-2608
▁fast	-2609
▁mass	-2610
▁temp	-2611
ressed	-2612
▁funds	-2613
▁leaving	-2614
▁providing	-2615
▁constitution	-2616
ires	-2617
rict	-2618
ological	-2619
▁included	-2620
▁55	-2621
pects	-2622
▁imag	-2623
▁achie	-2624
▁longer	-2625
▁documents	-2626
key	-2627
reg	-2628
▁wed	-2629
▁relig	-2630
▁study	-2631
ron	-2632
enty	-2633
itory	-2634
▁cell	-2635
▁often	-2636
▁indust	-2637
▁unless	-2638
▁counter	-2639
▁substant	-2640
▁standards	-2641
▁consultations	-2642
my	-2643
par	-2644
▁promotion	-2645
ows	-2646
ped	-2647
▁thus	-2648
▁analys	-2649
▁murder	-2650
▁application	-2651
oid	-2652
▁japan	-2653
▁opportunity	-2654
acy	-2655
▁rate	-2656
▁sort	-2657
▁west	-2658
▁calls	-2659
▁chief	-2660
▁changed	-2661
ope	-2662
unk	-2663
▁saf	-2664
eness	-2665
▁exch	-2666
▁refer	-2667
▁witness	-2668
ici	-2669
ches	-2670
▁boss	-2671
▁boys	-2672
▁funny	-2673
▁sounds	-2674
▁paper	-2675
▁growth	-2676
▁worked	-2677
ana	-2678
▁29	-2679
▁sud	-2680
ories	-2681
▁link	-2682
▁experts	-2683
▁assessment	-2684
oon	-2685
isms	-2686
▁paid	-2687
▁worth	-2688
▁active	-2689
▁contributions	-2690
the	-2691
▁agent	-2692
▁enjoy	-2693
ructure	-2694
▁committed	-2695
ara	-2696
▁aug	-2697
▁esc	-2698
▁inn	-2699
lines	-2700
▁wall	-2701
lusion	-2702
▁known	-2703
▁weird	-2704
▁increasing	-2705
wa	-2706
ilar	-2707
▁french	-2708
▁immedi	-2709
▁port	-2710
iation	-2711
▁shouldn	-2712
▁trouble	-2713
▁territory	-2714
uty	-2715
▁lu	-2716
▁ship	-2717
▁dialogue	-2718
▁treatment	-2719
ole	-2720
▁hy	-2721
▁2009	-2722
▁experience	-2723
▁investment	-2724
▁jes	-2725
▁glad	-2726
▁panel	-2727
▁mis	-2728
▁surv	-2729
arters	-2730
▁seven	-2731
▁network	-2732
▁fix	-2733
ledge	-2734
roy	-2735
cell	-2736
rible	-2737
▁aids	-2738
▁corre	-2739
▁grant	-2740
▁steps	-2741
▁street	-2742
▁tribunal	-2743
▁procedure	-2744
▁40	-2745
▁sold	-2746
▁judge	-2747
▁north	-2748
▁himself	-2749
▁natural	-2750
▁peoples	-2751
▁ministry	-2752
que	-2753
ored	-2754
▁amb	-2755
▁afgh	-2756
▁undp	-2757
▁goals	-2758
▁august	-2759
▁single	-2760
▁playing	-2761
▁delegations	-2762
ues	-2763
ring	-2764
▁box	-2765
▁sad	-2766
right	-2767
ograph	-2768
oration	-2769
▁safety	-2770
cent	-2771
haps	-2772
room	-2773
▁rid	-2774
▁acts	-2775
▁meant	-2776
▁perhaps	-2777
▁challenges	-2778
over	-2779
arant	-2780
▁moving	-2781
▁pursuant	-2782
ops	-2783
umb	-2784
uary	-2785
▁migr	-2786
▁charl	-2787
▁forms	-2788
▁plans	-2789
▁share	-2790
▁actions	-2791
▁loss	-2792
▁whoa	-2793
▁camer	-2794
▁weeks	-2795
▁captain	-2796
hib	-2797
▁jer	-2798
▁cris	-2799
▁forum	-2800
▁contact	-2801
▁environmental	-2802
▁felt	-2803
▁laugh	-2804
▁funding	-2805
lam	-2806
▁neigh	-2807
▁giving	-2808
▁travel	-2809
▁procedures	-2810
▁throw	-2811
▁sexual	-2812
▁internal	-2813
▁feb	-2814
▁kiss	-2815
rences	-2816
▁neighb	-2817
▁purpose	-2818
▁equality	-2819
▁operation	-2820
▁practices	-2821
xic	-2822
▁100	-2823
▁fear	-2824
▁hair	-2825
▁reach	-2826
▁similar	-2827
▁function	-2828
▁mechanisms	-2829
ham	-2830
ott	-2831
▁squ	-2832
▁coff	-2833
▁happens	-2834
▁recommendation	-2835
la	-2836
aken	-2837
ends	-2838
ruary	-2839
▁harm	-2840
▁afghan	-2841
▁february	-2842
▁personal	-2843
irt	-2844
und	-2845
▁psy	-2846
▁absol	-2847
▁daddy	-2848
▁fault	-2849
▁centre	-2850
urs	-2851
uted	-2852
▁bag	-2853
ional	-2854
▁dark	-2855
▁catch	-2856
▁indeed	-2857
▁nature	-2858
▁mem	-2859
▁sil	-2860
▁outc	-2861
▁works	-2862
▁greater	-2863
▁january	-2864
▁remains	-2865
▁connection	-2866
ats	-2867
val	-2868
gent	-2869
▁aut	-2870
▁floor	-2871
iveness	-2872
▁annual	-2873
▁command	-2874
▁guarant	-2875
▁russian	-2876
▁debt	-2877
▁drop	-2878
▁combat	-2879
▁signed	-2880
▁history	-2881
▁trafficking	-2882
erve	-2883
▁max	-2884
▁cold	-2885
▁wide	-2886
▁brief	-2887
▁fifth	-2888
▁belong	-2889
▁officer	-2890
▁dear	-2891
dition	-2892
▁income	-2893
▁summit	-2894
▁priority	-2895
▁refugees	-2896
▁statements	-2897
ift	-2898
use	-2899
▁eye	-2900
▁hiv	-2901
▁draw	-2902
▁source	-2903
▁communication	-2904
▁phys	-2905
▁creat	-2906
▁property	-2907
▁employment	-2908
▁cru	-2909
▁hen	-2910
▁provides	-2911
▁profession	-2912
ha	-2913
ada	-2914
▁cit	-2915
▁honest	-2916
▁turned	-2917
▁calling	-2918
▁message	-2919
ica	-2920
hern	-2921
read	-2922
▁tax	-2923
▁basic	-2924
▁favor	-2925
▁missing	-2926
▁awa	-2927
inary	-2928
▁till	-2929
▁exchange	-2930
rid	-2931
▁mob	-2932
force	-2933
▁burn	-2934
▁gent	-2935
▁kept	-2936
▁pack	-2937
▁estim	-2938
▁model	-2939
▁notes	-2940
▁psych	-2941
▁contain	-2942
▁millennium	-2943
▁ord	-2944
▁exerc	-2945
▁weapon	-2946
▁potential	-2947
▁performance	-2948
▁understanding	-2949
irty	-2950
▁ang	-2951
▁org	-2952
▁phot	-2953
▁slow	-2954
▁round	-2955
▁crisis	-2956
▁discussion	-2957
▁themselves	-2958
▁lou	-2959
ature	-2960
ulated	-2961
▁demand	-2962
▁labour	-2963
▁former	-2964
▁victim	-2965
▁conclud	-2966
▁absolute	-2967
▁organized	-2968
gue	-2969
affir	-2970
▁dated	-2971
▁whose	-2972
▁across	-2973
▁compli	-2974
▁headqu	-2975
▁reaffir	-2976
▁reduction	-2977
ael	-2978
ead	-2979
▁mov	-2980
▁ways	-2981
▁gentle	-2982
▁economy	-2983
▁initiatives	-2984
iot	-2985
pping	-2986
▁mart	-2987
▁star	-2988
▁institution	-2989
ery	-2990
bers	-2991
▁cry	-2992
▁los	-2993
▁dude	-2994
▁fell	-2995
▁prol	-2996
▁repl	-2997
▁respond	-2998
oh	-2999
▁ow	-3000
▁fly	-3001
▁phil	-3002
▁track	-3003
▁totally	-3004
▁expected	-3005
▁maintain	-3006
▁dro	-3007
▁nam	-3008
▁ray	-3009
▁sme	-3010
▁vul	-3011
action	-3012
▁destroy	-3013
reme	-3014
▁1998	-3015
▁coven	-3016
▁german	-3017
▁division	-3018
▁headquarters	-3019
▁administration	-3020
▁57	-3021
▁adequ	-3022
▁issued	-3023
▁currently	-3024
▁transition	-3025
oses	-3026
▁join	-3027
▁mich	-3028
▁strategic	-3029
ya	-3030
▁gar	-3031
▁sou	-3032
icial	-3033
▁coffee	-3034
▁medical	-3035
▁analysis	-3036
gy	-3037
▁sea	-3038
riage	-3039
▁ones	-3040
▁breat	-3041
▁enter	-3042
▁credit	-3043
▁looked	-3044
▁biennium	-3045
▁seriously	-3046
lish	-3047
vere	-3048
▁aust	-3049
▁sett	-3050
▁equip	-3051
▁liber	-3052
▁option	-3053
▁scient	-3054
▁instead	-3055
▁emergency	-3056
▁iv	-3057
hood	-3058
just	-3059
▁mic	-3060
anced	-3061
▁tort	-3062
▁crimes	-3063
▁statist	-3064
▁led	-3065
▁cause	-3066
▁visit	-3067
▁contribute	-3068
▁tro	-3069
light	-3070
▁forg	-3071
▁compl	-3072
▁drugs	-3073
▁islam	-3074
▁worse	-3075
ilities	-3076
▁itself	-3077
▁families	-3078
▁59	-3079
▁sens	-3080
▁green	-3081
▁offer	-3082
▁vulner	-3083
▁consequ	-3084
▁kingdom	-3085
▁agreements	-3086
▁independent	-3087
olid	-3088
▁israeli	-3089
▁limited	-3090
▁positive	-3091
▁equipment	-3092
fully	-3093
▁rock	-3094
▁jesus	-3095
▁rural	-3096
▁create	-3097
▁custom	-3098
▁scared	-3099
▁objectives	-3100
▁laws	-3101
▁perm	-3102
▁below	-3103
▁behalf	-3104
▁approved	-3105
▁territor	-3106
▁essential	-3107
▁mentioned	-3108
▁jim	-3109
▁none	-3110
▁covenant	-3111
▁proposal	-3112
▁standing	-3113
▁principle	-3114
omp	-3115
▁joe	-3116
▁desp	-3117
▁lucky	-3118
▁voice	-3119
amental	-3120
▁charge	-3121
▁claims	-3122
▁records	-3123
▁informal	-3124
▁transport	-3125
▁multilateral	-3126
af	-3127
ii	-3128
ulf	-3129
verse	-3130
▁card	-3131
▁kick	-3132
▁sell	-3133
ensive	-3134
▁higher	-3135
▁aspects	-3136
uts	-3137
▁56	-3138
▁58	-3139
▁amaz	-3140
▁beat	-3141
▁mach	-3142
▁changes	-3143
▁dangerous	-3144
▁evaluation	-3145
▁fundamental	-3146
▁instruments	-3147
lled	-3148
▁197	-3149
▁cooper	-3150
▁clearly	-3151
▁distrib	-3152
▁inspect	-3153
▁knowledge	-3154
▁individuals	-3155
rast	-3156
▁lawy	-3157
▁equal	-3158
▁appear	-3159
▁patient	-3160
▁proposals	-3161
▁integrated	-3162
ador	-3163
▁neg	-3164
dered	-3165
▁hurry	-3166
▁value	-3167
▁michael	-3168
▁supported	-3169
ilt	-3170
aking	-3171
erson	-3172
▁clot	-3173
▁citiz	-3174
▁learn	-3175
▁charlie	-3176
ball	-3177
▁hid	-3178
▁guid	-3179
▁tele	-3180
▁tool	-3181
▁chuck	-3182
▁normal	-3183
▁straight	-3184
▁production	-3185
▁provisional	-3186
ays	-3187
lin	-3188
▁cn	-3189
istic	-3190
▁proc	-3191
▁enhance	-3192
▁federal	-3193
▁workers	-3194
▁recommended	-3195
ob	-3196
zz	-3197
▁dav	-3198
▁opp	-3199
▁blow	-3200
▁doub	-3201
▁comput	-3202
▁seeing	-3203
▁od	-3204
▁gas	-3205
▁wal	-3206
ctors	-3207
▁ange	-3208
▁hung	-3209
▁music	-3210
▁stick	-3211
▁trial	-3212
▁excell	-3213
abilities	-3214
▁accident	-3215
▁speaking	-3216
ks	-3217
▁anim	-3218
▁arri	-3219
▁ring	-3220
▁mexic	-3221
▁closed	-3222
▁kidding	-3223
▁somewhere	-3224
ancy	-3225
ills	-3226
rend	-3227
view	-3228
owers	-3229
▁cook	-3230
govern	-3231
▁smart	-3232
▁careful	-3233
▁obvious	-3234
▁missions	-3235
▁happening	-3236
▁negotiations	-3237
dam	-3238
akes	-3239
▁tun	-3240
ensus	-3241
terday	-3242
▁spoke	-3243
▁prolif	-3244
▁affected	-3245
▁yesterday	-3246
▁facilitate	-3247
▁violations	-3248
▁commissioner	-3249
yl	-3250
vey	-3251
▁hom	-3252
aches	-3253
▁genev	-3254
▁master	-3255
▁carried	-3256
▁charter	-3257
▁partner	-3258
▁guidelines	-3259
lt	-3260
▁fem	-3261
▁gold	-3262
ervation	-3263
▁promoting	-3264
▁completely	-3265
▁strategies	-3266
cer	-3267
crib	-3268
▁vot	-3269
▁army	-3270
iction	-3271
ousand	-3272
ricult	-3273
▁prepar	-3274
▁primary	-3275
▁starting	-3276
▁communities	-3277
▁proliferation	-3278
let	-3279
set	-3280
▁buddy	-3281
▁affect	-3282
▁complain	-3283
▁ensuring	-3284
▁initiative	-3285
▁operational	-3286
mas	-3287
▁mut	-3288
aries	-3289
▁bomb	-3290
▁mike	-3291
▁quiet	-3292
▁weren	-3293
▁geneva	-3294
▁ladies	-3295
▁created	-3296
▁quality	-3297
▁thousand	-3298
▁regulations	-3299
wise	-3300
▁cub	-3301
▁club	-3302
▁avoid	-3303
▁sixth	-3304
▁agricult	-3305
uses	-3306
▁van	-3307
onstr	-3308
▁spir	-3309
issions	-3310
▁circum	-3311
▁recently	-3312
cr	-3313
lia	-3314
zer	-3315
egal	-3316
▁cash	-3317
▁opin	-3318
▁categ	-3319
▁write	-3320
▁teacher	-3321
▁standard	-3322
lier	-3323
racy	-3324
▁bob	-3325
ially	-3326
itten	-3327
▁chem	-3328
▁serve	-3329
▁twenty	-3330
▁climate	-3331
▁english	-3332
▁demonstr	-3333
▁officers	-3334
▁arrangements	-3335
▁ali	-3336
▁feet	-3337
▁manag	-3338
▁minor	-3339
▁separ	-3340
▁forest	-3341
▁effects	-3342
▁critical	-3343
▁beginning	-3344
nes	-3345
▁45	-3346
ases	-3347
ites	-3348
▁jump	-3349
▁prec	-3350
▁stock	-3351
▁assets	-3352
▁confir	-3353
▁amazing	-3354
▁picture	-3355
▁concerns	-3356
▁objective	-3357
▁interested	-3358
▁communications	-3359
yle	-3360
aces	-3361
▁iii	-3362
▁ran	-3363
▁goal	-3364
▁lock	-3365
▁brain	-3366
▁media	-3367
uations	-3368
▁prohib	-3369
▁reached	-3370
▁marriage	-3371
▁opportunities	-3372
oph	-3373
▁du	-3374
▁fill	-3375
▁piece	-3376
ologies	-3377
▁search	-3378
▁consist	-3379
een	-3380
▁song	-3381
▁knock	-3382
▁loved	-3383
▁worksh	-3384
▁adequate	-3385
▁terrorist	-3386
▁commitments	-3387
bu	-3388
▁nar	-3389
▁blue	-3390
▁hund	-3391
▁aimed	-3392
▁hotel	-3393
▁uncle	-3394
▁intell	-3395
▁stated	-3396
▁imagine	-3397
▁recalling	-3398
lied	-3399
▁unh	-3400
▁dise	-3401
loyment	-3402
▁forgot	-3403
▁transm	-3404
▁hundred	-3405
▁anywhere	-3406
▁circumst	-3407
governmental	-3408
eth	-3409
▁fat	-3410
▁opt	-3411
▁spend	-3412
▁professional	-3413
bid	-3414
enny	-3415
▁ban	-3416
▁ice	-3417
acter	-3418
▁brit	-3419
▁infl	-3420
▁sche	-3421
reness	-3422
▁corru	-3423
▁price	-3424
▁teach	-3425
▁capital	-3426
▁involve	-3427
▁awareness	-3428
▁absolutely	-3429
▁asia	-3430
▁handle	-3431
▁movement	-3432
▁elections	-3433
▁afghanistan	-3434
▁investigation	-3435
▁ble	-3436
▁abuse	-3437
▁smell	-3438
▁stage	-3439
▁unice	-3440
▁growing	-3441
▁killing	-3442
▁offices	-3443
▁articles	-3444
▁university	-3445
enna	-3446
▁calm	-3447
▁hero	-3448
▁nine	-3449
▁congr	-3450
▁displ	-3451
▁unicef	-3452
▁advance	-3453
▁mechanism	-3454
▁anti	-3455
▁sand	-3456
▁tour	-3457
▁wear	-3458
▁peter	-3459
▁advice	-3460
▁killer	-3461
▁compliance	-3462
▁bey	-3463
▁gri	-3464
▁nin	-3465
▁hall	-3466
▁apply	-3467
▁audit	-3468
▁mouth	-3469
▁views	-3470
imately	-3471
▁chapter	-3472
▁science	-3473
▁wedding	-3474
▁worried	-3475
▁tradition	-3476
imum	-3477
asure	-3478
▁wake	-3479
▁screw	-3480
▁parlia	-3481
▁invited	-3482
▁mistake	-3483
▁reference	-3484
▁q	-3485
lle	-3486
itch	-3487
▁fool	-3488
▁seat	-3489
▁colle	-3490
▁dance	-3491
▁range	-3492
▁commer	-3493
▁congrat	-3494
ibilities	-3495
▁informed	-3496
▁resource	-3497
▁watching	-3498
▁substantive	-3499
pes	-3500
fort	-3501
▁cand	-3502
▁type	-3503
isters	-3504
▁guard	-3505
▁george	-3506
▁thinks	-3507
▁ye	-3508
roud	-3509
▁dig	-3510
▁sar	-3511
▁tal	-3512
▁alex	-3513
▁cast	-3514
▁vill	-3515
▁incor	-3516
▁swear	-3517
▁acting	-3518
▁expend	-3519
▁dollars	-3520
▁subsequ	-3521
▁preparation	-3522
ls	-3523
ots	-3524
ruit	-3525
▁born	-3526
▁cove	-3527
▁subs	-3528
▁unct	-3529
ventions	-3530
▁numbers	-3531
▁exercise	-3532
▁rap	-3533
▁jour	-3534
osition	-3535
▁revised	-3536
▁benefits	-3537
▁purposes	-3538
▁universal	-3539
cle	-3540
pro	-3541
ulate	-3542
▁bath	-3543
▁paul	-3544
▁pray	-3545
▁allah	-3546
▁lying	-3547
▁enforce	-3548
▁forever	-3549
▁language	-3550
▁terrible	-3551
▁governance	-3552
▁recognized	-3553
going	-3554
▁pred	-3555
▁alloc	-3556
▁broke	-3557
▁dress	-3558
▁movie	-3559
▁relax	-3560
▁caught	-3561
ferences	-3562
▁civilian	-3563
▁ku	-3564
icit	-3565
▁conv	-3566
▁weak	-3567
ternal	-3568
▁amend	-3569
▁parts	-3570
▁beyond	-3571
▁collab	-3572
▁manner	-3573
▁unctad	-3574
▁college	-3575
▁learned	-3576
rial	-3577
▁copy	-3578
▁mail	-3579
▁india	-3580
▁outcome	-3581
▁station	-3582
▁stopped	-3583
▁implementing	-3584
yn	-3585
▁ya	-3586
itely	-3587
▁laun	-3588
▁ride	-3589
▁girlf	-3590
▁heads	-3591
▁stake	-3592
▁waste	-3593
▁altern	-3594
▁elimin	-3595
▁events	-3596
▁france	-3597
▁infrast	-3598
▁character	-3599
▁fing	-3600
▁hous	-3601
▁medic	-3602
▁proud	-3603
▁recon	-3604
▁trick	-3605
▁border	-3606
▁debate	-3607
▁export	-3608
gs	-3609
izes	-3610
omed	-3611
▁iran	-3612
▁idiot	-3613
▁client	-3614
▁simple	-3615
▁peaceful	-3616
▁officials	-3617
▁stability	-3618
▁girlfriend	-3619
ania	-3620
▁kos	-3621
▁upd	-3622
▁wes	-3623
stairs	-3624
verage	-3625
▁goods	-3626
▁torture	-3627
▁consensus	-3628
▁successful	-3629
enth	-3630
▁fis	-3631
▁cham	-3632
▁chur	-3633
▁duty	-3634
▁honor	-3635
▁moved	-3636
▁benefit	-3637
▁continues	-3638
▁wonderful	-3639
▁appreciate	-3640
▁parliament	-3641
▁implemented	-3642
▁circumstances	-3643
bel	-3644
pper	-3645
▁lay	-3646
asons	-3647
▁acqu	-3648
▁fulf	-3649
▁heav	-3650
▁vide	-3651
friend	-3652
urance	-3653
▁gives	-3654
▁attemp	-3655
▁goddam	-3656
▁despite	-3657
▁wearing	-3658
▁consolid	-3659
▁elimination	-3660
isf	-3661
▁32	-3662
▁ep	-3663
ened	-3664
▁suit	-3665
▁occur	-3666
▁points	-3667
▁reiter	-3668
▁physical	-3669
▁encourage	-3670
▁interests	-3671
▁contribution	-3672
gest	-3673
▁196	-3674
arily	-3675
▁trip	-3676
essions	-3677
▁canada	-3678
▁likely	-3679
▁regret	-3680
▁stress	-3681
▁volunt	-3682
▁correct	-3683
▁earlier	-3684
▁evening	-3685
▁written	-3686
ervations	-3687
▁gentlemen	-3688
▁institutional	-3689
yal	-3690
▁unm	-3691
▁mort	-3692
▁race	-3693
ifying	-3694
▁innoc	-3695
▁tired	-3696
▁finish	-3697
▁relief	-3698
▁sevent	-3699
▁spirit	-3700
▁holding	-3701
▁neither	-3702
▁schools	-3703
▁expendit	-3704
▁federation	-3705
▁undertaken	-3706
▁proceedings	-3707
▁appreciation	-3708
ival	-3709
ping	-3710
▁boat	-3711
▁nick	-3712
▁spent	-3713
▁appeal	-3714
▁conven	-3715
standing	-3716
▁opinion	-3717
▁summary	-3718
▁birthday	-3719
▁citizens	-3720
▁disaster	-3721
▁election	-3722
▁fighting	-3723
▁incorpor	-3724
▁occupied	-3725
▁detective	-3726
▁throughout	-3727
oo	-3728
cal	-3729
nic	-3730
▁oil	-3731
▁pub	-3732
▁fish	-3733
▁grab	-3734
▁wood	-3735
▁immediately	-3736
▁ended	-3737
▁items	-3738
▁clothes	-3739
▁helping	-3740
▁overall	-3741
▁computer	-3742
▁boyfriend	-3743
▁indicated	-3744
▁participate	-3745
ena	-3746
▁61	-3747
▁jur	-3748
▁susp	-3749
▁faith	-3750
▁pregn	-3751
▁saved	-3752
urement	-3753
▁became	-3754
▁interp	-3755
▁punish	-3756
▁regime	-3757
▁submit	-3758
▁covered	-3759
▁chemical	-3760
▁conducted	-3761
iny	-3762
▁cab	-3763
asion	-3764
build	-3765
▁1997	-3766
▁whom	-3767
▁leban	-3768
▁names	-3769
▁raise	-3770
▁remind	-3771
▁talked	-3772
▁compens	-3773
▁concept	-3774
▁islamic	-3775
▁original	-3776
▁ooh	-3777
▁core	-3778
▁huge	-3779
▁campa	-3780
▁posts	-3781
▁decide	-3782
▁raised	-3783
▁decides	-3784
▁judicial	-3785
▁christmas	-3786
▁definitely	-3787
▁mc	-3788
▁tv	-3789
bert	-3790
▁brok	-3791
▁feels	-3792
▁mount	-3793
▁penal	-3794
▁plane	-3795
▁places	-3796
▁reduce	-3797
▁illegal	-3798
▁sources	-3799
▁followed	-3800
▁identified	-3801
▁supplement	-3802
▁62	-3803
▁bes	-3804
▁nic	-3805
rency	-3806
▁busy	-3807
▁david	-3808
▁assign	-3809
▁corpor	-3810
▁settle	-3811
▁window	-3812
▁reasons	-3813
▁transpa	-3814
▁achieved	-3815
▁functions	-3816
▁paragraphs	-3817
▁recommends	-3818
▁respective	-3819
▁infrastructure	-3820
▁dip	-3821
▁hat	-3822
▁wis	-3823
cious	-3824
▁kore	-3825
▁majority	-3826
▁certainly	-3827
▁effectively	-3828
▁inj	-3829
▁enem	-3830
▁assum	-3831
▁prove	-3832
▁compon	-3833
▁complex	-3834
▁deliver	-3835
▁usually	-3836
aly	-3837
pet	-3838
▁54	-3839
aven	-3840
mine	-3841
arent	-3842
enary	-3843
overy	-3844
▁arch	-3845
cribed	-3846
▁sudan	-3847
▁satisf	-3848
▁extreme	-3849
▁campaign	-3850
▁entities	-3851
▁welcomes	-3852
▁institute	-3853
▁recognize	-3854
▁leadership	-3855
ex	-3856
iel	-3857
ibly	-3858
ining	-3859
▁kosov	-3860
▁expand	-3861
▁female	-3862
▁mexico	-3863
▁alright	-3864
▁ongoing	-3865
▁percent	-3866
▁prepare	-3867
▁activity	-3868
▁apparent	-3869
▁comments	-3870
▁determin	-3871
▁electron	-3872
▁elements	-3873
▁improved	-3874
▁referred	-3875
▁legislative	-3876
ray	-3877
▁ide	-3878
▁simp	-3879
▁drunk	-3880
▁phase	-3881
▁radio	-3882
▁youth	-3883
▁supply	-3884
▁comment	-3885
▁external	-3886
▁condition	-3887
▁facilities	-3888
▁developments	-3889
amb	-3890
mon	-3891
rey	-3892
▁nig	-3893
eared	-3894
▁bang	-3895
▁clar	-3896
▁hide	-3897
▁rose	-3898
▁aware	-3899
▁polit	-3900
▁speed	-3901
▁truck	-3902
▁allowed	-3903
▁receive	-3904
▁walking	-3905
▁solution	-3906
▁vulnerable	-3907
▁interesting	-3908
▁territories	-3909
▁ug	-3910
▁ww	-3911
ains	-3912
lies	-3913
▁oce	-3914
▁built	-3915
▁chick	-3916
▁magic	-3917
▁wound	-3918
▁forgive	-3919
▁situations	-3920
▁enforcement	-3921
dra	-3922
▁35	-3923
ints	-3924
lebr	-3925
▁cops	-3926
▁evil	-3927
▁embar	-3928
▁marry	-3929
▁engine	-3930
▁attacks	-3931
▁governing	-3932
▁introduction	-3933
▁effectiveness	-3934
▁uns	-3935
▁bure	-3936
▁nort	-3937
▁explo	-3938
▁lower	-3939
▁scale	-3940
▁solid	-3941
▁urban	-3942
▁actual	-3943
▁divers	-3944
▁passed	-3945
▁struct	-3946
▁convers	-3947
▁goddamn	-3948
▁seconds	-3949
▁willing	-3950
▁corruption	-3951
▁pu	-3952
roat	-3953
▁dim	-3954
▁fri	-3955
▁tit	-3956
▁bast	-3957
▁farm	-3958
▁fort	-3959
▁stru	-3960
▁warm	-3961
ancing	-3962
ortion	-3963
▁dying	-3964
▁prime	-3965
▁scope	-3966
▁tough	-3967
▁celebr	-3968
▁kosovo	-3969
▁sufficient	-3970
ij	-3971
now	-3972
▁63	-3973
▁1995	-3974
▁mary	-3975
▁roll	-3976
▁skin	-3977
▁arbit	-3978
▁congo	-3979
▁freak	-3980
▁miles	-3981
▁announ	-3982
▁church	-3983
▁imposs	-3984
▁balance	-3985
▁dealing	-3986
▁keeping	-3987
▁meaning	-3988
▁directly	-3989
▁identify	-3990
▁incident	-3991
▁prosecut	-3992
▁difference	-3993
▁36	-3994
comm	-3995
rian	-3996
▁vir	-3997
▁1990	-3998
▁kuwa	-3999
ducing	-4000
omatic	-4001
▁juris	-4002
▁latin	-4003
▁rates	-4004
▁bureau	-4005
▁helped	-4006
▁showed	-4007
▁billion	-4008
▁culture	-4009
▁follows	-4010
▁suspect	-4011
▁bringing	-4012
▁challenge	-4013
▁scientific	-4014
ky	-4015
imb	-4016
ades	-4017
▁kit	-4018
▁lic	-4019
▁web	-4020
ental	-4021
▁pros	-4022
▁somal	-4023
▁heaven	-4024
▁lawyer	-4025
▁nation	-4026
▁saving	-4027
▁release	-4028
▁studies	-4029
▁presence	-4030
▁contribut	-4031
▁associated	-4032
▁impossible	-4033
▁integration	-4034
hic	-4035
▁vac	-4036
▁www	-4037
▁hasn	-4038
▁likes	-4039
▁steal	-4040
▁adjust	-4041
▁caused	-4042
▁choose	-4043
▁average	-4044
▁delivery	-4045
▁requires	-4046
▁companies	-4047
▁processes	-4048
▁religious	-4049
▁construction	-4050
lor	-4051
▁bon	-4052
▁bot	-4053
iving	-4054
▁1996	-4055
▁piss	-4056
▁span	-4057
▁sitting	-4058
▁innocent	-4059
▁conflicts	-4060
▁procurement	-4061
aur	-4062
iced	-4063
iles	-4064
ening	-4065
▁bear	-4066
▁cute	-4067
▁site	-4068
▁bound	-4069
▁henry	-4070
▁urges	-4071
▁candid	-4072
▁illicit	-4073
▁plenary	-4074
▁negative	-4075
▁otherwise	-4076
▁collective	-4077
▁settlement	-4078
▁participants	-4079
▁technologies	-4080
cs	-4081
inc	-4082
resh	-4083
▁rac	-4084
oking	-4085
▁vice	-4086
▁glass	-4087
▁store	-4088
▁stuck	-4089
▁damage	-4090
▁urgent	-4091
▁centres	-4092
▁germany	-4093
▁democracy	-4094
▁estimated	-4095
▁destruction	-4096
py	-4097
het	-4098
▁et	-4099
▁page	-4100
▁rapid	-4101
▁bought	-4102
▁played	-4103
▁suppose	-4104
▁presented	-4105
▁voluntary	-4106
eng	-4107
▁ht	-4108
iant	-4109
rupt	-4110
▁ell	-4111
▁bird	-4112
▁rein	-4113
▁match	-4114
▁vehic	-4115
▁applied	-4116
▁bow	-4117
▁mac	-4118
▁alle	-4119
▁brid	-4120
▁extent	-4121
▁notice	-4122
▁quickly	-4123
▁western	-4124
▁includes	-4125
▁welcomed	-4126
▁instrument	-4127
ka	-4128
▁34	-4129
▁os	-4130
▁hol	-4131
eding	-4132
gment	-4133
iling	-4134
ondon	-4135
▁holy	-4136
▁ibid	-4137
▁neck	-4138
▁soft	-4139
▁tick	-4140
▁forth	-4141
▁mobil	-4142
lusions	-4143
▁london	-4144
▁missed	-4145
▁useful	-4146
▁figured	-4147
▁sessions	-4148
▁completed	-4149
▁commercial	-4150
gar	-4151
▁500	-4152
▁deg	-4153
▁liter	-4154
▁scene	-4155
▁video	-4156
▁aftern	-4157
▁consum	-4158
▁secure	-4159
▁series	-4160
▁comfort	-4161
▁opening	-4162
▁pleasure	-4163
▁surprise	-4164
▁suggested	-4165
▁encourages	-4166
▁appointment	-4167
ino	-4168
iers	-4169
▁mel	-4170
▁ted	-4171
enced	-4172
▁size	-4173
ground	-4174
▁james	-4175
▁named	-4176
▁spread	-4177
▁driving	-4178
▁putting	-4179
▁regions	-4180
▁sharing	-4181
▁jew	-4182
esome	-4183
▁push	-4184
▁qual	-4185
▁shar	-4186
▁spons	-4187
▁twice	-4188
▁wrote	-4189
▁enable	-4190
▁powers	-4191
▁reading	-4192
▁strange	-4193
▁moreover	-4194
▁afternoon	-4195
▁apartment	-4196
▁civilians	-4197
▁addressing	-4198
▁preparatory	-4199
▁specialized	-4200
▁48	-4201
ater	-4202
resp	-4203
▁fit	-4204
ables	-4205
▁alia	-4206
▁braz	-4207
▁cuba	-4208
▁plus	-4209
▁shop	-4210
▁apart	-4211
▁lunch	-4212
▁older	-4213
▁implic	-4214
▁orders	-4215
▁racial	-4216
▁enterpr	-4217
▁leading	-4218
▁realize	-4219
▁pressure	-4220
▁students	-4221
▁continuing	-4222
▁electronic	-4223
▁discussions	-4224
▁determination	-4225
adic	-4226
book	-4227
hole	-4228
inct	-4229
▁log	-4230
▁reh	-4231
▁ult	-4232
▁chan	-4233
▁dipl	-4234
▁file	-4235
▁vers	-4236
▁banks	-4237
▁sixty	-4238
▁convin	-4239
▁defend	-4240
▁double	-4241
building	-4242
▁focused	-4243
▁guidance	-4244
▁bilateral	-4245
▁obviously	-4246
▁priorities	-4247
▁ack	-4248
▁pak	-4249
▁syn	-4250
orary	-4251
▁carl	-4252
▁jane	-4253
▁rise	-4254
▁disse	-4255
▁doubt	-4256
▁explos	-4257
▁favour	-4258
▁withdra	-4259
▁recovery	-4260
▁insurance	-4261
▁obligation	-4262
▁gay	-4263
▁band	-4264
▁path	-4265
▁spot	-4266
▁unif	-4267
istered	-4268
▁vienna	-4269
▁century	-4270
▁planned	-4271
▁reflected	-4272
▁ba	-4273
▁si	-4274
chen	-4275
mark	-4276
▁gift	-4277
▁repe	-4278
▁reven	-4279
▁ambass	-4280
▁ethnic	-4281
▁forced	-4282
▁ability	-4283
▁lessons	-4284
▁creation	-4285
▁periodic	-4286
▁disappear	-4287
▁guarantee	-4288
▁practical	-4289
▁conclusion	-4290
▁distribution	-4291
apt	-4292
inese	-4293
iring	-4294
lands	-4295
ortun	-4296
▁argu	-4297
▁bell	-4298
▁adopt	-4299
▁block	-4300
▁divor	-4301
▁semin	-4302
▁brazil	-4303
▁subsid	-4304
▁engaged	-4305
▁optional	-4306
▁statistics	-4307
▁conclusions	-4308
ga	-4309
anc	-4310
ria	-4311
ault	-4312
▁jul	-4313
ience	-4314
ulous	-4315
▁camera	-4316
▁planet	-4317
▁thirty	-4318
▁factors	-4319
▁impress	-4320
▁pacific	-4321
▁seventh	-4322
▁unfortun	-4323
▁highlight	-4324
▁industrial	-4325
▁supporting	-4326
▁association	-4327
ius	-4328
lim	-4329
▁33	-4330
house	-4331
icide	-4332
itable	-4333
tained	-4334
▁began	-4335
▁queen	-4336
▁sales	-4337
▁sport	-4338
▁turns	-4339
iciency	-4340
▁afford	-4341
▁approx	-4342
▁courts	-4343
▁eradic	-4344
▁friday	-4345
▁jurisd	-4346
▁lovely	-4347
▁austral	-4348
▁methods	-4349
▁setting	-4350
▁actively	-4351
▁products	-4352
▁introduced	-4353
▁alternative	-4354
▁compensation	-4355
bed	-4356
els	-4357
ita	-4358
old	-4359
▁52	-4360
shit	-4361
ston	-4362
▁ign	-4363
▁shh	-4364
▁beer	-4365
▁mama	-4366
▁rout	-4367
▁swit	-4368
tenance	-4369
▁apolog	-4370
▁transl	-4371
▁chinese	-4372
▁failure	-4373
▁compared	-4374
▁internet	-4375
▁pakistan	-4376
▁discussed	-4377
▁maintenance	-4378
rie	-4379
▁yo	-4380
inea	-4381
astic	-4382
▁bunch	-4383
▁influ	-4384
▁legit	-4385
▁shoes	-4386
▁leader	-4387
▁besides	-4388
▁registr	-4389
▁relation	-4390
▁treaties	-4391
▁materials	-4392
▁sanctions	-4393
▁confidence	-4394
▁indicators	-4395
▁consequences	-4396
bye	-4397
▁bos	-4398
itude	-4399
▁crap	-4400
▁dick	-4401
▁suck	-4402
▁liked	-4403
▁paras	-4404
▁unhcr	-4405
ounting	-4406
▁select	-4407
▁awesome	-4408
▁chamber	-4409
▁closely	-4410
▁defence	-4411
▁finding	-4412
▁profess	-4413
▁spanish	-4414
▁believed	-4415
▁sleeping	-4416
▁interview	-4417
▁apparently	-4418
▁applicable	-4419
▁documentation	-4420
nie	-4421
bean	-4422
onel	-4423
▁carib	-4424
▁entry	-4425
▁limit	-4426
▁acknow	-4427
▁broken	-4428
▁scream	-4429
▁attract	-4430
▁promised	-4431
▁independence	-4432
ung	-4433
cket	-4434
hest	-4435
▁cow	-4436
▁hoc	-4437
▁ken	-4438
▁behav	-4439
▁horse	-4440
▁river	-4441
▁units	-4442
▁worst	-4443
▁arbitr	-4444
▁kuwait	-4445
▁perpet	-4446
▁caribbean	-4447
▁listening	-4448
▁furthermore	-4449
mal	-4450
▁90	-4451
▁ng	-4452
ompl	-4453
ship	-4454
▁der	-4455
▁jam	-4456
▁map	-4457
▁pil	-4458
▁admit	-4459
▁shows	-4460
▁trend	-4461
▁daniel	-4462
▁formal	-4463
▁senior	-4464
▁shared	-4465
▁simply	-4466
▁subreg	-4467
▁accompl	-4468
▁machine	-4469
▁bullshit	-4470
▁designed	-4471
▁feelings	-4472
▁stressed	-4473
▁competition	-4474
▁conferences	-4475
▁congratulations	-4476
ki	-4477
ipp	-4478
ighs	-4479
▁egg	-4480
ierra	-4481
itial	-4482
▁soul	-4483
▁wine	-4484
▁lived	-4485
▁ocean	-4486
▁prost	-4487
▁failed	-4488
▁flight	-4489
▁judges	-4490
▁goodbye	-4491
▁initial	-4492
▁finished	-4493
▁achieving	-4494
▁encouraged	-4495
▁submission	-4496
▁traditional	-4497
▁approximately	-4498
ero	-4499
nal	-4500
gypt	-4501
rant	-4502
▁mmm	-4503
ented	-4504
ously	-4505
▁jail	-4506
▁zone	-4507
▁egypt	-4508
▁korea	-4509
▁actors	-4510
▁attend	-4511
▁county	-4512
▁decade	-4513
▁descri	-4514
▁donors	-4515
▁islands	-4516
▁measure	-4517
▁drinking	-4518
▁intended	-4519
▁northern	-4520
▁separate	-4521
▁interpret	-4522
▁ourselves	-4523
▁surprised	-4524
ds	-4525
iff	-4526
▁41	-4527
▁53	-4528
▁77	-4529
▁uk	-4530
icip	-4531
▁spl	-4532
▁donor	-4533
▁fresh	-4534
▁paris	-4535
▁truly	-4536
▁closer	-4537
▁sierra	-4538
▁colonel	-4539
▁eastern	-4540
▁pattern	-4541
▁payment	-4542
▁warning	-4543
▁pregnant	-4544
▁positions	-4545
han	-4546
▁publ	-4547
person	-4548
▁blind	-4549
▁repro	-4550
▁battle	-4551
▁bother	-4552
▁finance	-4553
▁replace	-4554
▁sectors	-4555
▁intellig	-4556
▁workshop	-4557
▁convinced	-4558
▁involving	-4559
▁membership	-4560
▁considering	-4561
▁educational	-4562
▁38	-4563
host	-4564
iary	-4565
▁tor	-4566
ivers	-4567
lusive	-4568
vision	-4569
▁angry	-4570
▁loves	-4571
▁stole	-4572
▁hungry	-4573
▁sudden	-4574
▁minimum	-4575
▁offered	-4576
▁ambassador	-4577
▁prosecutor	-4578
ids	-4579
ris	-4580
rog	-4581
ror	-4582
▁rw	-4583
heart	-4584
▁bust	-4585
▁symp	-4586
▁asian	-4587
▁heavy	-4588
▁smile	-4589
▁timor	-4590
▁advant	-4591
▁hoping	-4592
▁noting	-4593
▁details	-4594
ciliation	-4595
▁approval	-4596
▁efficient	-4597
▁improving	-4598
▁stakehold	-4599
▁involvement	-4600
za	-4601
▁mun	-4602
▁sha	-4603
▁firm	-4604
▁guil	-4605
▁shel	-4606
▁sout	-4607
▁tast	-4608
▁unid	-4609
▁wild	-4610
▁blame	-4611
▁delay	-4612
▁ghost	-4613
▁ideas	-4614
pective	-4615
▁guinea	-4616
▁hiding	-4617
▁journal	-4618
▁raising	-4619
▁budgetary	-4620
▁professor	-4621
▁structure	-4622
▁peacebuilding	-4623
bur	-4624
▁beg	-4625
▁bol	-4626
▁sky	-4627
▁2010	-4628
▁jake	-4629
▁util	-4630
▁vari	-4631
ctoral	-4632
overed	-4633
▁georg	-4634
▁types	-4635
olution	-4636
▁career	-4637
▁hearing	-4638
▁staying	-4639
▁accounts	-4640
▁bathroom	-4641
▁brothers	-4642
▁languages	-4643
▁suffering	-4644
▁consistent	-4645
▁occupation	-4646
▁previously	-4647
▁possibility	-4648
▁applications	-4649
▁collaboration	-4650
wh	-4651
lder	-4652
oked	-4653
vert	-4654
▁cup	-4655
▁ded	-4656
▁rub	-4657
gging	-4658
oring	-4659
▁grave	-4660
▁tight	-4661
▁center	-4662
▁corner	-4663
▁guilty	-4664
▁honour	-4665
▁invent	-4666
▁poison	-4667
▁complic	-4668
▁arrested	-4669
▁freedoms	-4670
▁powerful	-4671
▁remained	-4672
▁contributing	-4673
▁globalization	-4674
▁ry	-4675
▁fol	-4676
▁sup	-4677
▁wid	-4678
lined	-4679
▁crow	-4680
▁mate	-4681
▁tree	-4682
▁unep	-4683
▁gradu	-4684
▁guest	-4685
▁tools	-4686
▁bigger	-4687
▁seemed	-4688
▁concent	-4689
▁whoever	-4690
▁writing	-4691
▁congress	-4692
▁destroyed	-4693
▁detention	-4694
▁economies	-4695
▁partnerships	-4696
▁37	-4697
▁51	-4698
▁gab	-4699
▁mit	-4700
▁pus	-4701
arter	-4702
stood	-4703
▁spee	-4704
▁beach	-4705
▁ninth	-4706
▁overs	-4707
▁eating	-4708
▁papers	-4709
▁vision	-4710
▁herself	-4711
▁believes	-4712
▁concentr	-4713
▁observer	-4714
▁punishment	-4715
▁conventions	-4716
▁specifically	-4717
uf	-4718
uel	-4719
▁46	-4720
▁80	-4721
gged	-4722
ieth	-4723
uten	-4724
▁fle	-4725
iance	-4726
using	-4727
▁diam	-4728
▁load	-4729
▁male	-4730
▁obst	-4731
▁plat	-4732
▁advoc	-4733
▁fired	-4734
▁habit	-4735
▁leone	-4736
▁outer	-4737
▁pound	-4738
▁bullet	-4739
▁depart	-4740
▁timely	-4741
▁collect	-4742
▁crucial	-4743
▁disease	-4744
▁lebanon	-4745
▁reality	-4746
▁rehabil	-4747
▁weekend	-4748
▁favorite	-4749
▁electoral	-4750
▁migration	-4751
▁exploitation	-4752
mar	-4753
bing	-4754
▁gaz	-4755
▁kat	-4756
▁owe	-4757
▁ros	-4758
▁ngos	-4759
▁rain	-4760
▁reve	-4761
▁books	-4762
▁shame	-4763
vereign	-4764
▁criter	-4765
▁incred	-4766
▁housing	-4767
▁village	-4768
▁accepted	-4769
▁neighbour	-4770
▁palestine	-4771
▁approaches	-4772
▁difficulties	-4773
ams	-4774
uri	-4775
▁47	-4776
▁49	-4777
▁70	-4778
esty	-4779
▁inh	-4780
▁kim	-4781
andon	-4782
atell	-4783
▁dump	-4784
▁feed	-4785
▁lied	-4786
▁depos	-4787
▁immun	-4788
▁lines	-4789
▁plant	-4790
▁placed	-4791
▁prefer	-4792
▁elected	-4793
▁recruit	-4794
▁greatest	-4795
▁religion	-4796
▁enhancing	-4797
▁generally	-4798
▁immediate	-4799
▁sovereign	-4800
▁committees	-4801
▁establishing	-4802
oe	-4803
ago	-4804
bia	-4805
uls	-4806
▁39	-4807
▁pig	-4808
▁quit	-4809
▁rene	-4810
▁champ	-4811
▁gross	-4812
▁keeps	-4813
▁medium	-4814
▁owners	-4815
▁markets	-4816
▁somalia	-4817
▁survive	-4818
▁creating	-4819
▁resident	-4820
▁direction	-4821
▁eliminate	-4822
▁thousands	-4823
▁efficiency	-4824
▁achievement	-4825
▁increasingly	-4826
bon	-4827
off	-4828
fuck	-4829
▁bott	-4830
▁capt	-4831
▁gang	-4832
▁moon	-4833
▁nerv	-4834
▁poll	-4835
▁swed	-4836
▁danny	-4837
▁niger	-4838
▁proof	-4839
▁remed	-4840
▁shown	-4841
utenant	-4842
▁faster	-4843
▁highly	-4844
▁launch	-4845
▁absence	-4846
▁geograph	-4847
▁described	-4848
▁lieutenant	-4849
▁sweetheart	-4850
▁conversation	-4851
asc	-4852
ira	-4853
lav	-4854
▁42	-4855
▁43	-4856
▁96	-4857
stan	-4858
▁lis	-4859
▁nep	-4860
▁lift	-4861
▁datab	-4862
▁dirty	-4863
▁upset	-4864
▁assume	-4865
▁desert	-4866
▁driver	-4867
▁picked	-4868
▁reject	-4869
▁strugg	-4870
▁darling	-4871
▁deliber	-4872
▁knowing	-4873
▁threats	-4874
▁district	-4875
▁restrict	-4876
▁apologize	-4877
▁resulting	-4878
▁everywhere	-4879
▁implications	-4880
ua	-4881
cue	-4882
mer	-4883
zen	-4884
▁ky	-4885
aint	-4886
gery	-4887
rick	-4888
well	-4889
▁nav	-4890
▁slo	-4891
▁tan	-4892
▁emot	-4893
▁prem	-4894
▁rand	-4895
▁rome	-4896
▁sant	-4897
coming	-4898
▁attor	-4899
▁empty	-4900
▁enemy	-4901
▁faced	-4902
▁grace	-4903
ception	-4904
▁headed	-4905
▁satell	-4906
▁airport	-4907
▁deserve	-4908
▁diamond	-4909
▁letters	-4910
▁washing	-4911
▁possibly	-4912
▁relative	-4913
▁sentence	-4914
▁southern	-4915
▁upstairs	-4916
▁construct	-4917
▁excellent	-4918
▁introduce	-4919
▁determined	-4920
▁expenditure	-4921
▁outstanding	-4922
▁constitutional	-4923
▁lt	-4924
rass	-4925
▁300	-4926
▁kar	-4927
▁mix	-4928
▁1994	-4929
▁hole	-4930
▁pool	-4931
active	-4932
▁surve	-4933
▁depend	-4934
▁locked	-4935
▁bastard	-4936
▁indones	-4937
▁kitchen	-4938
▁chuckles	-4939
▁industry	-4940
▁withdraw	-4941
▁australia	-4942
▁determine	-4943
▁expertise	-4944
▁ministers	-4945
cra	-4946
hol	-4947
jud	-4948
back	-4949
down	-4950
gram	-4951
uled	-4952
antic	-4953
▁fant	-4954
▁gard	-4955
▁joke	-4956
▁pill	-4957
▁clark	-4958
▁coast	-4959
▁micro	-4960
▁shirt	-4961
▁causes	-4962
▁listed	-4963
▁interim	-4964
▁refugee	-4965
▁restaur	-4966
▁identity	-4967
▁recorded	-4968
▁strength	-4969
▁embarrass	-4970
▁oversight	-4971
▁background	-4972
▁accordingly	-4973
▁chairperson	-4974
73	-4975
vis	-4976
▁eh	-4977
ache	-4978
king	-4979
lock	-4980
▁195	-4981
▁boo	-4982
▁fbi	-4983
asing	-4984
night	-4985
place	-4986
▁1993	-4987
▁gree	-4988
▁guns	-4989
asters	-4990
▁color	-4991
▁hoped	-4992
▁jimmy	-4993
lection	-4994
▁deputy	-4995
▁opened	-4996
▁victor	-4997
▁asshole	-4998
▁defined	-4999
▁nervous	-5000
▁richard	-5001
▁combating	-5002
▁commander	-5003
▁motherfuck	-5004
▁disabilities	-5005
▁jurisdiction	-5006
hin	-5007
ula	-5008
ugos	-5009
ivity	-5010
▁drag	-5011
▁pled	-5012
igning	-5013
stream	-5014
▁agents	-5015
▁bloody	-5016
▁burund	-5017
▁leaves	-5018
▁element	-5019
▁reconst	-5020
▁sending	-5021
▁detailed	-5022
▁shooting	-5023
▁principal	-5024
▁registered	-5025
▁agriculture	-5026
mmy	-5027
▁gh	-5028
ille	-5029
▁gro	-5030
▁hal	-5031
▁award	-5032
▁yugos	-5033
▁eighth	-5034
▁mandates	-5035
▁returned	-5036
▁yugoslav	-5037
▁operating	-5038
▁sustained	-5039
▁disappoint	-5040
▁improvement	-5041
▁perspective	-5042
▁prosecution	-5043
▁reconciliation	-5044
do	-5045
ami	-5046
how	-5047
▁44	-5048
▁ay	-5049
▁ol	-5050
▁tony	-5051
▁sarah	-5052
▁vital	-5053
alities	-5054
▁finger	-5055
▁fulfil	-5056
▁speech	-5057
▁alleged	-5058
▁millions	-5059
▁contracts	-5060
▁temporary	-5061
▁wondering	-5062
▁collection	-5063
▁deployment	-5064
▁understood	-5065
▁represented	-5066
fur	-5067
▁75	-5068
▁ta	-5069
rete	-5070
time	-5071
▁194	-5072
▁gib	-5073
▁haz	-5074
▁wol	-5075
▁1991	-5076
▁bare	-5077
▁jeff	-5078
▁mont	-5079
▁sake	-5080
▁deser	-5081
▁kidna	-5082
▁renew	-5083
▁scott	-5084
▁sighs	-5085
▁dreams	-5086
▁endors	-5087
▁losing	-5088
▁skills	-5089
▁syrian	-5090
▁charges	-5091
▁subcomm	-5092
▁strongly	-5093
▁assistant	-5094
▁unfortunately	-5095
ios	-5096
aled	-5097
wood	-5098
▁dut	-5099
▁bosn	-5100
▁film	-5101
▁jobs	-5102
▁merc	-5103
▁momm	-5104
▁sale	-5105
▁valu	-5106
▁daily	-5107
▁sheri	-5108
▁animal	-5109
▁escape	-5110
▁histor	-5111
▁nether	-5112
▁racism	-5113
▁weight	-5114
▁animals	-5115
▁british	-5116
▁connect	-5117
▁highest	-5118
▁surgery	-5119
▁location	-5120
▁signature	-5121
▁violation	-5122
▁publication	-5123
▁agricultural	-5124
▁transparency	-5125
rer	-5126
▁gal	-5127
▁cars	-5128
▁cart	-5129
amples	-5130
ateful	-5131
▁analy	-5132
▁frequ	-5133
▁decent	-5134
▁organs	-5135
▁checked	-5136
▁perpetr	-5137
▁traffic	-5138
▁turning	-5139
▁attorney	-5140
▁learning	-5141
▁occasion	-5142
▁supports	-5143
▁concluded	-5144
▁netherlands	-5145
▁recognition	-5146
▁stakeholders	-5147
gie	-5148
hel	-5149
rain	-5150
▁ber	-5151
▁ire	-5152
▁yep	-5153
rison	-5154
▁brown	-5155
▁unido	-5156
ensions	-5157
▁argent	-5158
▁explan	-5159
▁facing	-5160
▁immigr	-5161
▁memory	-5162
▁prostit	-5163
▁humanity	-5164
▁launched	-5165
▁component	-5166
▁definition	-5167
▁consultation	-5168
▁observations	-5169
▁registration	-5170
▁organizational	-5171
tp	-5172
osh	-5173
inal	-5174
miss	-5175
oted	-5176
▁fro	-5177
▁ict	-5178
▁ven	-5179
▁kate	-5180
▁lies	-5181
▁uses	-5182
▁harry	-5183
▁pants	-5184
▁unemp	-5185
▁fortun	-5186
▁subpro	-5187
▁survey	-5188
▁burundi	-5189
▁targets	-5190
▁indicate	-5191
▁princess	-5192
▁produced	-5193
▁confident	-5194
▁cooperate	-5195
▁protecting	-5196
die	-5197
rep	-5198
cipl	-5199
illy	-5200
like	-5201
▁lee	-5202
▁rot	-5203
essed	-5204
under	-5205
▁eric	-5206
▁flex	-5207
▁pete	-5208
▁devil	-5209
▁enabl	-5210
▁ridic	-5211
▁fuckin	-5212
▁martin	-5213
▁modern	-5214
▁content	-5215
▁defense	-5216
▁dropped	-5217
▁sheriff	-5218
▁changing	-5219
▁released	-5220
▁soldiers	-5221
▁appointed	-5222
▁displaced	-5223
▁washington	-5224
▁functioning	-5225
▁participating	-5226
▁reconstruction	-5227
iar	-5228
isp	-5229
jan	-5230
lla	-5231
rem	-5232
eter	-5233
rier	-5234
▁sin	-5235
▁thr	-5236
▁magn	-5237
▁mere	-5238
▁finds	-5239
▁memor	-5240
▁borrow	-5241
▁fellow	-5242
▁gotten	-5243
▁invite	-5244
▁severe	-5245
▁fishing	-5246
▁ireland	-5247
▁criteria	-5248
▁neighbor	-5249
▁confirmed	-5250
▁diplomatic	-5251
▁recognizing	-5252
▁rehabilitation	-5253
acc	-5254
load	-5255
usal	-5256
▁dur	-5257
▁jess	-5258
▁legs	-5259
▁stan	-5260
▁forty	-5261
▁tommy	-5262
▁colomb	-5263
▁marine	-5264
▁presid	-5265
▁prices	-5266
▁prince	-5267
▁pulled	-5268
▁turkey	-5269
▁walked	-5270
▁options	-5271
▁ordered	-5272
▁trained	-5273
▁concrete	-5274
▁honestly	-5275
▁witnesses	-5276
▁capacities	-5277
▁expression	-5278
▁subregional	-5279
da	-5280
att	-5281
ili	-5282
occ	-5283
ode	-5284
ware	-5285
▁ast	-5286
▁emm	-5287
▁les	-5288
▁mir	-5289
▁pip	-5290
▁ron	-5291
matic	-5292
usion	-5293
▁appe	-5294
▁desk	-5295
▁fake	-5296
▁soph	-5297
▁zero	-5298
▁print	-5299
▁compar	-5300
▁mutual	-5301
▁robert	-5302
▁arrived	-5303
▁nowhere	-5304
▁pointed	-5305
▁stories	-5306
▁violent	-5307
▁briefing	-5308
▁horrible	-5309
▁advantage	-5310
▁populations	-5311
▁subsequently	-5312
▁accountability	-5313
chr	-5314
cast	-5315
ford	-5316
urse	-5317
▁doc	-5318
▁fan	-5319
▁mum	-5320
▁ric	-5321
▁wip	-5322
▁cous	-5323
▁meat	-5324
▁norms	-5325
▁purch	-5326
▁regul	-5327
▁sight	-5328
▁unfpa	-5329
▁paying	-5330
▁rwanda	-5331
▁signal	-5332
▁spring	-5333
▁invites	-5334
▁sweetie	-5335
▁treated	-5336
▁enhanced	-5337
▁grateful	-5338
▁laughing	-5339
▁estimates	-5340
▁solutions	-5341
▁accounting	-5342
▁mainstream	-5343
▁subcommitt	-5344
▁considerable	-5345
▁participated	-5346
rif	-5347
▁cp	-5348
dule	-5349
arity	-5350
board	-5351
iable	-5352
▁crew	-5353
▁fuel	-5354
▁hadn	-5355
▁http	-5356
▁libr	-5357
▁liqu	-5358
▁rent	-5359
▁adult	-5360
▁mommy	-5361
▁multi	-5362
▁risks	-5363
▁storm	-5364
▁teams	-5365
▁obtain	-5366
▁resist	-5367
▁served	-5368
▁summer	-5369
▁virgin	-5370
▁bearing	-5371
▁customs	-5372
▁granted	-5373
ationally	-5374
▁offences	-5375
▁integrity	-5376
▁foundation	-5377
▁ridiculous	-5378
▁assessments	-5379
▁intelligence	-5380
ja	-5381
ein	-5382
fast	-5383
▁bru	-5384
▁fal	-5385
▁flu	-5386
alous	-5387
▁milk	-5388
▁snow	-5389
▁compr	-5390
▁quant	-5391
▁theme	-5392
▁safegu	-5393
▁strike	-5394
▁amounts	-5395
▁chicken	-5396
▁hanging	-5397
▁pleased	-5398
▁secured	-5399
▁category	-5400
▁pictures	-5401
▁existence	-5402
▁indonesia	-5403
▁intention	-5404
▁subsequent	-5405
▁strengthened	-5406
ett	-5407
ola	-5408
inte	-5409
leep	-5410
▁pra	-5411
raine	-5412
▁aunt	-5413
▁dare	-5414
▁lots	-5415
▁reci	-5416
▁tape	-5417
dering	-5418
gramme	-5419
▁cards	-5420
▁stars	-5421
▁comply	-5422
▁condem	-5423
▁darfur	-5424
▁dollar	-5425
▁margin	-5426
▁mental	-5427
▁sweden	-5428
▁values	-5429
▁entered	-5430
▁heading	-5431
▁manager	-5432
▁becoming	-5433
▁constant	-5434
▁emphasis	-5435
▁instruct	-5436
▁inclusion	-5437
▁categories	-5438
▁subprogramme	-5439
ns	-5440
ato	-5441
iqu	-5442
etic	-5443
unte	-5444
ustr	-5445
craft	-5446
ordan	-5447
ufact	-5448
▁bran	-5449
▁lake	-5450
▁thom	-5451
▁thor	-5452
▁tong	-5453
▁chain	-5454
▁haiti	-5455
▁innov	-5456
▁sharp	-5457
▁sides	-5458
▁signs	-5459
▁smoke	-5460
▁title	-5461
▁belief	-5462
▁bosnia	-5463
▁bottle	-5464
▁easier	-5465
▁nearly	-5466
▁plenty	-5467
▁rescue	-5468
▁taught	-5469
▁wishes	-5470
▁counsel	-5471
▁volunte	-5472
ifications	-5473
▁remaining	-5474
▁satellite	-5475
▁excellency	-5476
▁encouraging	-5477
▁transitional	-5478
▁internationally	-5479
dd	-5480
con	-5481
ips	-5482
kin	-5483
▁dun	-5484
▁pin	-5485
▁wil	-5486
▁bind	-5487
▁gain	-5488
▁turk	-5489
▁faces	-5490
▁kevin	-5491
▁tells	-5492
▁troop	-5493
actions	-5494
zerland	-5495
▁betray	-5496
▁bridge	-5497
▁extend	-5498
▁lights	-5499
▁throat	-5500
▁channel	-5501
▁excited	-5502
▁grounds	-5503
▁liberia	-5504
▁majesty	-5505
▁pension	-5506
▁manufact	-5507
▁platform	-5508
▁candidates	-5509
▁emphasized	-5510
▁complicated	-5511
▁coordinated	-5512
▁switzerland	-5513
ca	-5514
hr	-5515
agn	-5516
gov	-5517
▁ox	-5518
rees	-5519
▁nom	-5520
▁row	-5521
▁wra	-5522
field	-5523
▁barb	-5524
▁cake	-5525
▁drew	-5526
▁gate	-5527
▁narc	-5528
▁outp	-5529
▁spok	-5530
▁tail	-5531
▁angel	-5532
▁dedic	-5533
▁drawn	-5534
▁thera	-5535
▁willi	-5536
▁breath	-5537
▁filled	-5538
▁harmon	-5539
▁manage	-5540
▁multip	-5541
▁stable	-5542
▁walter	-5543
▁biggest	-5544
▁discipl	-5545
▁falling	-5546
▁version	-5547
▁governor	-5548
▁realized	-5549
▁resulted	-5550
▁household	-5551
▁comfortable	-5552
▁subcommittee	-5553
ox	-5554
tic	-5555
you	-5556
▁au	-5557
atch	-5558
otic	-5559
ylum	-5560
▁vic	-5561
athan	-5562
▁dogs	-5563
▁hook	-5564
▁ryan	-5565
ivered	-5566
▁alleg	-5567
▁billy	-5568
▁cream	-5569
▁degra	-5570
▁emily	-5571
▁grown	-5572
▁italy	-5573
▁knife	-5574
▁sched	-5575
▁shift	-5576
▁talks	-5577
▁asylum	-5578
▁degree	-5579
▁intens	-5580
▁latest	-5581
▁troops	-5582
▁abandon	-5583
▁doctors	-5584
▁letting	-5585
▁managed	-5586
▁database	-5587
▁facility	-5588
▁occurred	-5589
▁spending	-5590
▁discrimin	-5591
▁published	-5592
▁engagement	-5593
▁restaurant	-5594
▁ministerial	-5595
▁recruitment	-5596
▁reservation	-5597
▁statistical	-5598
▁incorporated	-5599
oms	-5600
sey	-5601
adem	-5602
ales	-5603
▁dry	-5604
▁tub	-5605
etary	-5606
▁flat	-5607
▁onto	-5608
ertain	-5609
▁added	-5610
▁carol	-5611
▁labor	-5612
▁spare	-5613
▁steve	-5614
▁usual	-5615
ression	-5616
▁asleep	-5617
▁beauty	-5618
▁joined	-5619
▁jordan	-5620
▁dispute	-5621
▁divorce	-5622
▁jealous	-5623
▁monster	-5624
▁noticed	-5625
▁predict	-5626
▁suicide	-5627
▁carrying	-5628
▁emerging	-5629
▁murdered	-5630
▁stronger	-5631
▁delivered	-5632
▁undertake	-5633
▁minorities	-5634
▁systematic	-5635
▁commissions	-5636
▁coordinator	-5637
▁maintaining	-5638
▁reaffirming	-5639
▁representation	-5640
gen	-5641
ura	-5642
▁oz	-5643
▁ash	-5644
▁luc	-5645
loyed	-5646
phone	-5647
tered	-5648
▁acce	-5649
▁adam	-5650
▁keys	-5651
▁kyle	-5652
▁mask	-5653
▁wash	-5654
▁cease	-5655
▁facts	-5656
▁resum	-5657
▁wheel	-5658
▁bright	-5659
▁castle	-5660
▁engage	-5661
▁mostly	-5662
▁online	-5663
▁georgia	-5664
▁grandma	-5665
▁imposed	-5666
▁quarter	-5667
▁amendment	-5668
▁argentina	-5669
▁breakfast	-5670
▁expresses	-5671
▁extremely	-5672
▁settlements	-5673
▁consultative	-5674
cl	-5675
di	-5676
ann	-5677
ida	-5678
▁ld	-5679
▁ut	-5680
chel	-5681
▁aah	-5682
▁amy	-5683
▁cha	-5684
▁mos	-5685
ompan	-5686
▁1373	-5687
▁bond	-5688
▁calc	-5689
▁dumb	-5690
▁zeal	-5691
▁folks	-5692
▁academ	-5693
▁bottom	-5694
▁cousin	-5695
▁limits	-5696
▁obstac	-5697
▁square	-5698
▁accused	-5699
▁breaking	-5700
▁friendly	-5701
▁medicine	-5702
▁politics	-5703
▁targeted	-5704
▁universe	-5705
▁welcoming	-5706
▁substances	-5707
▁differences	-5708
▁nationality	-5709
▁restrictions	-5710
vi	-5711
▁cd	-5712
▁ct	-5713
aine	-5714
real	-5715
▁dna	-5716
▁gap	-5717
▁sna	-5718
▁suc	-5719
▁tat	-5720
illed	-5721
osure	-5722
wards	-5723
▁lind	-5724
▁matt	-5725
▁stol	-5726
atemal	-5727
integr	-5728
▁elder	-5729
▁files	-5730
▁fixed	-5731
▁param	-5732
▁sacri	-5733
▁tasks	-5734
▁cancer	-5735
▁commod	-5736
▁expans	-5737
▁flying	-5738
▁foster	-5739
▁losses	-5740
▁shower	-5741
▁suffer	-5742
▁thomas	-5743
▁appears	-5744
▁conform	-5745
▁reforms	-5746
▁somehow	-5747
▁uniform	-5748
▁guatemal	-5749
▁schedule	-5750
▁acknowled	-5751
▁ownership	-5752
▁complement	-5753
▁constitute	-5754
▁reasonable	-5755
▁structures	-5756
▁verification	-5757
gger	-5758
▁inp	-5759
▁urg	-5760
zegov	-5761
▁butt	-5762
▁gaza	-5763
▁jean	-5764
▁rape	-5765
▁affir	-5766
▁colon	-5767
▁domin	-5768
▁franc	-5769
▁games	-5770
▁royal	-5771
▁tests	-5772
▁valid	-5773
respond	-5774
▁crying	-5775
▁deeply	-5776
▁gather	-5777
▁indian	-5778
▁insist	-5779
▁myster	-5780
▁slight	-5781
▁surely	-5782
iversary	-5783
zegovina	-5784
▁license	-5785
▁pretend	-5786
▁vehicle	-5787
▁incredible	-5788
▁regulation	-5789
▁subsidiary	-5790
▁yugoslavia	-5791
▁contributed	-5792
▁herzegovina	-5793
ko	-5794
ila	-5795
iop	-5796
ette	-5797
rett	-5798
wide	-5799
▁lif	-5800
▁nap	-5801
orate	-5802
▁2011	-5803
▁elab	-5804
▁flow	-5805
▁brand	-5806
▁cheap	-5807
▁chest	-5808
▁depri	-5809
▁pilot	-5810
▁rough	-5811
▁spain	-5812
▁league	-5813
▁russia	-5814
▁starts	-5815
▁appeals	-5816
▁located	-5817
▁persist	-5818
▁ukraine	-5819
▁reducing	-5820
▁reviewed	-5821
▁objection	-5822
▁sensitive	-5823
▁correspond	-5824
▁anniversary	-5825
▁palestinians	-5826
kes	-5827
char	-5828
ders	-5829
▁nut	-5830
▁unp	-5831
anged	-5832
ively	-5833
orter	-5834
▁mond	-5835
atures	-5836
▁contr	-5837
▁hurts	-5838
▁ohchr	-5839
▁photo	-5840
▁serge	-5841
▁sugar	-5842
▁claire	-5843
▁fucked	-5844
▁remark	-5845
▁sacrif	-5846
▁sooner	-5847
▁stolen	-5848
▁binding	-5849
▁britain	-5850
▁municip	-5851
▁seeking	-5852
▁zealand	-5853
▁advanced	-5854
▁attached	-5855
▁diversity	-5856
▁expansion	-5857
▁prisoners	-5858
▁secondary	-5859
▁authorized	-5860
▁terrorists	-5861
▁disappeared	-5862
▁presentation	-5863
▁ratification	-5864
nd	-5865
▁85	-5866
▁ka	-5867
aked	-5868
itty	-5869
oire	-5870
ront	-5871
▁dyn	-5872
▁rum	-5873
erted	-5874
haust	-5875
▁cock	-5876
▁ends	-5877
▁flag	-5878
▁heat	-5879
▁insu	-5880
▁papa	-5881
▁pure	-5882
▁scre	-5883
iciary	-5884
orders	-5885
▁louis	-5886
▁burden	-5887
▁dating	-5888
▁stabil	-5889
▁suspic	-5890
▁theory	-5891
▁consent	-5892
▁constra	-5893
▁dressed	-5894
▁exhaust	-5895
▁habitat	-5896
▁streets	-5897
▁student	-5898
▁colombia	-5899
▁ratified	-5900
▁preparing	-5901
▁reaffirms	-5902
▁invitation	-5903
▁proportion	-5904
▁enterprises	-5905
▁highlighted	-5906
ded	-5907
ige	-5908
▁na	-5909
mans	-5910
▁mcc	-5911
▁vin	-5912
belie	-5913
enses	-5914
▁1992	-5915
▁cohe	-5916
▁cree	-5917
▁dean	-5918
▁evol	-5919
▁nose	-5920
▁ours	-5921
▁salv	-5922
▁tall	-5923
▁bobby	-5924
▁overc	-5925
▁owned	-5926
▁satur	-5927
▁taste	-5928
▁urged	-5929
▁barely	-5930
▁ethiop	-5931
▁humans	-5932
▁rachel	-5933
▁remote	-5934
national	-5935
▁custody	-5936
▁depends	-5937
▁extended	-5938
▁instance	-5939
▁mountain	-5940
▁valuable	-5941
▁whenever	-5942
▁influence	-5943
▁residence	-5944
▁accomplish	-5945
▁legitimate	-5946
▁advancement	-5947
▁experiences	-5948
▁transferred	-5949
▁identification	-5950
car	-5951
cca	-5952
eds	-5953
▁91	-5954
aped	-5955
ller	-5956
ties	-5957
▁sav	-5958
▁scr	-5959
inent	-5960
▁abst	-5961
▁loud	-5962
▁mira	-5963
▁rick	-5964
▁vamp	-5965
illing	-5966
istics	-5967
▁bucks	-5968
▁chile	-5969
▁crack	-5970
▁hired	-5971
▁ought	-5972
▁shape	-5973
igation	-5974
▁distur	-5975
▁laughs	-5976
▁morocc	-5977
▁strict	-5978
▁unique	-5979
▁wealth	-5980
▁aggress	-5981
▁breathe	-5982
▁operate	-5983
▁soldier	-5984
▁succeed	-5985
▁contents	-5986
▁reintegr	-5987
▁interrupt	-5988
▁designated	-5989
▁preventing	-5990
▁recognizes	-5991
▁television	-5992
▁respectively	-5993
ils	-5994
oty	-5995
rel	-5996
rol	-5997
▁ia	-5998
aker	-5999
face	-6000
▁haw	-6001
eties	-6002
osing	-6003
▁scar	-6004
▁adapt	-6005
▁alger	-6006
▁annie	-6007
▁insol	-6008
▁loose	-6009
▁marsh	-6010
▁mayor	-6011
▁roger	-6012
▁spell	-6013
▁stone	-6014
▁woods	-6015
theless	-6016
▁carter	-6017
▁deaths	-6018
▁device	-6019
▁factor	-6020
▁larger	-6021
▁malays	-6022
entially	-6023
▁acceler	-6024
▁confirm	-6025
▁offence	-6026
▁privile	-6027
▁shelter	-6028
▁supreme	-6029
▁focusing	-6030
▁protocols	-6031
▁workshops	-6032
▁eventually	-6033
▁maintained	-6034
▁solidarity	-6035
▁nevertheless	-6036
▁satisfaction	-6037
ba	-6038
ost	-6039
ses	-6040
▁gy	-6041
▁joy	-6042
round	-6043
▁goin	-6044
▁sixt	-6045
▁swim	-6046
▁tank	-6047
▁alarm	-6048
▁coach	-6049
▁decre	-6050
▁iraqi	-6051
▁jerry	-6052
▁mercy	-6053
▁outta	-6054
▁sword	-6055
▁thurs	-6056
▁brings	-6057
▁specif	-6058
▁termin	-6059
▁unable	-6060
▁comprom	-6061
▁resolve	-6062
▁signing	-6063
▁announce	-6064
▁contains	-6065
▁coverage	-6066
▁payments	-6067
▁properly	-6068
▁expensive	-6069
▁protected	-6070
▁completion	-6071
▁containing	-6072
▁eradication	-6073
▁significantly	-6074
ano	-6075
bie	-6076
rea	-6077
udi	-6078
burg	-6079
osen	-6080
▁ced	-6081
▁jon	-6082
anmar	-6083
▁anna	-6084
▁bart	-6085
▁defe	-6086
▁flor	-6087
▁grew	-6088
▁laid	-6089
▁lisa	-6090
▁rank	-6091
▁roof	-6092
▁scen	-6093
▁awful	-6094
▁balls	-6095
▁exped	-6096
▁image	-6097
▁kinda	-6098
▁loyal	-6099
▁excess	-6100
▁fiscal	-6101
▁funded	-6102
▁monday	-6103
▁namely	-6104
▁trends	-6105
▁closing	-6106
▁conting	-6107
▁largest	-6108
▁myanmar	-6109
▁speaker	-6110
▁attended	-6111
▁contrary	-6112
▁networks	-6113
▁register	-6114
▁saturday	-6115
▁selected	-6116
▁allocated	-6117
▁basically	-6118
▁concluding	-6119
ros	-6120
▁kh	-6121
▁las	-6122
▁rod	-6123
▁sla	-6124
aging	-6125
ipped	-6126
▁cass	-6127
▁corr	-6128
▁dign	-6129
▁fred	-6130
▁prev	-6131
▁ward	-6132
▁whis	-6133
▁delic	-6134
▁evalu	-6135
▁sneak	-6136
▁teeth	-6137
▁toler	-6138
▁fields	-6139
▁hardly	-6140
▁norway	-6141
▁sunday	-6142
▁uganda	-6143
▁unlike	-6144
▁assault	-6145
▁library	-6146
▁penalty	-6147
▁produce	-6148
▁reduced	-6149
▁seminar	-6150
▁familiar	-6151
▁japanese	-6152
▁outcomes	-6153
▁supplies	-6154
▁guatemala	-6155
▁perfectly	-6156
▁responses	-6157
▁sovereignty	-6158
▁reservations	-6159
▁transnational	-6160
▁71	-6161
greg	-6162
onia	-6163
sels	-6164
vest	-6165
▁154	-6166
▁cig	-6167
▁kil	-6168
▁lib	-6169
▁pit	-6170
▁sli	-6171
icing	-6172
▁arth	-6173
▁chic	-6174
▁curi	-6175
▁hill	-6176
▁symb	-6177
▁hanna	-6178
▁holly	-6179
▁homes	-6180
▁madam	-6181
▁punch	-6182
▁solve	-6183
▁tunis	-6184
ulating	-6185
▁lately	-6186
▁latter	-6187
▁pissed	-6188
▁prelim	-6189
▁sought	-6190
▁temper	-6191
▁burning	-6192
▁charles	-6193
▁figures	-6194
▁healthy	-6195
▁statute	-6196
▁accompan	-6197
▁aircraft	-6198
▁attacked	-6199
▁covering	-6200
▁endorsed	-6201
▁football	-6202
▁hundreds	-6203
▁speakers	-6204
▁struggle	-6205
▁suddenly	-6206
▁thematic	-6207
▁disasters	-6208
▁expecting	-6209
▁intellect	-6210
▁discovered	-6211
▁productive	-6212
▁methodology	-6213
▁requirement	-6214
▁substantial	-6215
akh	-6216
ald	-6217
▁65	-6218
▁73	-6219
▁sr	-6220
▁atl	-6221
▁bay	-6222
▁cos	-6223
▁eve	-6224
▁tex	-6225
▁tip	-6226
▁wto	-6227
oying	-6228
▁babe	-6229
▁bone	-6230
▁clin	-6231
angers	-6232
ounted	-6233
ourage	-6234
usalem	-6235
▁bless	-6236
▁coinc	-6237
▁lands	-6238
▁mines	-6239
▁votes	-6240
▁cheese	-6241
▁contra	-6242
▁insane	-6243
▁linked	-6244
▁matern	-6245
▁photos	-6246
▁season	-6247
▁update	-6248
atherine	-6249
▁propose	-6250
▁selling	-6251
▁showing	-6252
▁bleeding	-6253
▁handsome	-6254
▁suffered	-6255
▁thursday	-6256
▁chemicals	-6257
▁equitable	-6258
▁jerusalem	-6259
▁biological	-6260
▁explanation	-6261
▁prohibition	-6262
lan	-6263
▁72	-6264
iled	-6265
▁ari	-6266
▁gor	-6267
hered	-6268
lying	-6269
stein	-6270
tical	-6271
▁bail	-6272
▁chat	-6273
▁emma	-6274
▁iron	-6275
▁ital	-6276
▁sole	-6277
▁tang	-6278
▁ugly	-6279
▁virt	-6280
mother	-6281
nesday	-6282
▁brill	-6283
▁dealt	-6284
▁falls	-6285
▁magaz	-6286
▁plays	-6287
▁robin	-6288
▁sites	-6289
▁surge	-6290
▁witch	-6291
entials	-6292
▁attrib	-6293
▁boring	-6294
▁branch	-6295
▁drinks	-6296
▁hidden	-6297
▁insuff	-6298
▁salary	-6299
▁terrif	-6300
▁visits	-6301
▁attempt	-6302
▁belongs	-6303
▁empower	-6304
▁lasting	-6305
▁screwed	-6306
▁warrant	-6307
▁findings	-6308
▁migrants	-6309
▁teachers	-6310
▁corporate	-6311
▁indicates	-6312
▁liability	-6313
▁inspection	-6314
▁presidency	-6315
▁formulation	-6316
▁preliminary	-6317
▁unemployment	-6318
▁reintegration	-6319
va	-6320
pir	-6321
▁pp	-6322
iest	-6323
tery	-6324
▁800	-6325
▁ate	-6326
▁lun	-6327
▁sah	-6328
uries	-6329
vency	-6330
▁bite	-6331
▁liar	-6332
▁scot	-6333
▁sees	-6334
▁wire	-6335
▁cares	-6336
▁chris	-6337
▁clock	-6338
▁dynam	-6339
▁exemp	-6340
▁jason	-6341
▁manif	-6342
▁owing	-6343
▁slept	-6344
▁button	-6345
▁duties	-6346
▁easily	-6347
▁jacket	-6348
▁amended	-6349
▁arising	-6350
▁contemp	-6351
▁drawing	-6352
▁england	-6353
▁grandpa	-6354
▁lawyers	-6355
▁package	-6356
▁thereby	-6357
▁convince	-6358
▁diseases	-6359
▁examples	-6360
▁surround	-6361
▁employees	-6362
▁enjoyment	-6363
▁nationals	-6364
▁wednesday	-6365
▁acceptance	-6366
▁frameworks	-6367
▁personally	-6368
▁credentials	-6369
▁territorial	-6370
▁conventional	-6371
▁preparations	-6372
hem	-6373
oul	-6374
pap	-6375
kind	-6376
zech	-6377
▁400	-6378
▁ilo	-6379
▁jac	-6380
lfare	-6381
▁alan	-6382
▁lest	-6383
▁pier	-6384
▁shad	-6385
▁webs	-6386
father	-6387
▁chose	-6388
▁climb	-6389
▁cruel	-6390
▁homel	-6391
▁penny	-6392
▁simon	-6393
▁threw	-6394
ductive	-6395
▁pounds	-6396
▁remove	-6397
▁cutting	-6398
▁popular	-6399
▁testing	-6400
▁transit	-6401
▁welfare	-6402
▁drafting	-6403
▁electric	-6404
▁minority	-6405
▁normally	-6406
▁connected	-6407
▁execution	-6408
▁inspector	-6409
▁scheduled	-6410
▁amendments	-6411
▁regulatory	-6412
▁represents	-6413
▁unilateral	-6414
▁consumption	-6415
▁improvements	-6416
▁interpretation	-6417
sp	-6418
cel	-6419
des	-6420
ien	-6421
▁64	-6422
▁ji	-6423
▁md	-6424
asty	-6425
ingu	-6426
oler	-6427
▁piz	-6428
▁pow	-6429
▁tie	-6430
igned	-6431
▁chad	-6432
▁crit	-6433
▁dave	-6434
▁fash	-6435
▁fate	-6436
▁leon	-6437
▁rebe	-6438
▁tend	-6439
▁thir	-6440
▁tiny	-6441
▁tues	-6442
rition	-6443
▁czech	-6444
▁drove	-6445
▁false	-6446
▁inequ	-6447
▁owner	-6448
▁paral	-6449
▁shock	-6450
▁kicked	-6451
▁permit	-6452
▁priest	-6453
▁stands	-6454
▁volume	-6455
▁borders	-6456
▁capable	-6457
▁dignity	-6458
▁fingers	-6459
▁nigeria	-6460
▁prevail	-6461
▁tuesday	-6462
▁declared	-6463
▁enabling	-6464
▁ethiopia	-6465
▁manifest	-6466
▁monetary	-6467
▁observed	-6468
▁patients	-6469
▁teaching	-6470
▁initiated	-6471
▁selection	-6472
▁societies	-6473
▁conformity	-6474
▁insolvency	-6475
▁consolidated	-6476
▁facilitating	-6477
▁neighborhood	-6478
▁presidential	-6479
▁mainstreaming	-6480
dp	-6481
rd	-6482
bai	-6483
mad	-6484
▁bh	-6485
▁ly	-6486
ario	-6487
athy	-6488
born	-6489
fire	-6490
illa	-6491
▁105	-6492
▁bul	-6493
▁fao	-6494
▁pee	-6495
ijing	-6496
▁andy	-6497
▁buck	-6498
▁gall	-6499
▁josh	-6500
▁rare	-6501
▁fruit	-6502
▁grade	-6503
▁leads	-6504
▁moves	-6505
▁socio	-6506
▁arthur	-6507
▁attain	-6508
▁chocol	-6509
▁detect	-6510
▁deteri	-6511
▁prompt	-6512
▁beijing	-6513
▁hunting	-6514
▁legally	-6515
▁pending	-6516
▁senator	-6517
▁checking	-6518
▁repeated	-6519
▁sections	-6520
▁sergeant	-6521
▁considers	-6522
▁primarily	-6523
▁worldwide	-6524
▁downstairs	-6525
▁laundering	-6526
▁percentage	-6527
▁revolution	-6528
▁constructive	-6529
▁insufficient	-6530
ito	-6531
mond	-6532
opho	-6533
outs	-6534
pher	-6535
▁rab	-6536
ashed	-6537
▁azer	-6538
▁entr	-6539
▁grat	-6540
▁hunt	-6541
▁iaea	-6542
▁lily	-6543
▁lone	-6544
▁nail	-6545
▁runs	-6546
▁sexy	-6547
▁tons	-6548
baijan	-6549
ennial	-6550
ivoire	-6551
▁booth	-6552
▁clust	-6553
▁croat	-6554
▁flows	-6555
▁imper	-6556
▁minim	-6557
▁santa	-6558
▁split	-6559
▁trash	-6560
▁unity	-6561
entions	-6562
▁dispos	-6563
▁freeze	-6564
▁genius	-6565
▁scheme	-6566
▁stream	-6567
▁tongue	-6568
▁voting	-6569
▁widely	-6570
▁algeria	-6571
▁becomes	-6572
▁equival	-6573
▁liberty	-6574
▁precise	-6575
▁serving	-6576
▁dissemin	-6577
▁messages	-6578
▁passport	-6579
▁explained	-6580
▁extension	-6581
▁azerbaijan	-6582
▁internally	-6583
▁processing	-6584
▁investigate	-6585
▁motherfucker	-6586
▁interventions	-6587
▁discriminatory	-6588
eav	-6589
isc	-6590
ket	-6591
ota	-6592
oto	-6593
▁hr	-6594
arus	-6595
ivia	-6596
▁hay	-6597
▁sab	-6598
▁tel	-6599
▁unt	-6600
▁vig	-6601
ength	-6602
hamed	-6603
ridge	-6604
unity	-6605
▁chlo	-6606
▁erit	-6607
▁gods	-6608
▁maur	-6609
▁nope	-6610
▁vast	-6611
ailand	-6612
▁asset	-6613
▁cycle	-6614
▁depth	-6615
▁enact	-6616
▁fraud	-6617
▁moral	-6618
▁numer	-6619
▁paint	-6620
▁produ	-6621
▁behavi	-6622
▁hazard	-6623
▁hearts	-6624
▁mainly	-6625
▁pursue	-6626
▁subpar	-6627
▁bedroom	-6628
▁fashion	-6629
▁migrant	-6630
▁protest	-6631
▁ordinary	-6632
▁painting	-6633
▁brilliant	-6634
▁fantastic	-6635
▁mortality	-6636
▁availability	-6637
▁coordinating	-6638
▁transactions	-6639
▁technological	-6640
sa	-6641
vo	-6642
ccc	-6643
cia	-6644
inn	-6645
rig	-6646
ums	-6647
▁66	-6648
ider	-6649
udes	-6650
▁npt	-6651
▁pul	-6652
▁que	-6653
▁sue	-6654
▁tap	-6655
▁ves	-6656
urate	-6657
▁belg	-6658
▁deny	-6659
▁duck	-6660
▁jama	-6661
▁root	-6662
econom	-6663
▁blank	-6664
▁cabin	-6665
▁chloe	-6666
▁giant	-6667
▁reput	-6668
▁buried	-6669
▁burned	-6670
▁chosen	-6671
▁endeav	-6672
▁prejud	-6673
▁symbol	-6674
▁chicago	-6675
▁courage	-6676
▁philipp	-6677
▁profile	-6678
▁behavior	-6679
▁dramatic	-6680
▁expenses	-6681
▁imprison	-6682
▁malaysia	-6683
▁marginal	-6684
▁rational	-6685
▁thailand	-6686
▁competent	-6687
▁generation	-6688
▁opposition	-6689
▁permission	-6690
▁threatened	-6691
▁arrangement	-6692
▁constraints	-6693
▁geographical	-6694
▁intellectual	-6695
▁dissemination	-6696
phy	-6697
▁rh	-6698
etch	-6699
with	-6700
▁atm	-6701
▁lex	-6702
▁lia	-6703
▁lit	-6704
itect	-6705
vable	-6706
▁abby	-6707
▁coal	-6708
▁edge	-6709
▁jose	-6710
▁porn	-6711
▁rush	-6712
▁stom	-6713
inated	-6714
▁bread	-6715
▁crash	-6716
▁plate	-6717
▁route	-6718
▁saudi	-6719
▁scary	-6720
▁shots	-6721
illance	-6722
▁ending	-6723
▁minist	-6724
▁pieces	-6725
▁retire	-6726
▁spoken	-6727
▁stayed	-6728
▁clients	-6729
▁decline	-6730
▁dismiss	-6731
▁examine	-6732
▁flowers	-6733
▁forests	-6734
▁morocco	-6735
▁rapidly	-6736
▁sisters	-6737
▁trapped	-6738
▁unbelie	-6739
▁convened	-6740
▁diamonds	-6741
▁software	-6742
▁americans	-6743
▁carefully	-6744
▁exclusive	-6745
▁literally	-6746
▁observers	-6747
▁components	-6748
▁impressive	-6749
▁photograph	-6750
▁achievements	-6751
▁expenditures	-6752
▁mobilization	-6753
▁reproductive	-6754
▁subparagraph	-6755
▁surveillance	-6756
bor	-6757
kel	-6758
uce	-6759
▁74	-6760
▁ip	-6761
oles	-6762
▁bid	-6763
▁fas	-6764
▁fer	-6765
▁ham	-6766
▁kaz	-6767
▁leo	-6768
▁nah	-6769
▁nai	-6770
▁odd	-6771
▁wet	-6772
ander	-6773
endum	-6774
▁cure	-6775
▁elev	-6776
▁hamm	-6777
▁peru	-6778
▁phen	-6779
▁pump	-6780
▁ross	-6781
▁teen	-6782
forced	-6783
itious	-6784
▁alien	-6785
▁bones	-6786
▁doors	-6787
▁kenya	-6788
▁nurse	-6789
▁seats	-6790
▁seeks	-6791
▁spect	-6792
▁stood	-6793
▁style	-6794
▁toile	-6795
▁cities	-6796
▁denied	-6797
▁harder	-6798
▁johnny	-6799
▁justin	-6800
▁monkey	-6801
▁provin	-6802
▁reward	-6803
▁silver	-6804
▁tunnel	-6805
▁wished	-6806
▁answers	-6807
▁demands	-6808
▁intoler	-6809
▁touched	-6810
▁updated	-6811
▁website	-6812
▁controls	-6813
▁extraord	-6814
▁judgment	-6815
▁sponsors	-6816
▁survival	-6817
▁architect	-6818
▁judiciary	-6819
▁allocation	-6820
▁preventive	-6821
▁experienced	-6822
▁grandmother	-6823
▁identifying	-6824
▁transmitted	-6825
▁transparent	-6826
▁intervention	-6827
▁investigations	-6828
hi	-6829
uk	-6830
ado	-6831
▁kr	-6832
robi	-6833
▁212	-6834
▁hyp	-6835
▁ram	-6836
▁rus	-6837
▁sed	-6838
sters	-6839
▁coup	-6840
▁gary	-6841
▁joey	-6842
▁tack	-6843
▁viet	-6844
▁demon	-6845
▁eddie	-6846
▁flash	-6847
▁gibbs	-6848
▁helps	-6849
▁links	-6850
▁roman	-6851
▁sucks	-6852
▁affair	-6853
▁buying	-6854
▁desire	-6855
▁entity	-6856
▁harass	-6857
▁liquid	-6858
▁marked	-6859
▁motion	-6860
▁nathan	-6861
▁sports	-6862
▁ticket	-6863
▁austria	-6864
▁contest	-6865
▁injured	-6866
▁massive	-6867
▁newspap	-6868
▁prosper	-6869
▁revenge	-6870
▁savings	-6871
▁silence	-6872
▁weather	-6873
▁assessed	-6874
▁assigned	-6875
▁currency	-6876
▁outlined	-6877
▁vehicles	-6878
▁behaviour	-6879
▁broadcast	-6880
▁forgotten	-6881
▁incidents	-6882
▁inventory	-6883
▁relevance	-6884
▁respected	-6885
▁administer	-6886
▁reputation	-6887
▁composition	-6888
▁examination	-6889
▁extradition	-6890
▁investments	-6891
▁capabilities	-6892
dr	-6893
fl	-6894
cha	-6895
eez	-6896
ell	-6897
▁67	-6898
▁95	-6899
esco	-6900
ooth	-6901
road	-6902
▁fab	-6903
▁oli	-6904
▁typ	-6905
▁ugh	-6906
▁xen	-6907
cient	-6908
derer	-6909
icted	-6910
▁bern	-6911
▁bush	-6912
▁buzz	-6913
▁ecos	-6914
▁hank	-6915
▁isol	-6916
▁jerk	-6917
▁wolf	-6918
▁brave	-6919
▁camps	-6920
▁cheer	-6921
▁disag	-6922
▁genoc	-6923
▁hopes	-6924
▁larry	-6925
▁marty	-6926
▁pizza	-6927
▁recru	-6928
▁scare	-6929
▁topic	-6930
▁whore	-6931
ophobia	-6932
▁abduct	-6933
▁assure	-6934
▁butter	-6935
▁collea	-6936
▁decree	-6937
▁distin	-6938
▁exceed	-6939
▁fallen	-6940
▁famous	-6941
▁greece	-6942
▁handed	-6943
▁length	-6944
▁ruined	-6945
▁assumed	-6946
▁dancing	-6947
▁dischar	-6948
▁maximum	-6949
▁patrick	-6950
▁players	-6951
▁stomach	-6952
▁tourism	-6953
▁watched	-6954
▁impunity	-6955
▁numerous	-6956
▁overcome	-6957
▁stations	-6958
▁tracking	-6959
▁movements	-6960
▁similarly	-6961
▁conducting	-6962
▁disability	-6963
▁guarantees	-6964
▁possession	-6965
▁contracting	-6966
▁programming	-6967
▁demonstrated	-6968
▁prostitution	-6969
▁vulnerability	-6970
kn	-6971
gas	-6972
iat	-6973
oud	-6974
ugg	-6975
▁dp	-6976
▁ls	-6977
▁ou	-6978
orse	-6979
▁bun	-6980
▁cia	-6981
▁pad	-6982
▁spo	-6983
ennis	-6984
▁aims	-6985
▁deem	-6986
▁nuts	-6987
▁brian	-6988
▁candy	-6989
▁dates	-6990
unction	-6991
▁preced	-6992
▁talent	-6993
▁unesco	-6994
▁charged	-6995
▁liberal	-6996
▁pulling	-6997
▁secrets	-6998
▁segment	-6999
▁smoking	-7000
▁victory	-7001
▁adopting	-7002
▁claimant	-7003
▁colonial	-7004
▁combined	-7005
▁describe	-7006
▁disposal	-7007
▁managers	-7008
▁murderer	-7009
▁offering	-7010
▁reaching	-7011
▁remedies	-7012
▁romantic	-7013
▁vacation	-7014
▁announced	-7015
▁celebrate	-7016
▁childhood	-7017
▁dedicated	-7018
▁exception	-7019
▁obstacles	-7020
▁qualified	-7021
▁circulated	-7022
▁enterprise	-7023
▁functional	-7024
▁relatively	-7025
▁withdrawal	-7026
▁allegations	-7027
▁publications	-7028
▁deliberations	-7029
▁extraordinary	-7030
▁parliamentary	-7031
▁xx	-7032
cers	-7033
onym	-7034
▁bah	-7035
▁ngo	-7036
iforn	-7037
itals	-7038
▁1988	-7039
▁atom	-7040
▁brad	-7041
▁dies	-7042
▁ears	-7043
▁gamb	-7044
▁gray	-7045
▁heal	-7046
▁jury	-7047
▁mood	-7048
▁pand	-7049
▁sean	-7050
▁tied	-7051
▁wise	-7052
▁wond	-7053
locked	-7054
▁dozen	-7055
▁leste	-7056
▁marit	-7057
▁motiv	-7058
▁tenth	-7059
▁traum	-7060
ifornia	-7061
▁atmosp	-7062
▁lonely	-7063
▁narrow	-7064
▁oliver	-7065
▁phenom	-7066
▁player	-7067
▁poland	-7068
▁robber	-7069
▁belarus	-7070
▁italian	-7071
▁jackson	-7072
▁nairobi	-7073
▁species	-7074
▁william	-7075
▁windows	-7076
▁advocacy	-7077
▁darkness	-7078
▁memories	-7079
▁multiple	-7080
▁overview	-7081
▁prisoner	-7082
▁reaction	-7083
▁assisting	-7084
▁breathing	-7085
▁christian	-7086
▁complaint	-7087
▁emissions	-7088
▁california	-7089
▁expressing	-7090
▁ministries	-7091
▁safeguards	-7092
▁structural	-7093
▁ultimately	-7094
▁instructions	-7095
rs	-7096
aph	-7097
▁68	-7098
atri	-7099
gust	-7100
osis	-7101
▁shi	-7102
▁tay	-7103
enger	-7104
ville	-7105
▁doin	-7106
▁dust	-7107
▁frag	-7108
▁ldcs	-7109
▁puss	-7110
▁remo	-7111
▁scan	-7112
▁trap	-7113
▁urge	-7114
encing	-7115
▁alban	-7116
▁beast	-7117
▁donna	-7118
▁noise	-7119
▁sandw	-7120
▁shout	-7121
▁sweat	-7122
▁upgra	-7123
▁circle	-7124
▁exclud	-7125
▁garden	-7126
▁guards	-7127
▁impart	-7128
▁incent	-7129
▁lesson	-7130
▁movies	-7131
▁offers	-7132
▁portug	-7133
▁resort	-7134
▁smooth	-7135
economic	-7136
▁chances	-7137
▁cooking	-7138
▁courses	-7139
▁fortune	-7140
▁install	-7141
▁jamaica	-7142
▁journey	-7143
▁possess	-7144
▁alliance	-7145
▁certific	-7146
▁disputes	-7147
▁distance	-7148
▁genocide	-7149
▁maritime	-7150
▁resolved	-7151
▁stresses	-7152
▁continent	-7153
▁dimension	-7154
▁extensive	-7155
▁substance	-7156
▁reiterated	-7157
▁realization	-7158
▁relationships	-7159
jo	-7160
ani	-7161
ini	-7162
iri	-7163
law	-7164
ona	-7165
▁69	-7166
berg	-7167
kins	-7168
▁963	-7169
▁bub	-7170
▁phr	-7171
eters	-7172
point	-7173
▁camb	-7174
▁chop	-7175
▁eggs	-7176
▁gear	-7177
▁inqu	-7178
▁loan	-7179
▁sect	-7180
▁sets	-7181
▁stew	-7182
▁tear	-7183
▁alice	-7184
▁allev	-7185
▁armen	-7186
▁chase	-7187
▁crown	-7188
▁marks	-7189
▁monuc	-7190
▁optim	-7191
▁saint	-7192
▁silly	-7193
▁stink	-7194
▁thief	-7195
▁tower	-7196
▁users	-7197
▁warri	-7198
itative	-7199
▁copies	-7200
▁estate	-7201
▁houses	-7202
▁nights	-7203
▁repeat	-7204
▁toward	-7205
▁broader	-7206
▁francis	-7207
▁hitting	-7208
▁parking	-7209
▁periods	-7210
▁reserve	-7211
▁restric	-7212
▁singing	-7213
▁attempts	-7214
▁confront	-7215
▁confused	-7216
▁expanded	-7217
▁invasion	-7218
▁receiving	-7219
▁transform	-7220
▁guaranteed	-7221
▁officially	-7222
▁intolerance	-7223
▁technically	-7224
▁representing	-7225
df	-7226
ji	-7227
kh	-7228
lel	-7229
▁dj	-7230
▁dw	-7231
▁ga	-7232
▁hm	-7233
▁tu	-7234
cker	-7235
olon	-7236
▁una	-7237
geous	-7238
icked	-7239
ommod	-7240
▁1980	-7241
▁diss	-7242
▁luke	-7243
▁orph	-7244
▁aside	-7245
▁cedaw	-7246
▁crowd	-7247
▁diagn	-7248
▁fancy	-7249
▁inher	-7250
▁motor	-7251
▁ships	-7252
▁stere	-7253
▁trail	-7254
▁babies	-7255
▁conver	-7256
▁fought	-7257
▁fright	-7258
▁harvey	-7259
▁interd	-7260
▁morgan	-7261
▁philos	-7262
▁pocket	-7263
▁rising	-7264
▁seized	-7265
▁surren	-7266
▁adviser	-7267
▁claimed	-7268
▁drought	-7269
▁factory	-7270
▁outputs	-7271
▁refused	-7272
▁resumed	-7273
▁accommod	-7274
▁deserves	-7275
▁magazine	-7276
▁obtained	-7277
▁affecting	-7278
▁emotional	-7279
▁equivalent	-7280
▁engineering	-7281
▁associations	-7282
boy	-7283
cho	-7284
com	-7285
ppy	-7286
bles	-7287
▁aye	-7288
▁dor	-7289
▁ecu	-7290
▁spr	-7291
hetic	-7292
while	-7293
▁blew	-7294
▁chip	-7295
▁clay	-7296
▁cole	-7297
▁crop	-7298
▁dere	-7299
▁epis	-7300
▁gosh	-7301
▁grun	-7302
▁pant	-7303
▁puts	-7304
▁ruin	-7305
▁scra	-7306
▁ambul	-7307
▁badly	-7308
▁ellen	-7309
▁holid	-7310
▁kinds	-7311
▁nasty	-7312
▁pills	-7313
▁roles	-7314
▁susan	-7315
ilation	-7316
▁andrew	-7317
▁arrive	-7318
▁carbon	-7319
▁covers	-7320
▁desper	-7321
▁formed	-7322
▁junior	-7323
▁switch	-7324
▁adverse	-7325
▁croatia	-7326
▁decades	-7327
▁decolon	-7328
▁disgust	-7329
▁equally	-7330
▁exports	-7331
▁funeral	-7332
▁mystery	-7333
▁regards	-7334
▁trading	-7335
▁trusted	-7336
▁younger	-7337
▁integral	-7338
▁rejected	-7339
▁reliable	-7340
▁thoughts	-7341
▁belonging	-7342
▁chocolate	-7343
▁corrected	-7344
▁complaints	-7345
▁scientists	-7346
▁xenophobia	-7347
▁departments	-7348
▁distinction	-7349
▁interaction	-7350
▁utilization	-7351
cp	-7352
mi	-7353
mit	-7354
▁84	-7355
▁97	-7356
▁sb	-7357
▁hug	-7358
▁ohh	-7359
▁tag	-7360
acing	-7361
▁arts	-7362
▁hors	-7363
▁muse	-7364
▁yard	-7365
▁begun	-7366
▁divid	-7367
▁kelly	-7368
▁loser	-7369
▁posed	-7370
▁react	-7371
▁strip	-7372
▁tatto	-7373
▁toast	-7374
▁trees	-7375
isition	-7376
▁amanda	-7377
▁assass	-7378
▁beings	-7379
▁counse	-7380
▁detain	-7381
▁kazakh	-7382
▁slowly	-7383
▁stocks	-7384
▁toilet	-7385
▁voices	-7386
▁yellow	-7387
▁devoted	-7388
▁ecuador	-7389
▁enemies	-7390
▁eritrea	-7391
▁explore	-7392
▁exposed	-7393
▁pushing	-7394
▁romania	-7395
▁settled	-7396
▁variety	-7397
▁vincent	-7398
▁audience	-7399
▁conclude	-7400
▁detained	-7401
▁premises	-7402
▁seminars	-7403
▁operative	-7404
▁performed	-7405
▁tolerance	-7406
▁adjustment	-7407
▁controlled	-7408
▁prohibited	-7409
▁reiterates	-7410
▁demonstrate	-7411
▁decolonization	-7412
▁desertification	-7413
aka	-7414
bre	-7415
urt	-7416
▁ny	-7417
ager	-7418
okes	-7419
oned	-7420
▁700	-7421
▁bug	-7422
▁bum	-7423
▁gdp	-7424
▁gig	-7425
▁jen	-7426
▁lob	-7427
▁unr	-7428
bered	-7429
cohol	-7430
itter	-7431
known	-7432
uling	-7433
▁bags	-7434
▁beth	-7435
▁crus	-7436
▁elig	-7437
▁grav	-7438
▁nurs	-7439
▁oios	-7440
▁pink	-7441
▁sara	-7442
▁trag	-7443
▁twel	-7444
▁unus	-7445
heries	-7446
▁birds	-7447
▁chart	-7448
▁focal	-7449
▁grass	-7450
▁jenna	-7451
▁jones	-7452
▁kills	-7453
▁lemon	-7454
▁parad	-7455
▁simpl	-7456
▁terry	-7457
▁trace	-7458
▁unmik	-7459
▁exists	-7460
▁height	-7461
▁howard	-7462
▁machin	-7463
▁mister	-7464
▁proved	-7465
▁steady	-7466
▁traged	-7467
▁trials	-7468
▁cameras	-7469
▁finland	-7470
▁intense	-7471
▁jointly	-7472
▁passing	-7473
▁reviews	-7474
▁therapy	-7475
▁auditors	-7476
▁commence	-7477
▁lebanese	-7478
▁montreal	-7479
▁reflects	-7480
▁wherever	-7481
▁delicious	-7482
▁fisheries	-7483
▁meanwhile	-7484
▁mountains	-7485
▁referring	-7486
▁subjected	-7487
▁sanitation	-7488
▁complainant	-7489
▁description	-7490
▁sustainability	-7491
▁transportation	-7492
20	-7493
ws	-7494
agu	-7495
bar	-7496
can	-7497
ede	-7498
imp	-7499
sta	-7500
umn	-7501
wan	-7502
▁01	-7503
▁94	-7504
enez	-7505
fall	-7506
uine	-7507
▁dup	-7508
▁htm	-7509
▁jay	-7510
▁nan	-7511
▁nik	-7512
▁sov	-7513
asant	-7514
bound	-7515
etime	-7516
orage	-7517
▁batt	-7518
▁brus	-7519
▁mong	-7520
▁neut	-7521
▁pard	-7522
▁sons	-7523
▁thri	-7524
▁woke	-7525
repren	-7526
▁betty	-7527
▁cells	-7528
▁envis	-7529
▁filed	-7530
▁hated	-7531
▁intim	-7532
▁milit	-7533
▁naked	-7534
▁reply	-7535
▁roads	-7536
▁rooms	-7537
▁snake	-7538
▁stret	-7539
▁unrwa	-7540
▁wider	-7541
ourable	-7542
▁backup	-7543
▁cheers	-7544
▁crises	-7545
▁define	-7546
▁equity	-7547
▁loving	-7548
▁merely	-7549
▁receip	-7550
▁serbia	-7551
izations	-7552
▁alcohol	-7553
▁heavens	-7554
▁largely	-7555
▁objects	-7556
▁biennial	-7557
▁cleaning	-7558
▁employee	-7559
▁exciting	-7560
▁financed	-7561
▁handling	-7562
▁interior	-7563
▁stealing	-7564
▁automatic	-7565
▁entrepren	-7566
▁increases	-7567
▁reiterate	-7568
▁assignment	-7569
▁continuous	-7570
▁industries	-7571
▁regardless	-7572
▁immigration	-7573
▁negotiation	-7574
▁confidential	-7575
▁conservation	-7576
▁successfully	-7577
no	-7578
fle	-7579
mun	-7580
uds	-7581
atar	-7582
emen	-7583
gers	-7584
ique	-7585
ores	-7586
owed	-7587
race	-7588
riel	-7589
uman	-7590
vant	-7591
▁dum	-7592
▁etc	-7593
▁han	-7594
▁spy	-7595
▁zoe	-7596
eenth	-7597
imony	-7598
riers	-7599
stone	-7600
ystem	-7601
▁1989	-7602
▁doug	-7603
▁euro	-7604
▁exit	-7605
▁fran	-7606
▁insp	-7607
▁liby	-7608
▁poly	-7609
▁stab	-7610
▁whoo	-7611
▁wing	-7612
giving	-7613
▁bangl	-7614
▁metal	-7615
▁nepal	-7616
▁ozone	-7617
▁pride	-7618
▁shake	-7619
▁texas	-7620
isation	-7621
ography	-7622
▁boston	-7623
▁casual	-7624
▁garage	-7625
▁maggie	-7626
▁mirror	-7627
▁observ	-7628
▁overse	-7629
▁rememb	-7630
▁repair	-7631
▁soviet	-7632
▁warned	-7633
▁waters	-7634
▁choices	-7635
▁commend	-7636
▁genuine	-7637
▁helpful	-7638
▁liaison	-7639
▁mexican	-7640
▁unknown	-7641
▁allowing	-7642
▁appeared	-7643
▁argument	-7644
▁directed	-7645
▁granting	-7646
▁organize	-7647
▁sixtieth	-7648
▁abandoned	-7649
▁arbitrary	-7650
▁endeavour	-7651
▁gentleman	-7652
▁responded	-7653
▁adaptation	-7654
▁emphasizes	-7655
▁historical	-7656
▁kazakhstan	-7657
▁coincidence	-7658
▁generations	-7659
▁philippines	-7660
▁undertaking	-7661
▁perpetrators	-7662
▁consolidation	-7663
▁psychological	-7664
asy	-7665
ata	-7666
iry	-7667
lyn	-7668
ram	-7669
tar	-7670
▁76	-7671
▁98	-7672
▁fi	-7673
fers	-7674
gues	-7675
iate	-7676
prus	-7677
uela	-7678
what	-7679
▁600	-7680
▁gam	-7681
▁sid	-7682
▁vii	-7683
adesh	-7684
osite	-7685
ourse	-7686
▁alph	-7687
▁bike	-7688
▁boun	-7689
▁bowl	-7690
▁brut	-7691
▁ciga	-7692
▁eliz	-7693
▁feas	-7694
▁hits	-7695
▁	-7696
e	-7697
t	-7698
o	-7699
a	-7700
i	-7701
n	-7702
s	-7703
r	-7704
h	-7705
l	-7706
d	-7707
u	-7708
c	-7709
m	-7710
.	-7711
y	-7712
g	-7713
f	-7714
p	-7715
w	-7716
b	-7717
,	-7718
v	-7719
k	-7720
'	-7721
?	-7722
j	-7723
0	-7724
x	-7725
!	-7726
2	-7727
1	-7728
z	-7729
q	-7730
9	-7731
5	-7732
3	-7733
4	-7734
6	-7735
:	-7736
7	-7737
8	-7738
;	-7739
